#version: 0.2 - Trained by `huggingface/tokenizers`
Ġ Ġ
r e
; <
Ġ =
ĠĠ ĠĠ
o n
e r
- -
i n
o r
> <
s t
ĠĠ Ġ
a r
l e
Ġ {
c t
t h
) ;<
a l
Ġ re
d e
i on
s e
Ġ{ <
a t
-- --
r o
e n
u n
Ġ f
q u
i s
Ġ c
e x
u r
Ġ (
Ġ }
i re
v ar
( '
qu ire
or t
p e
. /
p ort
Ġ t
e s
Ġ '
ct ion
Ġ th
Ġ *
a n
un ction
Ġre quire
y pe
i t
Ġ n
t ur
tur n
st r
in g
ĠĠĠĠ ĠĠĠ
i f
u e
---- ----
u l
o d
/ /
ex port
' );<
c e
Ġ p
b j
Ġ o
p t
a s
ĠĠĠĠ Ġ
u le
a m
Ġre turn
. ./
on st
en t
e t
o de
= =
r a
, <
Ġ} <
od ule
> }
e d
Ġ _
Ġ s
v al
e ct
de f
c h
t er
export s
i m
) <
Ġ if
l o
Ġ b
p er
bj ect
i l
* *
o l
at e
Ġ str
Ġf unction
ul t
Ġ m
a b
u m
Ġth is
t ype
u t
Ġ "
ro m
i c
o m
t o
r i
Ġ a
Ġ in
val ue
c onst
m odule
f unction
' )
ab le
v er
ion s
R e
. <
' ;<
-------- --------
P ro
t r
a p
u se
a ult
ra y
e y
s er
a d
Ġ var
Ġth e
p l
a th
(' ../
c k
r or
Ġ= ==
g et
/ <
Ġ 0
Ġ w
e l
ex t
I n
(' ./
i g
am e
p ro
O bject
Ġt r
Ġ d
i d
' ,
h t
( "
pt ions
Ġ is
i ct
> //
al l
( )
def in
o p
in ter
Ġ T
per t
>} <
Ġ |
g e
e w
Ġ @
ĠĠĠĠ ĠĠĠĠĠĠĠ
A r
Ġt o
Ġstr ict
/ **
Ġ &
Ġ* /<
Ġc on
Ġf rom
Ġtr ue
Ġ +
Ġ C
e m
o f
k ey
Ġ S
le n
def ault
o ur
e st
c l
v e
pert y
o t
Ġc onst
E r
Ġ& &
im port
Er ror
Ġ value
ĉ ĉ
. _
j s
f f
b er
Ar ray
se t
our ce
i le
D e
/** <
a ce
Ġ= >
g th
u b
a re
th is
m ent
c on
a se
Ġ an
n t
at a
Ġ !
Ġ `
Ġ //
ct or
Ġ 1
Ġn ew
to type
i r
Ġt ype
" ;<
len gth
Ġ [
um ber
as s
p s
Ġ de
Pro perty
" );<
at ion
n c
p ar
ar g
Ġstr ing
a ck
re quire
Ġ st
c ri
Ġ l
Ġf or
es s
Ġ| |
h e
T ype
>} ;<
ro w
at or
re s
re turn
Ġ un
tr ing
] ;<
ul l
str ing
o o
} <
al se
c o
Ġ M
c om
Ġ :
inter n
ht t
Ġ i
Ġp ro
en d
i th
Ġ h
Ġo f
i st
ut il
Ġ ?
Ġ g
de x
u ff
) )
le t
S t
in t
al s
Ġ <
Ġf alse
0 0
Ġ! ==
Ġ $
defin e
ĠĠĠĠ ĠĠĠĠ
: //
at ch
pro totype
Ġre s
cri pt
E x
Ġ as
uff er
Ġ A
Ġo bj
n ode
De f
S tring
y m
Ġo ptions
Ġ -
Ġ( )
Ġ B
' )<
en se
---------------- ----------------
ic ense
a ge
re ate
defin ed
s ion
M ap
Ġ it
Ġ L
" )
Ġn ode
u p
u g
u s
in d
o bject
f or
('../ ../
b ol
M odule
ar ray
( );<
i z
d er
a ch
ym bol
y nc
w n
C on
Ġ} );<
lo b
um ent
htt ps
Ġs ource
Re quire
Ġp ath
Ġ P
ser t
V al
le ment
intern als
Ġ get
Ġn ull
** **
str u
Ġb e
a g
' <
o s
module s
Ġ key
Ġ R
" ,
Ġ 2
pt s
l i
Ġ( !
an ge
T o
E N
Def ault
_ _
in s
n ame
Ġ arg
m a
E R
Ġ I
p ath
an d
in e
ar t
Ġ e
l ass
Ġ G
o un
v ent
inter op
(" ./
Ġ} ;<
) .
? :
er ror
t ext
interop Require
i se
r y
define Property
U R
f ig
Ġ N
type of
pl ace
K ey
Ġd ata
Ġ r
Ġ v
m ap
en er
o c
qu al
l y
Ġc om
Ġ Object
stru ctor
e th
el se
Ġ lo
Ġ ex
o re
par am
es Module
k en
ol or
interopRequire Default
c ess
Ġ /
c all
iz e
Ġ Re
ig n
O f
im e
Ġn umber
Ġun defined
' ,<
a k
Ġn ot
un c
Ġ se
b ser
i ve
it er
ver t
Ġp ar
Ġ else
ra p
util s
Ġ https
. .
Ġ or
lob al
p re
Ġ* <
er r
ri g
Ġan d
rom ise
Ġ default
ĠĠĠĠ ĠĠĠĠĠ
o bj
o ptions
Ġ F
I T
Ġ on
Ġc all
bser v
er s
Ġ O
>} );<
il d
Val ue
bserv able
re am
p ut
a ct
eth od
rig ht
c ode
Ġ en
r it
Ġc h
al k
Ġtype of
h as
cl are
Ġ >
i x
Ġ val
Ġ D
are nt
S E
i es
Ġth row
e c
an ce
op y
Ġ set
a st
b ack
/ *
Ġc ode
le an
Ġ U
) :
an s
') .
ĠT ype
cript or
O N
oun d
ess age
ver sion
Ġ' ../
Ġf ile
f e
UR L
Ġ W
un t
ol ve
c a
or g
tr ins
trins ic
ĠĠĠĠ ĠĠĠĠĠĠĠĠĠĠĠ
o w
s h
ad d
N ame
s s
e b
> /**<
a y
('./ _
in it
in dex
t est
oo lean
In t
Ġn ame
Ġm odule
o le
ument s
Ex p
n ext
o id
am es
Ġ let
== ==
Ġth at
Ġ E
i p
C lass
* /<
u st
c reate
Ġ{ }
o ut
J S
Ġb y
pe ct
') ,<
ctor y
for m
O ptions
N ode
S ymbol
lo w
if y
re ad
p ing
P ath
Ġres ult
Ġas sert
if i
d ir
ach e
Ġo bject
ĠG et
Ġh as
ar get
Ġp re
Ġw ith
or d
) ,
C ode
Ġw h
com p
l l
s ource
0 1
co re
de nt
ter n
Ġ exports
Ġv oid
y le
ent ry
c ur
Ġo pts
( {
Ġ} )<
el per
Ġ use
Ġ ext
U n
u re
O wn
i b
us h
p ace
il l
lo g
Pro totype
e g
C om
**** ****
) );<
i al
Ġ} ,<
Ġ' ./
f ile
Ġ H
\ \
e qual
Ġ Array
u per
Ġpar se
I N
Ġt est
n o
ch em
Ġcom p
st ance
um er
Ġ es
E lement
at ed
ri v
Ġc reate
') );<
re n
on e
I C
l icense
F unction
p en
j o
ur l
+ +
ĠT he
a c
or k
de s
co unt
u es
riv ate
t a
] <
opy right
pe c
O R
Ġb ase
$ {
d ata
" ,<
a x
type s
Ġ array
Ġ 3
In trinsic
f rom
ug in
l int
f ace
ol der
R ange
de clare
I m
m o
B uffer
ĠGet Intrinsic
] ,
r c
Map ping
N umber
he ck
Type Error
Ġ" __
Ġcon vert
Ġ Error
chem a
D es
Ġf unc
i v
Ġde s
an g
de d
b ind
o st
ar r
._ _
Ġ y
ĠC opyright
Ġl icense
up port
l ine
In dex
R es
it ion
an t
' :
k e
Ġarg uments
ul d
par se
o uld
A t
( _
Mapping URL
v i
cl ass
[ ]
g ex
w rit
jo in
-------------------------------- --------------------------------
p ush
) ;
Ġ at
h older
ec ma
---------------------------------------------------------------- --------
Ġs h
Ġsource MappingURL
Own Property
h is
s ync
C all
o ver
d d
h elper
ub l
pl y
l f
v el
b ug
it s
E S
C h
ro ot
>// #
` `
n umber
E n
/ #
O bservable
re e
------------------------------------------------------------------------ ----
p os
ab el
F ile
li ce
Ġ error
L ist
f ix
end s
as h
Ġm ethod
Ġf a
( [
St ate
re d
place holder
Ġg lobal
") );<
Ġ /**<
val id
] .
1 1
EN T
qu est
li b
th row
ith ub
s ub
( <
g ithub
ar y
u th
lo ck
Des criptor
d is
se c
j ect
( )<
h er
o se
Ġ} ,
-- <
ĠType Error
at tern
il s
ĠC h
S e
ig ht
th er
Ġ{} ;<
Ġ In
at ive
Ġ x
ir st
htt p
D ata
re nt
per ator
ifi er
Ġcon fig
s ions
S ync
u al
on ly
Ar g
S T
ĠB uffer
it y
` <
iter ator
ĉĉ ĉ
pert ies
2 6
] );<
e p
im it
Ġ entry
c ss
ut e
re place
ck et
A R
---------------------------------------------------------------------------- --<
p arent
ĠM IT
" <
res sion
co pe
rap per
S et
w ord
P ar
m on
im p
t es
pt ion
(" ../
Ġext ends
Ġin dex
ĠC on
qu e
A T
P l
Ġcon text
g lobal
Ġf ound
ter face
Ġn o
Ġc an
ubl ic
cl ar
mo ve
Ġs uper
o pts
E qual
il ter
Ġcall back
am p
IC EN
I ter
Ġan y
ICEN SE
I s
cl u
Ġres olve
Ġpro cess
Ġp arent
le ct
uth or
Ġ length
ch ar
b e
un defined
26 2
.. .
I D
s lice
Ġ[ ];<
de nc
pen denc
n ot
oo k
V G
v ed
ca pe
js on
Ġc lass
U t
3 2
g Exp
s ole
ans form
A n
lo se
b ase
Ġc ase
ire ctory
w eb
st art
T ime
cript ion
L en
le d
ĠT o
ĠL icense
st yle
ĠL ICENSE
F rom
Ġs ub
le ctor
return s
c olor
f s
g ener
or m
b uffer
Ġcon structor
he ad
E ach
) (
un k
Ġin stance
ff set
: <
Ġf s
S ource
pro perty
res olve
arg s
Ġ+ =
en v
Ġst at
Ġb u
t ri
Ġ ,
umer able
Ġ JS
in k
Prototype Of
O D
m it
Ġ al
I d
] ,<
m in
W ith
w w
B y
t ent
Ġb oolean
add Range
Ġ version
Ġ utils
1 6
==== ====
n ew
c od
to String
em pl
eg er
Ġe vent
6 4
ĠU se
[ "
ĠS tring
p on
ĠP romise
>// ------------------------------------------------------------------------------<
] )
p ack
a in
con structor
l ist
row ser
++ )
imp lement
as sert
V er
(' %
dis able
pect ed
m atch
tr y
Ġto ken
ul ar
Ġ 4
op en
Ġst ate
Ġes lint
key s
c ol
M L
n er
ib le
Ġarg s
s rc
ak e
le vel
s cri
Ġ .
lo c
helper s
tri b
ar d
empl ate
con vert
to ken
L E
Ġin terface
Ġa re
Ġc olor
Ġn ext
Ġ2 01
oc s
E vent
n ull
Ġt arget
b abel
pro cess
ĠCh alk
Ġm atch
pl it
Ġst art
` .<
S S
m l
Pro ps
et ad
ment s
c at
Ġc ur
writ e
etad ata
l ag
Im pl
o k
ames pace
R ole
T r
C ase
le ase
O M
con fig
Ġun der
F I
" ]
R A
f ore
Ġ" ./
i ke
Ġp l
f oo
pt y
Ġl ist
To ken
/* <
r l
str ict
ap ply
A ll
st ream
ĠT his
i able
d ate
clar ation
Ġo ut
Ġm ust
f unc
m essage
Ġlo g
a it
Ġde clare
ĠO bservable
Ġd o
C olor
l er
Ġ http
Ġkey s
P E
ch ed
Res ult
> ;<
% ');<
Ġ root
Ġp os
f n
Ġs upport
Ġse lf
er y
t e
Ġit er
a ve
t s
( ?:
o cket
a fe
it e
Ġf n
Ġval id
Ġa dd
ĠS ymbol
ĠM ath
re ak
Val id
pe d
em it
Ġc heck
im pl
ind ow
amp le
Pl ugin
v id
Ġm essage
oun t
ren ce
Ġ url
Exp ression
R ule
Ġch ar
ar n
******** ********
St ream
f t
g r
} ;<
Ġst ream
3 9
dent ifier
fe rence
O r
[ '
i o
U rl
Ġc atch
j est
(" @
con text
Ġ= =
Ġre ad
ass ign
ation al
s i
in put
for Each
Ġ'../ ../
Len gth
Ġtr y
00 00
oc ument
L O
no wn
} );<
re f
s ymbol
que ue
F or
A s
Con fig
1 0
> */<
intern ational
ĠRe turn
T ML
is Array
p rivate
( /
() .
Def init
ad er
e ak
Ġs pec
b u
b oolean
ch alk
f ill
at es
o int
Ġpro perty
iter al
t arget
5 6
n e
r ule
i el
P re
Ġ arr
l ink
R E
on g
res s
w ait
vid er
T ag
Ġ end
Ġ> =
in al
ĠĠĠĠĠĠĠĠ ĠĠĠĠĠĠĠĠĠĠĠ
P romise
ra w
er ge
iel d
Ġit em
a il
Ġ u
ir t
Ġ define
ĠA ll
um n
ĠR es
> "
' t
Ġc b
S I
pro to
irt ual
ver sions
strict Equal
r ame
({ <
[ ];<
Ġw e
w ork
tr ue
g b
it em
ust om
read only
st at
T Y
{ <
Ġa p
res ult
ry pt
gr am
Ġm ax
a uthor
Ġa c
Ġb uffer
ched ul
r ange
Ġinstance of
L e
ode l
et a
Ġw rit
chedul er
ĠC om
/ _
C ache
ra ce
Iter ator
ign ore
Ġn e
p ost
ur able
De pendenc
L oc
t en
Ġ err
ca le
= "
is h
ang ular
) ,<
Con structor
" )<
Ġ J
Ġm ap
G E
ch ild
char Code
un d
Ġval ues
s c
ĠI s
F F
license s
L ike
es next
f o
f ter
e vent
let e
Ġwh ile
Ġdes criptor
Ġex p
her its
implement ation
m s
as k
tr im
i a
Ġcon sole
A c
M ethod
t c
Con text
Ġsuper Class
t em
d o
orm al
Ġde bug
ta in
s plit
S ub
in trinsic
ENT I
all y
Ġ ab
i len
Ġd ir
par ser
FI ER
G et
ap i
( (
ENTI FIER
Ut ils
as se
re act
L C
ĠN ode
Ġ len
o perator
ht ml
Ġsh ould
b y
Ġ[ '
o u
De claration
g le
count s
ID ENTIFIER
cod ing
a N
('../../ ../
Key s
iv en
s ing
Ġp rivate
Ġ le
al led
T est
index Of
Ġ} ;
E D
Ġ+ <
f alse
intern al
m at
Ġb reak
Ġin put
el l
Ġch ild
A sync
ĠĠĠĠĠĠĠĠ ĠĠĠĠĠĠĠĠ
ant s
unt ime
Int eger
b o
as ync
Pro perties
Ġg iven
t ra
Ġ j
N ames
k ip
open source
re gex
in ary
con cat
2 0
B ase
Re gExp
Ġas ync
p a
er ved
st ate
scri ber
m ethod
is it
) )<
Ġpar ser
con d
`` `<
x y
od y
Ġ );<
ma x
ĠReturn s
Ġ 5
charCode At
Ġ id
ight s
Ġd is
Ġd irectory
] (
Definit ion
vi ew
g or
Ġ( (
Ġ z
ĠR ule
ĠR ights
Ġr ange
ĠRes erved
ĠB N
qu ery
f ilter
Ġ all
sh ould
ilen ame
Ġ$ {
in es
") .
Ġlo c
> /**
p h
Ġc ache
Ġ up
ile d
pl ic
Ġm in
> '
Ġm od
S chema
Ġl ine
Ġcomp are
w d
s ible
if t
Ġfa ctory
oo gle
Un bind
Ġentry Unbind
C SS
Ġ< =
ce pt
Ġs rc
Ġ|| <
g ro
Ġ K
' s
Ġc ol
Ġ1 6
St art
Ġo ffset
B ound
M essage
M IT
T his
e e
Ġcur rent
s ol
Ġ{ }<
over n
Ġpro p
get OwnProperty
id th
ar ch
se lf
post css
ri es
ack age
has OwnProperty
i str
Dependenc y
a v
c ache
ĠS VG
and ler
Ġ' \
L o
Ġf irst
ag es
P R
Ġc l
S VG
Re gex
Ġg overn
pl ugin
s ize
Ġ util
Ġo wn
in herits
U p
om e
s on
le ction
t ag
ch or
em ber
i ver
node s
Ġpre fix
o wn
O SE
c es
St at
Ġwh en
T h
at ions
S ize
Ġ1 0
1 2
D ir
Ġg ener
lo ad
Ġ/ *
s l
es lint
l at
p romise
Ġ&& <
com mon
ĉĉ ĉĉ
Ġ( _
writ able
Ver sion
] [
c lose
i ch
OD E
S cope
() :
P os
t in
l ast
> /*
P er
Ġ 8
s pec
2 01
} )
ex p
Tr ansform
re move
re lease
ĠG oogle
Key word
L A
of f
ist s
ĠL LC
E nc
over view
Ġgovern ed
f ind
Ġ" @
Ġ k
ig inal
A L
Ch ar
ww w
trib ute
G ener
stru ct
ĠJS ON
m and
w rap
file overview
am d
() ,
Ġl ast
L ine
arg uments
Ġ' [
Call back
d ocs
rypt o
Ġ em
Ġw ill
ial ize
M atch
c cur
k g
ver se
Ġ> >
d om
Ġr ule
Ġ" ../
Ġbu f
Ġen umerable
UR E
se nt
C heck
Source Map
Ġa wait
Ġ export
Ġw rap
Ġe lement
y nt
le x
Ġp romise
A X
Re f
string ify
r imit
Ġon ly
ar k
Ġo ther
S h
Ġlo ose
> $
pro p
d u
t t
de ep
lo or
ĠSVG Props
Ġre t
ro y
M P
O T
M ath
p ac
Ġ/ ><
b g
es cape
Ġ' ';<
pon ent
p end
ing s
Ġ/ ^
Ġo ccur
} `
er o
ig Int
pre c
" :
O n
B right
St yle
dir name
ynt ax
f init
k dir
Ġin it
N aN
ĠS t
ic k
i ce
e ad
ol ver
Ġ Pro
2 56
cur rent
Par ser
Ġ V
Ġex pected
O ffset
m pty
w h
Ġt ime
Ġs chema
and le
En d
S cript
T he
B e
Ġf ind
') ,
Ġfor mat
am s
clu de
er ver
t ime
Ġpre v
O L
Ġsub Class
i as
clu des
As sert
00 0
rimit ive
rap h
al let
ex ample
ĠS et
Re quest
LO OSE
ans i
T emplate
>// /
Ġuse d
Ġm s
( `
Ġw ork
ĠE vent
ot e
de bug
ĠA n
Ġit s
ĠU int
U M
Ġ 6
Ġ! =
al low
ormal ize
Ġen v
Ġfa iled
s uper
Ġn on
ĠN umber
ĠIn c
= >
ra g
B U
b ar
ĠM odule
pon se
I ON
p attern
======== ========
To Array
form at
E mit
$ /
finit y
D E
Ġw eb
Ġd ocs
ĠRe gExp
ut f
Ġ_ _
c ord
m d
Ġt ext
Ġ Y
k nown
Ġ[ <
Ġ us
s upport
Ġ ro
Ġhas h
': <
c ard
an y
g er
on ent
Ġpro to
Ġb rowser
s v
A N
r int
Ġh ave
bo x
in stance
Ġout put
8 0
a z
Ġconfig urable
a ctory
Ġp attern
ow er
il er
IN G
Se lector
Ġin st
B lock
W h
ug ins
trib ut
) []
tin ue
ol y
e ar
Ġre move
Ġr un
ce iver
L imit
S D
> )
inter face
M etadata
ifi ed
Arg s
ĠJS X
a pt
p ublic
Ġtype s
par ator
To String
Ġ import
F n
pro ps
w it
call back
Ġon e
C ol
Q u
Ġre quest
Ġm ake
Assert ion
Ġpro ps
V ar
r untime
de st
if ic
b it
I tem
g lob
s ure
W rapper
Ġwh ich
Ġin t
w rapper
Ġ( <
lo cale
} ,
b ook
JS ON
rule s
C T
ent ries
pro pos
Ġchar act
U L
re nc
ce d
Ġd one
ĠM ap
H TML
and om
Ġlicense d
Ġc opy
T ER
() );<
I S
Pro p
um e
ĠF unction
impl Symbol
off set
Ġt ree
con tent
v irtual
Ġre place
Ġn amespace
wit ch
ild card
O bj
or s
le m
able d
gener ated
E mpty
od ash
Gener ator
Ġs ymbol
Ġby tes
P attern
m ed
gener ate
Ġm eta
Ġen coding
Le vel
s afe
em Ver
L ower
s ign
th en
() )
Ġst op
pac es
Ġ head
Ġre ject
se m
F lag
ĠĠĠĠ ĠĠ
' ]
Ġstat ic
In it
T H
Ġ ...
o us
val ues
Ġbe fore
Ġ' @
O P
iz ed
W ildcard
oly fill
c ase
Ġ ignore
Ġo ption
W eb
Ġc alled
ver y
ĠS ub
C l
set PrototypeOf
Ġy ou
En try
umer ic
a ir
A p
L iteral
n um
Ġst ack
O U
ing le
C E
B u
b in
Type d
le ar
an ner
tern al
c wd
Ġbase dir
u res
st ack
Ġw as
asse s
C ount
Ġo ver
Ut il
Ġp ackage
Ġs ize
T S
o ther
Ġpro perties
comp are
Ġparse d
ext ra
C H
s or
iz er
Ġal low
Transform er
i k
Ġ' /
Ġarg ument
has h
M odel
T E
Ġes cape
ay s
tain er
C o
Re turn
ace book
des criptor
ur ation
con sole
ĠH TML
des cription
n ap
Ġ Ex
global Object
w e
ĠF acebook
Ġr gb
ĠS emVer
Ġcolor s
ĠUse d
s chema
li ent
sh ift
Lower Case
en ded
Ġpro vi
si de
Ġ implementation
f er
Ġ' __
Pro vider
Ġb ut
Ġ %
Ġb lock
init e
n amespace
Ġp art
ĠR ange
> (
b rowser
re q
ex ec
D ate
f irst
Ġ! !
") ,
m p
om ent
Ġw indow
Ġwrit able
ne ction
propos al
S ocket
U se
er t
') ('
arg ument
ess ages
Ġ queue
Ġ= <
cri be
RA N
e lement
j v
Call able
sol ute
Ġp ublic
Ġcon tent
ce ption
Ġw rapper
re quest
cod er
de n
default s
TY PE
T ext
s p
Com ponent
lo at
Ex ten
eak Map
M E
Ġ js
") ;
ĠD ate
ition al
red u
F inite
Ġd id
Property Key
regex p
Ġs ign
Emit ter
l d
x A
ate gor
he re
N ot
ĠI m
ategor y
to LowerCase
ĠM AX
n ect
ra cket
S pec
pre sent
ifi ers
Ġre l
Ġvar iable
Type s
I dentifier
R un
Ġc lose
se lector
pro ject
List ener
a ction
Ġdo es
ĠĠĠĠĠĠĠĠ ĠĠĠĠĠ
locale s
Ġwith out
gro und
m od
Ġde st
g n
il t
for ce
Ġdes cription
P oint
d one
Ġa st
i pe
p m
ĠI f
Ġre port
ol low
g istr
al le
Iter able
S A
b lock
OD O
') )
Ġcall Bound
>} )<
l odash
pl an
In ter
ĠT Y
By tes
bu f
=" @
o bservable
x t
or re
I L
cess or
S cheduler
type def
ĠA N
by tes
F E
] +
Com p
sc anner
ĠS ee
pre fix
Ġfile s
ĠCon structor
y st
h a
Symbol s
orre ct
Pro to
m ath
F rame
a use
ma in
J son
Ġst yle
n s
redu ce
Ġre gex
Com ment
Var iable
Ġcon tinue
K E
Ġa ct
lag s
Ġ #
re port
isit or
m erge
Ġ \
00 1
Ġm ore
type d
Ġcon versions
ĠE S
>$ ({
Ġa ff
ĠP ar
Ġprovi ded
ĠI ter
Ġor iginal
ĠT ODO
ĠĠĠĠĠĠĠĠ ĠĠĠĠĠĠĠĠĠĠĠĠĠĠĠ
W ork
B oolean
ul o
pre v
Ġf ix
com m
H ash
Ġs u
en umerable
Ġan chor
Ġ(! (
Sub scriber
N ative
// //
ins pect
**************** ****************
w are
ta pe
Ġbu ild
Enc od
gistr y
ĠLicense d
C reate
Ġp er
Ġ* /
Ġ>> >
y n
S tr
N UM
ch unk
Ġnode s
Ġu ser
Ġc ount
Ġa fter
Ġo pen
ĠTY PE
* /
n d
F actory
Q ue
apt er
g en
p atch
il der
Ġd ig
Time out
Ġne ed
yst em
Ġch alk
is s
it ions
( __
i ates
Con s
ER IC
ff ff
b ody
A SE
Ġ emit
is sing
ex pected
an not
ad able
sem ver
T arget
Ġto String
Ġ' -
S pace
V ER
Ġ right
read able
i de
w o
child ren
) .<
ug h
ans port
sub Class
Ac count
s ome
St ack
cur ry
A B
` ,
Lo g
B igInt
Ġdes c
s cription
Ġm essages
A S
r gb
Ġ Definition
it es
valid ate
3 4
E LE
f ul
("../ ../
Ġ Require
pe at
pendenc ies
Ġ: <
tra ct
D irectory
V irtual
fe renc
An d
h ex
Ġ 9
Ġ' \\
Ġ{} )
! <
re en
un bind
Ġf ollow
r x
F irst
Ġre q
loc al
comm ended
A dd
Ch unk
) ?
A uthor
E s
f ilename
Ġentry Virtual
Que ue
> /*<
w arn
in cludes
s ort
Ġf ilter
ic ode
up date
us ive
ERIC IDENTIFIER
2 4
is NaN
not ation
getOwnProperty Descriptor
( ()
F orm
ach ed
sh a
Ġwrit e
N ODE
cl usive
Ġ` ${
A D
Y ear
Val ues
Ġchild ren
Typed Array
as ic
P rimitive
ph p
' ],<
Ġb ack
Ch ild
i ew
s kip
en code
iter able
w ik
per s
il iates
Ġaff iliates
l ing
Ġ def
R ight
com ment
a w
tr ansform
Property Descriptor
ĠW eb
] *
In valid
ubl ish
dest roy
wik i
P I
f lat
Ġem pty
d out
per ation
th e
prec ated
Ġ --
Ġin to
y ler
ser ve
elper s
Ġ 7
Ġa d
Ġ+ +
NUM ERICIDENTIFIER
Ġ level
pt im
Ġex pect
ta ins
] )<
s ocket
ch link
pack age
chlink ert
Ġ query
use d
ĠC ode
comp at
H ex
f loor
h ost
Ġp kg
al loc
Ġto k
Ġcol umn
Ġ )<
ro up
if f
st op
1 5
c b
s cope
or der
it le
Ġen code
throw s
M ode
t ed
Ġre commended
ĠC heck
Ġan Object
ĠP ublic
Ġ"../ ../
' .
et er
ch e
Ref lect
> ```<
u bject
Ġ[ ]<
he ther
event s
i que
is Finite
ER R
param s
Ġc ategory
Ġt ra
SI ON
Ġpro gram
MP OR
\ .
Ġ( '
Ġs cope
all back
P rivate
pl ay
" .
( $
C I
g ate
l ay
b ias
ĠS ource
Ġde cl
Ġc ustom
Ġn um
ĠN ew
Ġgener ate
> ,
Ġs kip
Ex port
style s
Pre fix
u d
Ġn ames
oo se
Loc ation
Ġt ag
Ġm ult
Ġun curry
che ck
Ġuncurry This
r on
s ok
en ce
op pers
Ġbe en
Ġglobal Object
ĠTo bias
ĠK oppers
SVG Element
sok ra
p c
Ġde code
Ġc o
im um
Ġstring s
Ġex ec
Ġd ocument
th ing
ferenc es
N ext
c opy
t emplate
Ġs o
De bug
n pm
w g
et ch
L ast
P art
n et
le ft
m kdir
ro ugh
Ġin valid
ĠT r
\\ .
Ġinit ial
Ġg lob
m oment
") ,<
plic it
Ġcl one
A l
G lobal
L oose
Ġ )
Ġis Object
of t
be fore
O pts
] :
Ġ< <
gn ore
U int
( -
m etadata
An notation
M in
on s
Ġ' )
O perator
error s
ab s
dent ifiers
l ack
Ġw alk
o ck
Ġs ingle
Ġ3 2
Ġiter ator
' ];<
A ST
` ;<
m ult
in fo
class Call
classCall Check
Ġch unk
core js
MPOR TS
Im port
ook s
web pack
f a
Ġth an
Con tent
ĠArray Prototype
Ġiter ate
ri or
her it
Ġlist ener
Ġap ply
Ġde p
Ġse lector
H as
Ġ' "
Ġm ode
') ();<
Ġmethod s
AR T
H ead
Ġstring ify
SVG SVGElement
f ail
ip her
At tribute
s pace
Ġs witch
Ġlo ad
C onst
L EN
M A
at ure
ĠI S
Ġm ay
config urable
tribut es
an a
ĠRe act
11 11
Qu ery
3 0
P URE
ce pts
In stance
eth ers
ir on
col lection
Ġprivate Data
Ġcharact er
2 5
9 9
K nown
L I
at er
ĠA sync
ĠP URE
Stat ic
G TH
M od
R o
u ser
Ġm erge
D is
const ants
ell Known
Co v
t ect
gor ith
ER ELE
add ing
ellKnown Symbol
ERELE ASE
ĉ ĠĠĠ
str act
Ġb g
Element Impl
Ġ URL
I MPORTS
u ps
> ):
W idth
Ġ X
em o
cl one
V iew
ĠC SS
res olver
sub str
work er
super Class
ĠG ener
F ilter
am el
pos ition
Ġpl ugin
. ');<
KE Y
n ames
re generate
t ro
Ġs ame
ut o
ĠS e
Ġvalid ate
| \
Ġle ft
Ġ here
ic it
` );<
de cl
Ġrequire d
Ġs er
Ġfunction s
State ment
* -
Ġread only
D ig
m an
or th
en sions
Re gistry
con versions
Ġon ce
w ise
at form
is Object
ur i
il ation
pro perties
Ġus ing
- <
en coding
Ġ' <
Ġ- *-
dent ity
C annot
I f
R I
e ach
Ġn ative
gener ator
Th row
orth and
C ore
v oid
Ġre ferences
ĠO perator
ĠW eakMap
Ġexp ression
p ad
ĠO ptions
H andler
l ate
Ġsupport ed
U T
F unc
er os
Ġt s
Ġ" ";<
Ġcom ment
create Token
de lete
writable State
rom is
/* !<
p rint
Ġp oint
Ġin ner
Ġtoken s
U Int
Ġtr ansform
>// =>
ĠE n
Col umn
W rit
[ \
Ġre ference
se arch
Ġde lete
read y
ac count
C ur
Ġm odel
In finity
Ex ception
u ct
St ri
LEN GTH
p op
Par ams
ut ion
ĠB ase
col umn
Ġloc al
t al
at wg
T ra
] ;
Ġf ree
ĠU n
SA FE
Ġm kdir
ge st
istr ib
PR ERELEASE
: :
D ay
Ġs afe
Ġ[ "
rx js
has Flag
comp ile
arn ing
RAN GE
w eak
in dent
ra ct
Ġm etadata
ĠC reate
iron ment
in ish
Ġs cript
En umerable
false Options
Es cape
Form at
re ference
Ġparse Int
] ]
Ġ Valid
qu ence
(' \
Ġw hether
Ġfor ced
Ġh andle
F ield
From Time
( ${
t ask
} }
ĠA dd
interopRequire Wildcard
Com ments
A b
Ġpar ams
str ip
Ġpos ition
ref lect
pa ir
j i
v en
head ers
d ic
Ġreturn s
N A
d le
w ith
Re st
ĠIter ator
m ember
Ġt im
il ing
cl asses
comp onent
arg v
Ġh ex
Ġerror s
implement ed
ĠRequire ments
S yntax
] })
d ot
Ġ( ...
Def ine
Ġcom mon
([ '
scri be
F A
Ġobject s
) /
Ġc orrect
Ġin v
201 5
) [];<
Ġ De
re ceiver
Ġth en
ad ing
C ustom
Ġ' ')
Pro gram
act ual
Ġf ilename
lo ader
ang u
d ist
Ġf loor
Ġl ines
Ġex ample
ca use
m ode
ĉ ĠĠĠĠĠĠĠĠĠĠĠ
id dle
support ed
ites pace
" :<
] {
` )<
B E
Ġ assign
Ġ' .
Ġs plit
Ġ1 00
Ex pected
Ġcom mand
out put
i ent
u do
rom pt
Ġd ot
row s
ix in
D ocument
T im
j or
p ipe
se udo
Ġcon s
b ul
GE X
ms g
ri d
N o
\ /
w indow
ire ct
Ġn ormalize
Ġun known
Ġr s
ĠD o
AT OR
) {<
] /
} ,<
at ing
Ġ' _
Ġpath s
Be fore
y z
Ġo ld
Arg ument
romis ify
e lem
Ġb ody
ap p
id l
Ġis Array
Ġ201 4
ail able
M an
N on
Ġ ^
Ġde pendencies
S H
l ue
Ġ raw
ser ver
Ġl imit
Ġpar am
d ocument
g ent
or iginal
Ġc ss
as m
id den
An si
0000 0000
iss ues
gorith m
I gnore
Ġ ]
Ġ} )
Ex ists
IL D
n ormalize
x x
pl i
int eger
act ive
alle e
ame Value
pre ad
. ");<
P ES
m ark
en c
ctor Registry
docs Url
ĠAN Y
Stri ct
( ...
Ġ[ ],<
iv es
VER SION
P air
r andom
z ill
Ġ ar
ĠL ong
call able
(/ ^
deep Equal
Ġms g
ERR OR
ctorRegistry Symbol
zill a
an bul
rior ity
ri de
ang es
c or
Ġ' '
ith er
ĠRe f
E X
w ays
File Sync
H e
w in
Ġthis Arg
Ġ[ {<
Ġi dentifier
Ġg raph
Ġint eger
in ce
Ġt er
Ġ' ');<
ic ro
vi ous
2 00
U N
i ate
Ġf ield
lo ose
b le
d rag
t on
de code
Ġstr ip
bu ild
F loat
R aw
o ke
ĠD E
Ġsupport s
tt y
5 5
: "
am ed
stat us
Ġmod ulo
l iteral
in ner
in ally
Ġn eg
ĠB SD
Ġby te
Test er
nap drag
Ġco er
napdrag on
Ġc re
Ġs p
pl ugins
('../ ');<
our ces
Par am
p ub
Ġs erver
are n
ĠCon fig
Const ants
Ro ot
a fter
Re cord
parse d
i e
p oint
r im
á Ģ
ext end
L ib
] }
ent er
ra z
est amp
ug gest
stru ction
---------------------------------------------------------------------------- -<
w ard
ex it
Ġcon cat
Ġy our
Ġconfig uration
Ġemit ter
t ings
or age
ca pt
stat ic
. ._
C OL
S upport
o g
ur al
In put
Ġl ike
define Properties
Ġe ither
G ER
O ption
R ed
Ġre present
Module s
Ġin ter
ig h
Ġse arch
Ġparser s
Ġcon d
Ġdefault s
IT H
f lags
Ġ Version
imp le
Keyword Definition
ĠEvent Emitter
================ ================
Ġsymbol s
P AR
Ġ qu
Ġre d
il ity
Ġfa ils
Ġz ero
X RANGE
re peat
on ed
ĠR E
Ġpart s
O pen
Ġtr im
ac y
Ġact ual
n on
js x
Ex pect
Ġiter able
B ind
N ull
r un
Ġp ub
Ġs ort
Ġs ocket
Ġm a
Ġm ember
ĠF ound
ta il
pa wn
TE GER
d iv
d inary
w alk
Ġt wo
ic es
Ġin s
EN D
Value Parser
Ġ Z
Ġ defin
Ġp ass
Ġp ost
tern als
color s
1 00
P arent
w idth
Ġ ass
al c
et ers
Ġstr uct
Ġlo ader
ĠArray Buffer
' ],
5 0
> __
P T
ic al
Ġcon tains
atch er
Ġen c
ans action
BU G
angu age
C lose
O ut
ym link
call Bound
init ial
({ },
Par se
Work er
Cons umer
s ame
Ġb it
are d
asse d
l ative
he et
l ash
Ġc ore
++ ;<
e very
o ve
p kg
u ter
Un safe
Ġcomp onent
ĠFound ation
n g
ĠI N
Ġse cond
IN TEGER
S erver
c ustom
re g
ed ia
On ly
iddle ware
f low
n ow
as on
ol ved
ĠW e
Ġresult s
struct ure
Ġms Per
( \
et we
ĠI D
ST R
etwe en
c an
â Ķ
Ġ json
ĠA PI
ĠB igInt
sh ot
ma c
parse Int
Ġne ver
c i
m ut
w b
(' @
id x
ag ent
Ġarg v
1 9
p lement
u x
get PrototypeOf
In fo
ĠP re
Style s
S ign
_ .
>} (
Res ponse
nap shot
it ies
() `
par t
Ġdes cribe
sl ash
1 4
C ON
N S
let ion
der r
Ġkey word
ay load
proto col
}` ;<
Ġf lat
Ġb ind
Rule s
rag ment
ethers project
He ader
l ush
ol d
pro du
method s
it ive
Ġ1 2
Ġe ach
ĠD OM
Un defined
Ġ201 5
ok up
get Require
key word
Ġitem s
sol ana
Ġinst ead
ĠRef lect
3 8
O ver
on t
Ġ- >
Ġlo cale
Im plement
item s
u id
Ġs pace
ĠA ST
Ġbe cause
Ġen sure
b az
d irectory
s al
â Ģ
Ġ /**
in valid
Ġis Valid
ĠB u
ĠF OR
des cribe
z e
ance l
ĠAn y
Cl ause
Ġp air
end ing
from Model
gro up
c rypto
u i
on th
') (
Ġcon tribut
Ġh andler
Arg uments
Color s
d y
al path
In terface
Ġno op
Test s
Ġid x
Exten sible
T R
Ġ impl
ES C
Le ft
ĠJ on
wh atwg
t im
w allet
Ġ{ *
pl ice
Ġor der
Ġsh a
Ġem o
uggest ion
u ally
se s
Ġb o
Data Descriptor
Encod ing
G lob
(' .
Con tainer
Ġx yz
Wildcard Cache
getRequire WildcardCache
S ubject
pos sible
ĠCheck s
1 7
re ject
Ġp assed
val u
up lex
Ġj ust
ic on
mon JS
getOwnProperty Names
[ _
c lear
p b
ct x
Ġ" '
Ġpro vider
Constructor Return
[ ^
Ġ} );
Ġin fo
no op
types cript
ĠIn finity
web idl
Ġcharact ers
fa ils
f ull
Ġ 64
Ġc lear
Ġt emplate
Ġp ublish
et c
)) );<
clar ations
work box
BU ILD
2 9
M ENT
j ax
Ġre g
c y
By te
T ree
ul ate
[] )[]
indow s
capt ure
Ġcontribut ors
L int
P LA
b lob
am ic
Ġthe re
pl atform
JS X
comp iler
char At
LA G
yn amic
N ew
S uper
U ser
object s
support s
] ';<
t ml
al ance
Ġex ists
pre release
En v
Ġast Utils
tro l
is ible
Ġc rypto
Ġc lient
set s
clu ded
RE GEX
W ellKnownSymbol
Ġ ------------------------------------------------------------------------------<
ĠM o
.. ..
pend ing
f ield
t y
in clude
ĠO R
sh im
Ġfollow ing
I G
x ff
en abled
is Empty
Ġm ain
b ig
Ġf allback
ra f
') ;
able s
ag er
ix ed
Ac cessor
or n
Ġ' :
Ġ* *
Des c
Result Transformer
ĠSt ream
ĠPar ser
in sert
Ġre f
ĠS chema
Ġcur sor
B it
F LAG
st dout
var iable
inherits Loose
A ction
an n
Pro xy
Ġfor m
ĠB y
UR I
ĠN aN
ĠW ork
Ġup date
Syntax Error
Ġ( /
el y
De coder
Is PropertyKey
Up per
wrap Async
Dig it
possible ConstructorReturn
P olyfill
Ġf lag
ip le
Ġ{* }
' ]<
Ġs ome
Ġd on
++ <
ĠCon vert
Pos ition
Ġhead ers
P AT
Ġ port
ĠB ig
ific ation
3 6
F low
P P
h r
Ġ q
un shift
ptim ize
Ġins pect
) \
i dentifier
Re port
em pty
file path
2 1
D OM
se ction
ur ro
Ġm an
Ġa v
() ,<
IT Y
token izer
S afe
T race
to k
Ġhas n
list ener
Ġspec ified
Ġ# #
Ġ` ``
over age
(/ \
t ing
Ġ ver
Ġm e
Ġ2 0
Ġse g
Ġpl ace
COL OR
Implement ed
] ))
b ed
ex ists
Ap ply
L ines
O ne
d oc
el low
ub le
bser ver
Item s
FA UL
Ġ -----------------------------------------------------------------------------<
ic s
con version
iv ed
Ġwrap ped
d ig
ro ups
Re ference
par is
AT E
C lient
o ice
// =>
Ġstat us
" ];<
A fter
N amespace
l ers
Ġb etween
ĠC all
med iate
Ġhead er
n eg
ut ton
Ġh sl
g o
on ce
er c
ĠT est
Ġan si
Ġ201 8
Ġdocs Url
alloc Unsafe
C K
g ed
ree ze
Ġlog ger
rypto JS
Ġback ground
XRANGE IDENTIFIER
H ook
S er
a f
c atch
Type Annotation
ist er
ss ign
ched ule
Ġchar Code
readable State
N D
a jv
en sure
pl ac
Ġg en
Ġ2 56
parser s
Up date
Ġdig its
amel Case
S lice
s d
ĠRe ad
T I
W allet
Ġw ant
ĠA c
ĠN OT
jest Util
public Key
Ġrel ative
n umeric
at ures
Ġp ack
Ġl iteral
)) )
Ġres ponse
Ġse ction
Ġmatch es
Ġmap ping
icro s
] ',<
an chor
Ġw ord
X X
r ary
z ip
es c
iz ation
ren der
s uggestion
t le
Ġb inary
ĠI t
(?: \\.
> ,<
w s
se d
ad ow
Ġw idth
() ;
Ġpro xy
Char Code
ter s
il ers
In ternal
Ġex ist
urro gate
; (
s cript
to p
Ġse e
icros oft
Q U
c allee
t ap
re t
de claration
ĠS chlinkert
sub string
ose d
ĠIs PropertyKey
Ġelement s
s list
Ġ_ .
Ġde l
and lers
Wh ite
> @
E nt
b ly
as cript
ra ces
Re ad
ES S
([ ^
[])[] )[];<
- \
4 0
f lex
h andle
k ind
s yntax
st ore
Ġs cheduler
pro vider
res sions
)) .
//// ////
Ġ implSymbol
Ġf oo
ser ialize
put e
Path s
des c
Pl ain
# #
b inary
f rame
i dentity
j ons
to Array
pro gram
ub ble
Ġpos sible
Ġ*/ )
5 12
h sl
m e
Ġpro totype
ĠĠĠĠĠĠĠĠĠĠĠĠĠĠĠĠ ĠĠ
A li
I dentifiers
s plice
com mand
Con vert
ang ed
Se ction
ĠCom p
( ?
5 8
C A
G roup
ĠT h
file s
Ġpl ugins
Dependenc ies
ĠOperator Function
w ell
or y
Element s
mo ved
Index Of
jons chlinkert
B its
B SD
T T
g acy
l abel
ro p
is Function
Ġt ask
Ġcon cept
Ġ[ ],
als o
ĠA p
Ġat tribute
ĠJ son
Ġro le
is Valid
ĠRe move
Ġap i
operator s
Ġwork er
ION S
ĠSub scription
ĠMo zilla
h ue
Ġ also
Ġconst ants
ff ect
Ġgener ated
Ġtime out
Mod ifier
A gent
C OM
Z ero
b order
l u
de v
function s
ped ia
Ġcl oned
Ġenv ironment
FAUL T
p ow
r iter
u c
Ġp ad
et work
ĠRe cord
cur sor
IN D
av ig
Ġ' {
Ġo peration
ra in
ĠN ote
TER M
Ġvariable s
wiki pedia
" ))
O G
W ord
b reak
o ol
re r
de p
ĠS E
Ġ` _.
ĠB oolean
ĠSub scriber
Ġsu ite
Ab solute
g re
u plic
Ġth ey
Ex t
IN E
Range Error
d iff
e k
ro und
ic ol
bol d
ĠF or
ĠBuffer List
CSS OM
Match er
ĠIm plicit
Ġdoes n
ha vi
S ort
V AL
Ġ defineProperty
Ġf lags
Node s
Ġconstructor Args
Ġrel ated
destroy ed
l ines
ð Ł
st anbul
is ion
is PrototypeOf
con nect
Ġoccur red
UL L
Lib Variable
Ġ} ],<
Ġp ush
Ġr andom
tem pt
Add ress
# __
o ption
ro ll
Ġp rint
ĠI ss
ST ART
ĠCode KeywordDefinition
ĠImplicit LibVariable
> );<
Ġre n
Ġb racket
ig in
Ġat tributes
TY PES
race ful
OU T
A ssign
F ound
P ackage
t ree
Ġ ],<
nt il
res ource
Ġg roup
ĠImplicitLibVariable Options
en sion
lo sing
con struct
Ġ2 00
Ġse m
pendenc y
M ax
M erge
x D
st yler
Ġ' ',
ad apter
cl ient
Error s
Ġl ab
([ "
write UInt
raw s
alle l
Ġemo ji
/ .
3 1
in st
Ġp olyfill
Ġun ique
Ġmodule s
Ġext end
Ġadd ress
Ġac count
az y
L icense
N eg
P RE
b ine
m y
de precated
at tr
Ġ! (
Ġde tect
PLA IN
e ded
ĠR ed
put ed
cur s
Plugin Utils
6 6
L ink
T ick
f inish
ĉ ĠĠĠĠĠĠĠ
Pro cess
ĠS cope
Array Like
Ġe le
Ġe very
Ġlo w
Ġext ract
data Error
At tr
Or der
sign ed
Encod er
2 8
q r
Re act
Ġd om
Ġ201 2
Ġab s
TER N
Accessor Descriptor
plac er
1 8
I V
Ġ defined
ul ator
Ġspec ial
Ġspec ific
tag s
wh ile
Ġweb pack
Ġstyle s
erc ible
g raph
en able
ĠI E
iter ate
Is Array
we et
havi or
( !
H tt
ĠL ist
Con cepts
act er
Ġset up
Code Point
ĠSource Map
icol on
M ock
P ad
h andler
Ġ Exp
le ss
(' /
Ġn umeric
Ġo perator
Res olve
RA M
Ġoption al
B rowser
O rig
g y
require d
Ġe qual
interop Default
ĠE X
plic ation
agent a
Ġav ailable
Ġ= ><
Ġ' '<
Ġp romisify
Ġis PrototypeOf
ĠC ON
Ġde precated
Method s
Sub scription
dic ate
NA ME
ĠBy tes
. *
Z X
a a
Ġ im
Ġc wd
Ġ} ).
ire ction
ta ils
av ascript
ci i
M ember
c p
g u
Ġ Int
Ġf rame
Ġin ternals
Ġst dout
res h
and ard
ĠType Script
With out
xy z
C xt
F ull
d io
h ooks
in line
ur ry
Ġs lash
ut es
Ġa ction
ĠM ode
Ġi stanbul
unc urry
Ġen um
Se cond
OU ND
Writ able
b n
at tribute
ab c
ĠA l
and id
ĠH elpers
helper PluginUtils
Web Socket
mod ulo
V isitor
Ġ ];<
ed it
Ġ" \
pro xy
ĠC re
Ġfor Each
Map per
Ġes Value
iver sal
SourceMap Consumer
U S
f r
} \
able Array
Ġh ost
ma il
create Debug
Ġfollow ed
U ntil
t itle
Ġ er
Ġre du
el lo
ĠT SE
ĉĉ ĉĉĉ
gen sync
b racket
c al
se lect
ĠT ext
ctor ies
ER C
path s
comp ilation
OR S
8 9
H elpers
M ark
k s
Ġ Keyword
ext ensions
ĠH ash
Ġ201 1
*/ )
AST Node
s cheduler
Ġf ull
Ġb its
um ableArray
to Cons
EN O
add ress
Ġpre serve
sub scribe
by te
Ġdis patch
toCons umableArray
S ite
W arning
b race
c ent
g ine
con tainer
EN V
Ġpl ural
Ġab solute
Ġrelated Concepts
M ES
M AX
P A
g raceful
p ublish
v es
} )<
Ġ' $
Ġcon nection
Ġlo op
ĠRe ference
Ġ{} ,
tra verse
(` ${
Ġmkdir p
F OR
H ost
W eak
a le
o pt
st able
im al
il led
Ġcon tain
De cl
Property Or
oc ab
AT ION
ĠTo Number
RA P
bu ilder
Ġcoer ce
PropertyOr Throw
f reeze
i ed
m eta
el p
ĠS h
Ġget PrototypeOf
Ġnumber s
ĠW rit
Ġarray s
from CharCode
ĠPublic Key
Ġmodel s
Ġcorrect ly
ĠBig Number
) $/
7 0
A ML
` .
c ipher
Ġ' !
Ġin herits
Ġw arn
ĠW RAP
exp ression
ĠHTML ElementImpl
J z
Ġn ow
ck er
Se arch
"] (
Ġadd itional
fer red
ENO ENT
c re
Ġto Integer
ĠS ign
Ġres olver
ĠI dentifier
ĠN ot
ĠD ocument
mat er
wrap ped
Ġrule s
time out
sp dy
A d
P ublic
f d
se cond
un used
ri des
Ġis Function
ve lo
Array Buffer
Ġ` \
spec ies
H tml
g ress
ab ility
ic orn
De ep
Ġ[ ]
Ġl ong
Ġsh orthand
Ġfa il
exp and
Ġallow ed
> ];<
Ġ entries
Re ceiver
li ke
Ġset Timeout
Event Init
med ia
3 5
l ight
ex pect
Ġo s
Ġa Callable
con s
Ġget OwnProperty
dis allow
token Start
Pre release
Ġz eros
main ing
istrib ut
F oo
u ite
w atch
se e
ĠTo ken
Ġz ip
renc y
M issing
p ass
is Buffer
Ġ' ,
ri ver
ĠS cheduler
Ġ[ ].
ator s
sc op
Ġdir name
Expect Error
6 5
a wait
n an
Ġ join
at ic
Ġb ig
Ġin ternal
Ġcom paris
Com mand
ke ep
oft ware
Ġser ialize
' ;
D IT
I P
z A
ch a
Ġext ensions
ES T
Loc al
getOwnProperty Symbols
PRERELEASE IDENTIFIER
Ġstruct ure
icon v
Ent ries
= {
M edia
i an
al ways
Ġre lease
it al
it tle
Ġtr ans
Event Emitter
member Of
H our
S napshot
Ġde claration
Ġv isit
ĠArray Set
jo i
Is Enumerable
Ġal ready
ĠPar se
Ġmult iple
scop ables
et ect
Ġin side
ist ent
ĠL og
ole s
Sh ort
NUMERICIDENTIFIER LOOSE
RI PT
Man ager
ITH OUT
âĶ Ģ
Upper Case
B N
` ,<
p or
v isible
es Value
ch ron
ap pend
Ġuse State
Ġcomp iler
Impl icit
ĠY ou
yn chron
OG RAM
x B
st er
de c
il y
Array Prototype
__ */
ib ling
AR RAN
16 0
Ġus age
bin ator
Ġdest roy
View Core
produ ction
" ]);<
= '
e red
n ative
y c
Ġo per
Ġcom ments
ĠRe adable
Im mediate
Ġup per
Init ial
Stack Trace
loader Context
Support ed
' ]);<
< '
S em
W eakMap
o ptimize
Ġ( {
Ġin clude
ĠC lass
ĠD is
Ġtest s
ĠArrayBuffer ViewCore
F B
H older
M eta
S heet
f etch
y an
Ġ versions
Ġ( ++
Ġo pt
ser ved
ĠC olor
Own Metadata
Head ers
o x
Ġre al
ro ss
() )<
St ep
PR OGRAM
DE BUG
CT ION
L U
f actory
y Y
ĠA jv
Con nect
ĠW ITHOUT
Ġbu ilder
Ġ/* #__
c um
s ym
v oke
Ġy ield
Tr ansport
own er
Ġbrowser s
u D
ate st
') )<
In dent
are ns
Ġst yler
ĠĠĠĠĠĠĠĠ ĠĠĠĠ
Ġ- =
IN F
chem e
Ġstat s
ffff ffff
O K
O W
S Y
Ġ ;<
Ġ implement
Ġ uri
ce ived
Ġv isitor
char set
scri bed
AB LE
ĠCre ates
: ',
c orrect
lo okup
Ġcall s
Options Mapper
ilt In
Ġflat ten
T A
U PP
W atcher
j ac
(' ');<
ra d
Ġm issing
Ġst ep
ma ke
ĠRe lease
ĠJSON Schema
Inter op
******************************** ********************************
("../../ ../
Ġad apter
jac ent
C ryptoJS
f est
Ġ Key
in herit
un ique
Ġo ff
lo y
Ġd if
Ġis s
ĠM in
ĠU t
Ġma jor
ĠBytes Like
7 7
B ar
m odel
de velo
um p
') ).
AT CH
Exten sions
Ġcond itions
1 3
f illed
qu als
ex ception
defin ition
Ġst ore
Ġl ib
Ġh sv
Ġex clusive
ĠO n
Res olver
curs ive
M ult
d f
p x
u int
Ġ ~
>} ,
to Be
Ġde ep
Con d
descriptor s
% ',
y list
Ġ{ {
In side
res ponse
Ġsource Code
Ġtime Constants
" ],
. "<
6 0
R pc
Ġre placer
Ġe lem
ĠD ay
Ġtest ing
head er
Ġproto col
Pattern s
Ali as
t able
Ġ} ));<
Ġt itle
ĠC ODE
Ġnew Obj
ĠString Prototype
Ġlog ic
AN SI
Component s
? \
F ragment
T er
m ask
s um
s witch
s pawn
in a
>} )
Ġs ystem
and led
add ir
process or
Web pack
ĠIm pl
ĠValid ation
Ġpost css
F T
O ff
P aren
S ameValue
e ps
m is
p th
Ġc lean
Ġc alc
Ġ( "
ra ft
ab solute
Re adable
Ġde tails
Index ed
Ġsh ift
Ġiterate e
L atest
S pread
] |
t om
Ġthe se
Ġ[ [
Ġ/ \
Un icode
Ġcur r
stat Sync
Ac cess
mkdir s
M D
U B
p olyfill
p ng
s paces
x C
(" '
Ġto tal
Ġfor ge
next Tick
RA Y
Listener s
force Color
Ġtra verse
Htt p
ynchron ous
' re
R untime
y s
} :
Ġ ctx
to UpperCase
ir c
map ping
Ġse nd
read FileSync
Ġuse ful
log ger
Ġsh ort
u L
Ġ utf
Ġ' &
Ġth rough
Ġs at
im ation
tr ansport
Object Co
Ġis Callable
ĠS erver
)) ,
ĠW indows
Ġcomp ilers
replace ment
Ġap p
Get ter
Ġdis allow
Iterable ToArray
ĠIter able
lack Bright
collection s
supported IterableToArray
ylist ic
ObjectCo ercible
S ingle
S urrogate
W rap
} .
Ġs lice
est ed
Ġ` .
Ġ` (?:
Ġ2 4
pre adable
Ap p
F a
s With
Ġ Definit
se nd
value Of
Ġw here
Ġen able
fe e
ay out
Ġab stract
Define PropertyOrThrow
Ġass ume
2 3
b s
Ġthe m
Ġd irect
cur rency
Ġac cepts
) ]<
/ ><
8 00
b ang
y ph
se p
Ġp adding
Ġ" %
ser um
ĠM on
file Path
Ch ain
ĠCom ponent
ĠIs Array
Ġmod ify
Ġpromise s
Ġfind Up
Ġregex p
Format ter
Ġdefin itions
ymlink s
ESC RIPT
yph en
Ġ ent
im ent
Ġin cludes
ĠL e
ĠD eter
ĠW rap
IN T
Ġcallback s
ĠEx port
Ġ(/ ^
D el
M iddleware
m bly
ing Element
Ġ1 5
St ylistic
ise d
Value Of
Ġ{} );<
Ġhas Own
Pl ugins
ne ver
FF FF
asse mbly
DE F
element s
ha i
worker Id
ĠIss ues
Pad ded
C t
D est
T ask
Z eros
s napdragon
t v
var s
Er r
end er
ĠA s
ĠP R
ĠF orm
Ġat tr
Ch anged
Valid ation
Ap i
flat ten
Ġbo th
B ody
C overage
m er
m all
-- )
Ġc ould
Ġ' ?
== =
Ġm oment
ĠT emplate
Ġ` (${
Ġ1 4
Ġl ink
he bang
Ġpro du
Ġse lect
Par allel
Ġ'../../ ../
bg B
Bu iltIn
1111 1111
ĠCSS OM
Writ e
component s
Ġter min
Orig in
FOR CE
ĠDefinit ions
ESCRIPT ORS
C R
H oles
c md
Ġre peat
use Colors
Ġ1 000
Ġg re
ĠF ile
IT ER
ĠD etect
ĠError Object
Set ter
Ġ\ `
ĠTr ue
pli er
I R
R ow
i hai
p o
de pendencies
per iment
Ġm ark
Ġw s
Con nection
Ġor dinary
Ġcomp letion
([ <
web assembly
Ġmax imum
Ġreplace ment
Ġneed s
Z E
c ap
Ġ' ('
Ġ' (?:
// /
Ġreturn ed
Ġs paces
im atch
to tal
ap plication
Ġl ittle
Ġfor ce
ĠG N
/* ,
Ġcomp ile
ĠCh ri
Ġmult i
dig est
F e
ĉ Ġ
Ġ html
Ġt op
Ġs ync
Ġg roups
ĠP os
ma ster
ĠN ODE
Ġpre vious
ST ree
Ġcol lection
prec ation
Ġ6 0
periment al
C ED
F ix
p ol
ter min
Ġw allet
ext ends
") }
has Own
Ġloc ation
av a
Operator Function
Ġts lint
E ffect
H andle
a im
k it
l ong
x e
in h
se g
tr ans
Ġto Object
Ġext ra
Ġ'./ _
Ġbase d
ĠCom parator
}` );<
Wh en
ĠGener al
B est
t ures
re lative
Ġ( $
Ġde c
Ġ{} ,<
Ġcreate Debug
Ġno thing
buffer s
property IsEnumerable
(?: \
escape d
Ġdig it
ract ices
ĠDE FAULT
STR ING
3 7
h i
z I
z ero
in on
ar m
of fee
Ġse quence
vi ce
An y
ms Per
MP TY
TypedArray Method
TT P
B racket
B asic
F S
F ilename
L INE
c ut
n ing
t mp
es ser
rom e
Ġin dent
ĠT ag
ĠL esser
ma y
ma jor
Ġwith in
Ġbu ilt
On ce
Wh itespace
Tra iling
ĠGN U
C ipher
P rompt
[ \\
in ct
Ġre moved
ro le
Ġb ubble
Re lease
Ġ[ ...
Ġst derr
String s
To Number
read s
Ġhas OwnProperty
toString Tag
Ġac cept
Enc ode
Ġ/^ \
Ġrgb G
Export s
Part ial
W indow
j e
Ġ ]<
re verse
or ld
Ġ" /
con nection
Ġres olved
iter als
class Name
Ġany thing
Ġ201 9
ĠSe cond
inst all
) }
f ont
o Type
Ġs ince
ĠS ameValue
Ġ1 9
ĠM ake
Ġg o
Ġen abled
ac es
token s
symbol s
For Impl
lay out
ĠBu ild
Apply Descriptor
ĠTSE STree
ĠMon oType
ĠMonoType OperatorFunction
B inary
C D
N ON
N OT
P O
f loat
h us
Ġg ot
ĠP ractices
Ġap pend
ĠRead only
TI ES
ĠRelease d
+ /
4 7
C atch
a W
a uto
p ure
ar ia
Ġre ason
un icorn
Ġ' );<
est ing
Ġi v
ĠP l
Ġcode s
ĠCon text
loc ation
Bu ild
Inter val
Implicit Role
O peration
S p
m ine
z z
or hus
un it
ire d
Ġtr ansport
node Type
Un ion
Ġsub scriber
}` )<
big int
White Space
Ġredu ce
P ort
s ources
Ġ el
Ġ' *
Ġp atch
Ġs yntax
Ġ" -
Ġw ait
ir d
ĠW h
IN VERSION
ĠTo String
Ġpl us
201 7
ĠReference Error
b l
m ui
v ing
Ġf ill
Ġa uto
Re place
pl ain
Ġpath Exists
Ġe q
Ġex plicit
ĠRe port
ĠD esc
F D
L ook
N E
U E
c lean
f inal
i q
j avascript
l imit
re alpath
Ġre ceiver
ro tt
Ġf inally
ul ary
to Model
Ġa uthor
>// <
() `.<
ĠT or
ase s
Ġi dentity
ĠB rowser
ĠL E
ll er
Ġresolve Exception
Bu ilder
Ġescape d
Ġrgb B
Ġcre ated
ocab ulary
] ).
Ġf lush
get Property
Ġw ell
res orhus
Ex ec
ind resorhus
Ġr untime
AR RAY
Ġdo uble
Ġab out
ĠPro gram
sv g
mult i
UT F
mater ial
OK EN
> ;(
S ystem
h wb
t l
} "
is Extensible
(' ,
if est
Ġp ipe
Re ject
In struction
ub key
Ġnew line
arg in
ak es
Ġobject Proto
Ġloc ate
Dest roy
rott le
= }
> {<
E C
F C
G R
l ch
l ab
Ġc ached
Ġ} ),
Ġp op
am l
ĠC OM
Ġ[ ]);<
par ated
Ġl abel
Ġwh itespace
Source Code
ĠCom monJS
ormal ized
pattern s
Ġinst all
selector s
include Prerelease
Ġdispatch ed
P ass
S ame
S low
u k
u uid
re m
st ep
st orage
an ces
ic ast
Ġw arning
ack ground
Ġl anguage
fe atures
File s
unk nown
exp m
ĠPro vider
Template Tag
AN D
AN T
Ġdep th
ĠAny Schema
Ġimpl icit
G H
H R
i ction
i als
r pc
ire ctories
Ġde pendency
00 2
sh ared
sub scribed
Se quence
Ġcan not
Ġstate ment
pac ing
CI I
Member Expression
) {
S ymlinks
[ ${
c amelCase
Ġ Value
Ġw ellKnownSymbol
In herit
end Object
us r
ĠN ame
Ġse parator
Com monJS
Is DataDescriptor
ĠObservable Input
trim ResultTransformer
WellKnownSymbol Module
lu de
( []
> #
G B
G V
P ER
T able
h ot
n ess
o in
p are
y p
Ġp ayload
con tinue
co er
ĠH o
]) /
Ġinv oke
Ġloader Context
Ġren der
ĠWrap ped
e q
g ing
g mail
h ello
p seudo
} |
ab stract
Re lative
ĠS H
Array Transformer
ĠM essage
code Point
ib l
pos able
Ġclass of
LO G
For Wrapper
Ġdis abled
Style Sheet
Inter active
PAR ENT
Open ingElement
s uite
| \\
Ġf lex
is Integer
Ġh igh
ĠĠĠĠĠĠĠĠ ĠĠ
pre vent
pre serve
source Map
start sWith
LO W
Le ading
ou ter
Ġinst alled
KEY S
Field Descriptor
Bind ing
ĠFOR CED
A M
Ġ ctorRegistrySymbol
st derr
end Array
source String
******** ****
Ġcompare Identifiers
Lo op
AL L
Ġselector s
Attribute NS
valu ate
**************************************************************** ************
webassembly js
d b
Ġf etch
ate gy
Ġm ut
Ġin sert
ĠC ur
set up
Ġde cor
bind ing
$/ ;<
ĠAN SI
Ġter ms
cum ulator
ava Script
b asic
r sv
| '
st it
Ġt mp
Ġth ose
ul filled
In ner
ĠTo Integer
ok ed
Ġle gacy
ansi Styles
each Of
Cur rent
Ġtim estamp
ĠCON DIT
ibl ings
ĠCONDIT IONS
B utton
D o
P ool
c ast
s ince
u v
Ġ Default
od er
Ġo bservable
ĠS ubject
Set up
Ġab ove
Char s
Ġover ride
Ġsu c
UT C
IV E
PA CE
ĠgetOwnProperty Descriptor
Ct or
h int
p ose
v isitor
Ġ Declaration
Ġ enter
en u
un icode
Ġ' >
Ġis W
Ġi dentifiers
Map To
Ġget BuiltIn
sh adow
postcss ValueParser
HTML Element
Ġdel ta
ĠWrapped WellKnownSymbolModule
4 5
[ [
[ ],
c d
c s
Ġf ast
Ġb race
Ġa SourceMap
Ġpro ject
Ġh yphen
Ġsource Map
Ġr anges
ĠO F
Un expected
chem as
Function s
Se lect
web kit
Ġu id
SI ZE
resolver Dir
Over ride
Ġpair s
Neg ative
bine Latest
ARRAN TIES
Ġiss ue
C opy
m issing
p adding
s indresorhus
v isit
Ġs imple
() ).
ĠS afe
ĠI MP
01 01
Ġcreate HTML
Ġend Index
Ġpattern s
Col lection
Min ute
LI ED
Ġdefin ition
ĠIMP LIED
E AD
g reen
r an
at ives
(' -
im iter
Ġe ven
Ġ/ >
Ġparse Options
sub scriber
With in
PAT TERN
ĠAc count
MES SA
ĠPos ition
* <
W asm
c ategory
n one
Ġ jest
de clarations
de rer
Ġt able
Ġd st
Ġl ch
ĠB asic
Ġget ImplicitRole
alk er
ec c
AT ED
Ġne eded
ĠSt art
Selector s
ĠWeb pack
Al gorithm
Pair s
ĠAp ache
Ġsem ver
" ');<
4 2
I AL
f inally
g ra
t ake
ar mon
Ġb ound
Ġ1 3
Type Script
Ġh int
pre tty
fe rent
read File
[] ):
Ġerror Message
min or
Ġid l
ĠEn try
Ġ``` <
ĠSign er
armon y
4 8
O bserver
S to
se ct
Ġc andid
Ġm emo
Ġm ove
Ġ" .
OR T
[] }
bu ilt
Stat us
Ġact ive
Ġinitial ised
MA INVERSION
ely Typed
MESSA GE
ecc ak
7 5
M ain
l ap
Ġre ceived
ch ain
Ġg t
ĠĠĠĠĠĠĠĠ ĠĠĠĠĠĠ
Ġcom bin
Ġex clude
Ġset PrototypeOf
ĠE mpty
Ġcomp ose
Function Expression
Se q
parent Path
Ġal ways
Ġparam eter
option al
" ;
E val
N umeric
m ust
p rimitive
Ġre served
de red
Ġf inal
set Property
Ġ[ `
ĠĠĠĠĠĠĠĠ ĠĠĠĠĠĠĠĠĠ
Ġget Polyfill
ĠN ag
ĠD O
ĠE mit
form ance
comp lete
AR I
Valid ate
Ġ10 24
Ġother wise
Comp iler
ns itive
inspect Opts
local Name
tro ller
ĠExp ose
# !
B ox
e le
s ample
t ach
Ġthe ir
Ġcon struct
string s
ĠR x
EN ER
ĠO r
SE T
emit ter
cond ition
Ġexec ut
Tra cker
Flow Ignore
XRANGEIDENTIFIER LOOSE
Holder s
H elper
S L
S ibling
g t
x ml
ur ing
an h
im a
il li
Ġm o
Ġw ould
Ġun ion
Ġ'../ _
Com ma
[] )
ash ima
lib rary
Or Offset
Definit elyTyped
Ġdis able
Check Private
Ġencoding OrOffset
Ġlow er
ĠTor u
ĠgetImplicitRole For
ĠNag ashima
CheckPrivate Static
F ULL
I MIT
l in
r and
Ġ Queue
at tributes
Ġc ap
Ġc ast
Ġs ave
Ġm onth
ab ort
om atch
to JSON
Ġd iv
ot tom
Ġ< /
ĠR aw
Ġpre sent
OR D
Lo ader
Ġinst ances
Ġrepresent ing
S C
S eg
-- ;<
se lection
Ġ} ),<
Ġ} ))<
init ialize
ĠIn ternal
match er
Ġac counts
ĠIs DataDescriptor
34 56
ready State
Escape s
Safe Buffer
ĠLog ger
stit ution
6 1
B C
R andom
V ENT
c mp
i os
w a
x FF
| ^
ex perimental
(' #
// !
ol s
uff ix
Ġex act
test s
form ation
Ut f
FI X
gr ux
Be havior
Ġfix able
Ġdig est
Part s
ann el
Ġseg ment
Ġplace holder
fr ames
irc ular
may be
& &
c xt
d rain
f lush
p romisify
{ {
se nsitive
Ġf d
as cal
em ory
set tings
Ġ1 1
Ġh wb
UR P
ĠN o
ĠF ind
ĠGet s
)( ?:
Ġal ias
ĠCom ment
GE T
OP D
Child ren
dist ance
Ġparam eters
EX T
PAR ATOR
valu ated
ĠWrit able
Ġresolver Dir
A PI
M onth
P riority
T F
] ["
Ġs ym
ĠT H
ĠT ime
ĠA ction
ĠB lock
Ġit self
__ /
ĠCon tract
AT A
Ġchar s
20 20
ph a
prec ate
Ġnames paces
yc le
je ction
) [
- ....
9 5
B ER
L ICENSE
U ID
b b
h sv
ĉ ĠĠĠĠĠĠĠĠĠĠĠĠĠĠĠ
re set
th es
ro om
Ġc apt
Ġt em
il tin
ug l
Require d
Ġnot ice
Ġch oice
Se parator
ĠTo Uint
From Year
Tr ans
time Constants
Ġ\ '
Ġright s
Ġdep loy
Ġreg ular
ĠWork box
(? !
inline ArrayTransformer
ITER ATOR
M ut
O F
S c
m t
Ġre set
is f
is Number
ut om
ĠS ystem
Ġcode c
Ġfile Path
Stat s
Wh ile
UL AR
Ġad jacent
Ġchunk s
Ġtim es
Plain Object
2 2
H ave
N ESS
f aces
p ment
} ${
Ġ ctor
Ġb lue
Ġw atch
St orage
ĠN ull
class of
Iter ate
ook ie
Ġevent s
Ġ. ._
Ġsign ature
xx xx
ĠBu ilt
ĠForm at
Ġgre ater
+ ?
J s
Ġo ur
ver ter
Ar row
let ed
Ġres ol
ĠP ART
Ġlo okup
Ġor igin
sh orthand
dis patch
Result s
ts lib
Loc ale
CSS Rule
ToString Tag
the ses
Ġbracket s
inct Until
utom atic
0 9
\ '
j pb
m ary
Ġ ):
in ation
Ġs pawn
Ġb lack
Ġ? <
node js
ĠL o
ĠP URP
os h
Ġkey of
ER CH
ĠF IT
Com mon
IC ULAR
Is Callable
do Limit
ĠRule Tester
ee k
Emit ted
ĠWeb Socket
uplic ates
Weak Set
Ġadditional Properties
ANT AB
Iterate e
ĠPART ICULAR
ĠPURP OSE
ERCH ANTAB
ĠFIT NESS
T TY
Z W
p age
w ay
Ġ ])
de l
un scopables
Ġs um
Ġ" ${
ist anbul
ĠB lob
ĠL oc
Ġuse s
000 7
Ġpublish ed
ĠTest s
" .<
' ].
B OUND
H andlers
h idden
un iversal
Ġf e
Ġd up
Ġde lay
Ġun signed
)) ;
Ġcall Bind
ĠD ata
Ġmodule Id
Ġasync Generator
Ġcompare Build
Ġgener ator
callback fn
block Size
flat Map
]}) `
]} ?
Ad apter
iction ary
Ġsuc cess
ĠasyncGenerator Step
b ad
i um
Ġn ested
ra ction
Con cat
Ġex it
Ġch ain
match es
true color
Ġexp osed
Wrapper ForImpl
ĠRange Error
Not Found
Iterable Rest
b oun
d ays
m et
o ist
t ure
Ġ am
Ġ ]);<
Ġ keep
de tect
en gine
un der
am er
est ree
Ġi dent
ĠG lobal
oun ter
ĠN UM
ay er
create Class
class Private
With Holes
token Type
do Parallel
ĠPro xy
Ġinv oked
Strict Mode
STR U
ĠDOM Exception
Ġver ify
ARI A
#! /
isf ies
? <
S V
b lue
l ang
t iv
t xt
v ance
re l
Ġn amed
ch ange
type Of
Ġa utomatic
len t
com ments
ĠA jax
ĠP er
vent s
Ġcall Result
ĠE MPTY
Call Expression
Descriptor s
ĠIn it
parent Node
Ġu int
CT OR
Work ers
Ġcomponent s
PAT H
Ġexist ing
Ġ200 9
Ġcomparis on
imation Frame
ĠChri stop
4 3
L ayout
M ixin
r s
s Per
w asm
} /
Ġ edit
al t
Ġ( ;
Ġp rompt
Ġs c
Ġs ure
Ġin ject
Ġde clarations
Ġi p
Con troller
ore ground
/* !
Ġparse Float
Ġsub string
Ġstate ments
Ġout side
Or Infinity
Ġread able
Ġstatic Props
warn ing
Al low
Decl s
Ġdif ferent
getProperty Value
4 9
c ision
Ġ pe
st ar
ct rl
Ġs im
Ġa g
Ġa void
Ġ| =
ĠM icrosoft
ĠA b
Con trol
cess ary
ĠW ils
umer ation
mit ted
FF ER
find Index
ĠDo ugl
Ġqu ote
listener s
gra de
ĠTH IS
ĠChristop her
ĠWils on
ĠDougl as
J oin
V isit
b its
c ached
n a
in voke
Ġt re
Ġp rimitive
Ar r
Ġ! $
ĠB az
Ġbe ing
Ġ2 6
ĠU TF
Ġuse Colors
Com bo
sub tags
Async Iterator
Ġproto Props
AS CII
Ġmay be
emo ji
ven s
ward s
.._ .._
ĠmsPer Day
Ġman ually
avig ator
1 0000
8 5
F ixed
n ina
} ;
Ġ' ',<
Ġ_ <
Ġs om
Ġs ources
(" \
ĠC o
ĠC ache
Error Object
con f
Ġl t
Ġl iterals
)) ?
Ġcall Site
comp letion
Ġcomp act
Ġsub scribe
Event Listener
Ġpl atform
Ġiter ation
Like ToArray
pa use
Bu f
Define OwnProperty
second s
ĠScheduler Like
ĠOn ly
># [
D iff
J E
c js
e ver
r ime
w ks
Ġ joi
am ily
Ġis Implemented
ĠC onst
ĠC ustom
ot es
De c
Ġstring Width
Ġ/ [
ĠE nc
({ }
ĠTo Boolean
try WrapperForImpl
SI G
Spec ies
Spec ifier
ĠES Lint
Ġcons ume
URI Component
Ġme an
Public Key
Indent Transformer
Destroy ed
coer ce
prevent Extensions
) ];<
B LE
B reak
P ost
m n
p riority
Ġ row
pe md
Ġt ake
// .
ri pemd
Ġ=== ================================
Ġd iff
Ġd ynamic
Ġto Regex
Ġto Primitive
Ġh and
Ġle ading
last IndexOf
Ġad ded
Tim ers
reg ister
sd k
byte Length
Ġdirect ly
, .._.._
S ON
e quals
Ġc opyright
Ġn pm
Ġp Loc
Ġb ug
Ġm er
Ġd ist
co ver
00 7
for ced
Of ArrayLike
Res ume
List s
ĠCon nection
assert Record
Ġac c
Template Plugin
Ġlistener s
Ġforced String
([' ../
pli ed
Ġstrip Ansi
Ġpass word
IG N
Ġ`(?: ${
seg s
ĠpLoc ate
I E
h igh
p ull
s ave
is String
Ġc mp
am ped
Ġb alance
Ġb races
', '
Ġst ar
Ġun icode
co in
result s
Sh ould
ĠPro cessor
CH E
mult ip
Ġcons istent
REGEX P
Ġcontain ing
develo pment
JE CT
' ](
7 89
= _
M i
b ose
c r
c up
l t
x f
ar ma
Ġt ty
ĠS upport
he ight
end Prefix
To Integer
Ġext glob
isArray Like
Ġk ind
ĠTr ansform
gre gate
Ġ.._ .._
( ([
L abel
M ATCH
] ];<
d ynamic
y ellow
} `<
se parated
en force
Ġrequire s
Ġo b
Ġm ixin
Ġin struction
get SourceCode
Object s
Ġis NaN
Ġcon version
Ġlet ter
Ġ3 0
ant ic
Ch ange
Ġmatch ed
Ġle ss
format ters
glob als
Ġtra iling
Ġ') '
Cur sor
Safe Integer
cha i
UPP ORT
Ġautomatic ally
@ @
C opyright
M B
P ubkey
f lag
g i
l anguage
ar i
Ġd ays
con tains
Ġl te
Ġg te
St ar
ĠB abel
ĠRe quest
Ġfile path
==== ===
read UInt
Ġcreate Hash
lect ron
convert Inherit
eta ils
Ġown Keys
Ġprefix ed
ĠY AML
Ġmake Wrapper
Variable s
iterable ToArray
Ġsp ooks
Param eters
Ġwrapped Fn
finish ed
7 9
> >
l ift
t led
re ason
is Inside
ex clusive
Ġ' ^
Ġn et
tur ing
In cludes
Ġd uplex
import ant
Ġcomp ress
Ġdocument ation
Out put
2 24
C wd
N T
O pt
P adding
x c
is Padded
Ġc p
Ġc losing
pe ctor
et ter
ab et
Re play
Ġcon nect
set Header
end Index
uff le
") ())
ĠD ESCRIPTORS
ĠW ord
Des cription
------------------------------------------------------------------------ --<
Is AccessorDescriptor
Ġmessage Id
(/ [
internal Setup
ph abet
SourceMap Generator
Qu ote
Ġint To
nan o
Ġoper ate
TA G
ascal Case
> >;<
B alance
E L
G raph
N amed
P ON
z y
Ġ Property
se n
is Directory
Ġp riority
Ġw ay
Ġd er
Ġcon current
ĠS T
par ts
Ġl ater
Ġh elper
pre vious
Ġcall er
Ġext ension
Ġ3 1
Event Target
vid ers
ĠCom mand
Ġz lib
Ġdef er
. `);<
B OM
B race
D etails
h andled
m ixin
x hr
y b
Ġ Dependency
le g
Ġre verse
Ġ' }
Ġ' --
an k
export TypedArrayMethod
Ġp x
Ġs napdragon
ic ate
Ex tract
Con struct
eth ing
Ġor ig
ĠW allet
ĠE C
Ġuse Effect
Un known
\\ (
Ġcreate Builder
++ )<
css nano
replace With
open All
(?: [
ĠIs AccessorDescriptor
Ġcurrent ly
Lo ad
Model s
first String
ĠES CA
rgb R
mut able
Ġseg s
uplic ate
Look up
ĠSH A
= \\
A CT
C ancel
b lem
n p
v m
Ġ rows
Ġa jv
cl aim
Ġun it
Ġon Error
01 0
Ġcomp ilation
ĠMap ping
ĠTr ansaction
Ġpoint s
rim raf
User s
Assign ment
ĠDeter mine
; ${
C ap
I jo
Q R
V yY
V ocabulary
W atch
d river
s chedule
{ }
Ġ iconv
in f
or igin
le gacy
Ġre act
at tempt
qu ote
is Implemented
(' |
it ives
Ġs up
ch oice
im es
im raf
ĠC H
ĠC lient
Array Set
De code
To Generator
Ġr imraf
Ġen force
Symbol Tree
eg r
Ġsh im
web socket
Ġdo wn
target s
pa que
sp y
Ġreport er
Log ic
mkdir p
Ġser ial
Ġbyte Offset
Ġansi Styles
ĠCur rent
shadow ed
Ġidl Utils
Ġ=================================== ================================
Resume Next
) ',
G roups
H mac
M ore
U LE
c n
s w
t ached
re try
ex clude
Ġan other
ĠM ax
com ing
ĠP art
ĠN ON
\\ /
Ġglobal This
Id s
ard own
Ġ/^ [
BU FFER
Ġignore d
Comp lete
Ġclone Node
amel case
Ġstdout Color
Ġfail ure
3456 789
6 7
A re
E B
G reen
H IT
P seudo
Y Z
Z GV
_ )
o b
o res
u ch
or por
st Utils
Ġ{ [
Ġ" :
Ġin line
Ġis String
ĠT e
ĠC orpor
js xA
De clar
Ġ// =>
util ities
Module Factory
os ite
ĠN on
ib ility
ends With
match ed
token Index
Ġexp ressions
Ġ5 0
CSS Key
Metadata Key
ron t
ĠValid ate
asm ine
VAL UE
ĠKeyword Error
Sem icolon
clean up
Reject ed
ĠSafe Buffer
boun ce
ĠCorpor ation
jsxA stUtils
' \
* ))
8 6
S lash
b ound
d ing
h ref
t race
Ġ' +
Ġ' ;
Ġp ending
Ġs pread
ol ana
Ġto Array
Ġun escape
Ġg reen
ĠB SON
ach ing
ĠP ackage
ĠI gnore
Ġv ia
Ġex cept
ĠType d
Ġhas Symbols
Ġmatch ing
Token s
av ailable
ĠEvent Target
prefix ed
istrib ution
ĠSourceMap Consumer
ĠLe vel
ĠEmit ter
H O
O V
Y ellow
Y AML
a TypedArray
e re
g it
m ihai
str al
Ġin herit
able Observable
Ġun supportedIterableToArray
ĠA MD
iz ing
code gen
ust er
Ġ4 8
ong o
do es
Ġdir s
LC Jz
async Iterator
Ġwork s
Flag s
Cl one
Ġencode d
Dis play
PRERELEASE LOOSE
inish ed
uter Subscriber
baz on
BUILD IDENTIFIER
Full Year
PRERELEASEIDENTIFIER LOOSE
ĠSecond Type
NON NUMERICIDENTIFIER
Ġ=================================================================== =======
LCJz b
" ],<
4 1
> -
H int
S top
a h
m argin
w riter
re assign
st andard
le v
if Error
il ine
ol ling
Ġpre dicate
Ġwh atwg
Ġmin or
Ġcol on
Regex p
ĉĉĉĉ ĉĉ
ĠGener ated
ĠEn force
status Code
âĢ Ļ
supports Color
% .
. ](
A C
C yan
M agenta
O z
P ush
S um
S ING
W S
W alker
] ));<
` ](
i ps
i ated
is Absolute
Ġc xt
od o
Ġm ime
get Location
Ġd ate
ess ion
ĠM ark
com pute
for ge
iter Result
ĠO ver
Un it
ac cept
ant om
Ġchar set
Ġdis claim
gro ups
Gener ic
Ġro ute
Exten sion
Run ner
Proto col
Str ategy
]] ':
Ġcond ition
Ġxyz Y
Ġxyz Z
Ġpack et
//////// ////////
ĠRed istribut
mapping s
ĠOr dinary
Ġag ain
Ġdisclaim er
ĠRedistribut ions
F etch
W in
g gle
h mac
i ases
p ayload
x E
re addir
>} ;
ed Stream
Ġs oftware
Ġb ar
Ġpro per
os s
Ġcom pute
Ġpar sing
sh allow
comp ress
ĠH TTP
mo zilla
Res ource
Se e
impl ForWrapper
Ġexp and
close d
Char Map
OT O
local host
Ġexec ute
Ġass oc
Ġob tain
ĠintTo CharMap
' [[
C ached
F ail
T wo
_ ,
d im
r u
s To
as st
tr ule
get Iterator
get Prop
ĠC opy
De v
De pth
Ġst ill
res sed
ach able
Ġch ange
create Impl
Is Integer
Tr ue
Tr ansaction
Ġprivate Map
Ġwrap Ansi
ĠModule Dependency
ĠIm port
]+ /
Ġback slash
\. \
Ġma de
Report er
uc cess
Ġdom SymbolTree
. ',<
A st
C LU
H EAD
O k
W ORD
c offee
g if
h rough
y ield
al ias
Ġ( {<
an ded
Ġn one
Ġp rim
Ġm edia
res ume
res olved
ĠM y
Ġh ook
ym atch
up le
ĠF irst
Ġbase Account
mo ves
base d
Ġal gorithm
Ġdis play
Ġopen ing
istrib ute
Tim er
Ġcre ating
âĶĢ âĶĢ
Indexed Object
Ġmonth s
asst hrough
A CK
C losing
L F
S PE
V zI
a SourceMap
c er
Ġ ValueParser
ct et
th at
Ġre try
Ġre alpath
de lay
Ġp ow
Ġo p
pro gress
pro viders
op ied
con trol
Ġst ub
ers on
Ġcomp at
parse Float
word s
ĠTo Object
Valid ator
ĠRes ult
ĠIs Callable
20 21
CSS Style
Ġ/* <
Per f
Per cent
$/ .
Metadata Module
Ġstop s
nd s
ĠDE BUG
ĠReflect MetadataModule
Bit wise
istribut ed
Ġcalc ulate
multip age
lev ant
VzI jpb
a int
d rop
g ular
} '
on F
un ct
is Hex
il te
Ġd oc
Ġd irectories
Ġis Empty
Ġl ight
ach es
ĠP ath
Ġcom parator
pre dicate
ĠF rom
Ġhas Native
cur ve
ĠError s
assert Version
trim End
Ġrun ning
action s
Ġsu ch
Log ger
sort ed
ĠUn icode
>}) ();<
Ġforce Color
illi seconds
. )<
3 3
8 8
> (<
S plit
T D
a uth
is File
Ġc allee
str ument
im age
Ġb und
Pro ject
get Value
set Level
Ġh andlers
ĠA uto
Con sole
Ġ(! $
ak as
ĠW eak
eg rit
ac counts
Ġ3 65
ES Lint
char acter
Ġal ign
FI L
async ToGenerator
av ail
Ġcl asses
promise s
Pos sible
Char acter
Match es
Ġwork space
OP ER
Ġ'- '
SH A
Ġneg ative
Param eter
Ġjson File
VAL ID
Ġpreserve Symlinks
Ġsat uration
ĠKeywordError Definition
ĠPackage Json
" /><
< "
S ec
j k
Ġ âĶ
Ġ{ @
an um
Ġs chedule
Ġ" \\
Ġin formation
el f
In ternals
ĠU p
ĠW hether
Ġtest er
pos ix
valid ator
slice d
src path
Ġac cess
Ġover rides
names paces
Ġscript s
Ignore d
initial izer
ĠWork er
cre ment
cons ume
Cond itional
Task s
ĠaSourceMap URL
Ġam ount
Extract FieldDescriptor
A ME
A trule
C ss
C alled
E Y
T itle
U ri
c alled
d in
f ound
qu ot
is Identifier
is Native
Ġn an
ce st
Ġp arens
ut ure
ext ension
Ġtr ansaction
ĠS oftware
com binator
Ġbe g
path name
Ġ/ (?:
ĠRe ader
iter ation
code s
Ġen coder
ip h
Ġdes ired
fix ed
Ġ4 2
Tr im
Ġab ort
Properties From
Ġmin us
Ġmin imum
spec ific
201 8
Ġformat ter
ansi Escapes
propos als
HTML Method
Ġallow s
browser slist
First Type
ud it
Instance Property
Ġbg B
strip IndentTransformer
Ġrs Combo
Ġiterable ToArray
Ġbind ing
New line
ĠtoInteger OrInfinity
Ġwait ing
Ġlocate Path
sect s
experimental Utils
ĠSystem Program
umeration Values
cover age
ĠforcedString HTMLMethod
Oz s
Perf Entry
I X
S preadable
\ `
a fer
h ave
i ant
w ice
in finity
al gorithm
Ġ' ðŁ
Ġb abel
Ġm ill
ĠC an
Con tract
Ġse ed
FI G
wrapper Symbol
ha ust
25 5
Ġar row
38 4
exists Sync
ĠBigNumber ish
$ &
* ?
A K
B Y
M e
U P
Y ou
c m
d ay
n amed
o ot
o peration
Ġ* ****************************************************************************
if rame
Ġp ut
rom atch
ic romatch
ver ity
ĠC ol
Ex cept
Ġse en
add itional
ES PACE
ĠCon nect
Source Node
min ify
Event Impl
Ġpl ay
ĠJ avaScript
Ac counts
ĠNode JS
ĠĠĠĠĠĠĠĠĠĠĠĠĠĠĠĠ ĠĠĠĠĠĠĠĠĠĠĠĠĠĠĠĠ
Ġact ually
Ġ# [
Tim estamp
Man ual
('. ')
Ser ies
abc def
Mult i
Http Request
ĠAs sert
HIT ESPACE
D uplex
H idden
f c
i od
n ormal
r ong
le gate
Ġre st
de cor
Ġc ause
ce il
Ġm any
Ġ" ")
ext glob
co un
com ma
Ġh ref
Ġg id
ĠA uthor
Ġcom ma
Ġse c
Ġdefault Value
Ġthrow s
11 1
base name
loc ate
Ġmatch er
event Name
Ġper mis
Ġtra ck
pass word
Fa iled
Ġ'(?: '
Encode d
Ġcapt ure
Concat Spreadable
ĠPart ial
Ġ***************************************************************************** <
) ]
/ );<
S elf
X T
h s
s m
y cl
on Error
se parator
en ess
un escape
Ġth ing
Ġo ptim
Ġs ite
ol as
module Name
length Of
Ġun expected
int ro
Ex clusive
iz es
ĠN ich
ĠN etwork
Ġlo ok
sh ip
Ġ{} ;
url Obj
fix tures
ML HttpRequest
Config File
Config uration
ĠIs Integer
Ġro om
KE T
\\. `
Cov s
00000000 00000000
Ġar ound
(/^ \
ĠZ akas
ĠmsPer Second
capture StackTrace
ĠSE M
Sem antic
Ġexplicit ly
ardown Logic
ĠTe ardownLogic
ĠNich olas
, "
- \\
9 8
D O
L ong
k df
Ġ ign
Ġre co
is F
Ġc ancel
Ġt weet
Ġt wice
Ġ' ').
Ġp aren
Ġo uter
Ġm y
to string
ĠS TR
cl i
ĠM atch
ĠM ongo
Ġh idden
ĠD es
++ ]
ac c
AR Y
ĠCon tainer
AT IVE
Ġtarget s
Ġread File
PR ESS
LA SH
ĠPro ject
ĠSe lector
:: *
\/ \
keyword s
Search Params
Ter min
> ]);<
? |
D om
E VENT
H ES
K it
M a
S kip
Y X
a ded
c alc
j is
m essages
w ar
y args
th reads
al ign
en s
Ġ' (?:\\.
Ġp asses
Ġto o
Ġi i
create Tester
Ġconfig ure
An chor
Ġsub tag
Id x
pack et
work s
Ġle ave
Ġparser Opts
Ġown er
Ġprefix es
lat ten
close All
Ġprev Time
UM ENT
TE XT
MA Script
tect ed
Ġfree Global
CON STRU
group By
cy an
Ġpack ages
Ġtrans late
ĠComponent s
Ġent ity
pol ate
ĠHo ek
Ġwhatwg URL
unct u
::* ;<
* \
: \
D IS
D IR
G rid
S UPPORT
W x
] \
s inon
t wo
re name
ar ly
Ġre maining
ce ptions
as is
as cii
lo sure
to Primitive
Ġin dic
id s
defin itions
De precation
con currency
Ġtype Of
end or
index ed
Ġcreate Error
En um
ĠCon d
Ġclass Name
color Convert
PR OTO
sign al
Not ification
Comp ilation
Dig est
ĠRE GEX
af ari
4 6
D uplicates
F arm
M IN
S GR
W e
_ [
g oogle
h api
i J
m emo
s chemas
ĉ ĠĠĠĠ
re start
st e
de pendency
Re q
() ),
ĠS ync
St yler
String Prototype
Ġ() :
up per
Ġget OpeningElement
param eters
ĠF loat
ĠE lement
out ro
ĠH tml
Ġcreate Styler
valid ation
Ġlength OfArrayLike
)( (
LO CK
Ġac cessor
Ġbuffer s
LC J
Ġ[' .
method Name
Th unk
201 9
}) |
OP T
Ġsign al
Ġclose All
report er
Year FromTime
Ġtim er
Ġar ity
Worker Key
Ġkeyword s
Env ironment
ĠConvert s
ĠNOT E
([^ )
Ġemoji Regex
owner Document
Ġimplement s
ĠTrue color
Ġstderr Color
Sto re
ĠNUM BER
Ġmill ion
L ON
S ession
] ()
c ancel
f ake
o ices
en um
Ġs mall
Ġm ight
to Regex
Ġh ot
uff ered
back ground
out e
mon th
not Ok
format Args
ĠGener ate
Ser ial
PRE FIX
PON ENT
ilte red
/ ;<
C B
D ot
P kg
W LINE
d ated
g hi
Ġ âĢ
at rule
qu are
it als
Ġto Pos
Ġ` <
Ġ[ {
ĠM ult
ind er
error Emitted
Ġse p
pre lude
Ġset Immediate
create Element
Ġpre ferred
Un ary
ac cess
ac cessor
Arg v
iterator s
write Int
foo Bar
io us
Ġ'../../ __
As sem
Ġne q
fo x
tem pts
parser OptionsMapper
Ġ5 7
201 6
find Last
Ġformat Args
extra ct
Ġfield s
tim estamp
full y
qr st
Cond ition
PARENT HES
Ġhand ling
CLU D
Assem bly
PARENTHES IS
0 5
= ?
I F
K IND
L M
P ART
U V
W ater
a ut
b able
b utton
c ers
c annot
g rid
s ystem
is RegExp
Ġ' ${
Ġn etwork
ol l
Ġm d
Ġm ask
Ġis Number
ĠC LI
ĠM IN
ĠM erge
ĠA d
array ify
der ive
Ġe e
ĠF low
Ġon F
Ġset tings
create Hash
${ <
Set tings
Plugin Options
trim Start
Keyword s
Enc rypt
ĠV ar
Ġro und
JSON Schema
npm js
column s
Ġ': '
Ġmapping s
(? =
COM PONENT
ĠColor s
([^) ]*
PART IAL
= ':<
> [
> \
B ackground
C KET
D OT
I l
R Y
s cale
s ymlink
Ġ ctrl
re cord
at ural
en coder
Ġc overage
Ġc ounter
ex act
Ġ' ]
Ġ* */<
ch annel
Ġin cluded
use s
Ġis Finite
Ġ` (?:\\.
ass um
Ġfor ward
com puted
Ġh ow
Ġas cii
us ing
Ġr compare
Ġr nds
ĠRe place
code d
create Error
pen dent
Ġbase Get
Ġconvert ed
Ġsh ow
Call s
AR K
Ġfound Path
Ġcallback fn
Ġtarget Key
Pre set
Ġk now
Callback Function
Sh orthand
The CallbackFunction
browser s
sp an
AS H
Column s
]}) `)<
]}) \\.`
Ġassign ment
point s
XX XX
Ġcomparis ons
Ġdestroy ed
ĠValidation Error
Paren theses
ynchronous ly
Ġinvoke TheCallbackFunction
eachOf Limit
thes is
ĠLoc al
mn op
cssnano Util
egrit y
Ġ`(?:\\. (${
9 0
< <
M OD
P Y
P h
R ender
T OKEN
W ait
a jax
d irection
m ug
s pread
t il
v t
w orld
un ion
Ġf ront
Ġc md
Ġ' ')<
ect or
Ġ" _
inter faces
Ġde precate
Key pair
read me
ac cumulator
ĠCh unk
impl icit
DE FAULT
TH OD
Use d
Ġrel ax
Ġfix er
Ġ9 0
Ġcons um
ĠJson Rpc
Ext end
([" ./
Ter m
ĠReadonly Array
pare StackTrace
codePoint At
jk l
O p
R gb
S IT
\ -
b ubble
d wa
h d
w id
Ġ --------------------------------
Ġ ke
Ġ implemented
Ġ' ['
it eness
Ġp na
Ġreturn Value
Ġb ad
Ġb asic
Ġin c
ĠC ryptoJS
ĠS te
par ate
Ġh ue
St eps
Ġse nt
bser ve
Ġset s
Un subscribed
Com puted
class ApplyDescriptor
ĠCh ar
Ġclass ApplyDescriptor
Ġtoken izer
sing le
state ments
Ġinit ialize
ĠSt ack
rag ma
Level s
host name
Ġsplit To
flex Spec
## ##
Ġoperator s
multi plier
CheckPrivateStatic Access
ĠConst ants
( (?:
1 99
D R
F ind
l n
s ock
Ġre gistry
(' .');<
Ġs ide
Ġb in
Pro du
() {<
Ġcon f
ĠC l
ot ent
Error Message
De cor
ĠB Y
ĠL IMIT
ag ic
Ġ2 2
To Un
ĠI Scheduler
Ġy ear
amp a
OT E
Ġwas m
ME THOD
Ġsign ed
Ġper formance
user name
Ġold Value
Ġbit mask
CON FIG
cal ar
ĠWh en
MB OL
ĠVar iable
" },<
' }
B lob
B IND
C an
J K
N C
W X
b row
l stat
m ime
n th
z lib
} -
Ġ â
on ical
st ub
st dio
is E
ex cluded
Ġb s
Ġm iddleware
('../ ')<
Ġis Value
con cept
Ġun def
up sert
To Result
IT LE
Ġcall ing
Ġen ded
Ġsh ared
sub tag
global Name
global Config
Ġal tern
emit Error
jest Watcher
ĠY ear
Ġus m
member of
Man ifest
Ġcoer ced
part ial
Ġbo x
Ġlab A
attr s
ĠSh ort
Ġwarn ings
dec imal
Validation Error
CR LF
ĠSupport ed
Cap ability
sliced ToArray
unctu ator
qrst uv
ampa ign
% ,
D oc
L eg
T y
T RA
[ ++
b c
d ictionary
g ar
s cheme
â ķ
Ġ ],
le ading
ur n
Ġs cale
lo t
to ols
ap ache
Ġw on
Ġst eps
Ġh elp
ĠN E
ĠO ther
read er
ĠH ook
Ġy args
Ġat tempt
ĠIn put
ST UV
empl ates
level s
Ġvalid ation
Ġstream s
si lent
ĠJ PY
OL ON
IS O
Ġblock Size
typed array
Es m
Ġcolumn s
mkdir Sync
Mod ified
)/ ;<
Ġrepresent ation
ret Key
DEF GH
Ġ'? '
Write Stream
Ġadjacent s
Ġfe ature
classPrivate Field
QR STUV
LM N
jkl mnop
JK LMN
WX YZ
QRSTUV WXYZ
> _
A jv
C lear
I i
J est
M emo
l s
p aren
s core
u Ijo
re st
on ym
Ġ{ _,
un supportedIterableToArray
qu ux
an e
if ference
as ure
as inh
Ġif rame
Re verse
Re jection
ey J
pro blem
id Obj
ĠT O
set Proto
return Value
co sh
ĠR un
__ :
act ers
has Instance
Ġlet ters
Ġwh ole
vi ver
only Once
clu ding
ĠTo Primitive
write File
RA CKET
und ant
Ġexp m
pa used
Th en
Gener ated
ĠJSON Stream
Ġ6 3
TH IS
ites paces
Reflect Construct
play list
clone Node
Ġsp y
Close d
ĠIN CLUD
Ġword s
script s
Ġlab B
ZX Jz
Ġ/> ';<
egr al
coun ter
uIjo z
ZXJz aW
! ');<
" }
' ])
+ )?
- ')
< /
A SI
C UR
c rim
m ar
o inter
Ġn ormal
Ġs can
get Time
Ġis n
ĠS imple
Ġun til
Ġcom pli
Exp onent
ĠE s
Com parator
Ġcase s
Ġal ong
Ġfn s
Ġproperty Key
wh ite
Ġbefore Each
Cl ick
Ġover write
Ġfix tures
iss ue
Target s
gorith ms
Out Of
dig its
Slow Buffer
ĠEmpty Error
Ġtem p
ĠInit ialize
Ġtre at
ĠCH AR
ĠAuto generated
ghi jklmnop
0 4
5 9
7 6
; ;
I JKLMN
R anges
n esting
t d
v g
w xyz
y arn
¦ Ħ
er Name
st din
de coder
ire fox
(' '.
Ġ' #
an Object
Ġn ormalized
// ------------------------------------------------------------------------------<
const ant
ĠT ITLE
ĠS yntax
array Map
os Release
pre ferred
Value Type
ast e
ĠW HITESPACE
Ġpre release
Im age
Ġparent Node
Ġevent ify
match Node
RE AM
ilen ames
Keyword Cxt
}` ,<
ĠAn chor
Ġreplace d
OP QRSTUVWXYZ
ĠSub Array
exec ute
ĠDate Part
Ġmult icast
Import s
Cur ly
Escape d
with out
enc rypt
Ġtrim med
JSX Element
neg ative
Ġhsl L
label s
Ġmkdirp Manual
uL y
Fe ature
CONSTRU CTOR
cssnanoUtil Get
wid get
qrstuv wxyz
DEFGH IJKLMN
DEFGHIJKLMN OPQRSTUVWXYZ
P a
P lease
P ending
R IN
S imple
T op
m iddleware
x ios
y ear
Ġm ost
id er
ĠS cript
ĠS pec
Ġnew Node
Ġh elpers
Ġget ter
ma inder
Ġresult Selector
Ġpre vent
([ \
ard s
Ġpl ain
Ġac comp
Ġmap ped
do wn
Ġ8 0
Ġreject ed
ud io
[\ ]
Ġsort ed
Sign al
tim er
Ġman ip
allocUnsafe Slow
program Id
aa a
Ġsat isfies
ran ch
universal ify
A wait
B abel
B races
C UMENT
D ATA
E d
G ENER
L T
M icrosoft
N yY
k arma
m agenta
Ġ etc
en ch
Ġf mt
Ġp age
def late
Ġm akes
Ġa TypedArray
Object Type
Ġis Node
>// -----------------------------------------------------------------------------<
inter section
Ġto Length
Ġfrom Index
ĠS ha
Ġtype d
Ġl azy
Ġg if
00 5
us ic
ĠP seudo
Ġse parate
ĠW ARRANTIES
Ġpre process
comp ilers
mo ck
11 9
replace ResultTransformer
AT IC
By Id
Ġpos itives
Ġvalid ator
RE AD
Ġdefine Properties
stat s
FF F
Ġ'\ '
Ġcl uster
remove Listener
Ġ'[ [
Template Literal
callback s
Ġjs x
]+ )
encode d
mult icast
Dis posable
pad Start
Ġmkdir s
og raph
avig ation
resource Path
Ġlong er
Ġcandid ate
CSSStyle Declaration
VzIjpb Ii
onym ous
uIjoz LCJzb
NyY y
8 3
L ATE
b lack
b alance
c c
d um
g op
i dentifiers
m ul
v ices
| [
Ġ( ()
ol ution
Ġm et
Ġ" ");<
tr unc
Ġcon tainer
set Provider
ĠB ASI
ins ide
Ġwh ite
ĠH our
ĠH AND
Ġcomp lete
At tributes
write FileSync
Ġu i
own property
Sh ow
)? )?
Ro om
ĠAdd s
Ġ'. '
Argument OutOf
Ġtermin al
-.... -....
({} ),
ĠhasNative Map
ISO String
Ġcompli ance
ghijklmnop qrstuvwxyz
ĠBASI S
ArgumentOutOf RangeError
T O
U I
Z a
] ?
b f
f ragment
g OPD
| "
} %
} ');<
re maining
se vents
at al
at anh
is Error
is ConcatSpreadable
(' _
Ġ* ~
ent ity
Ġb old
Ġ" ,
to Buffer
ĠT OKEN
ĠC allback
of from
import Default
set map
Ġ` %
Ġ// --------------------------------------------------------------------------<
Ġpro tected
ist ing
define WellKnownSymbol
ĠL iteral
us y
To Boolean
Ġ/ [\
Value From
add r
low er
ren derer
Ġarray Method
pos al
css Rules
From Ast
env ironment
"] ;
Ġdefine WellKnownSymbol
sc roll
Base URL
Sh a
ĠV isit
ĠJSX Element
Qu ant
Bu iltin
Attribute Value
Custom PropertiesFrom
Option al
XRANGE PLAIN
Ġemo jis
[^ \\
License d
Ġele ms
TERN AL
Initial ized
model s
ĠDay FromYear
Eval Error
Ġmer ged
attempt ed
Ġagain st
brow se
gar ply
Curly Bracket
ograph y
* [
, '
G RE
R outer
e at
i er
x n
y aml
on PerfEntry
(' ..
Ġ' %
export Star
Ġreturn ing
Ġb l
Re ader
Ġis RegExp
op le
ĠC alled
ĠS napdragon
import s
ace holder
sh ort
ĠE th
ĠE lectron
Ġpre fer
comp act
ĠH andler
Ġarray ify
pos ite
Ġparent Path
Ġcheck s
0000 00
wait ing
Ġwe ek
ĠCom mon
Iterator Prototype
ansi Regex
Ġblock s
Ġchalk Tag
Ġ'\\ '
If Empty
]/ ;<
(/^ [
Ġsupports Color
extend able
Ġreg ister
qr t
SY MBOL
11111111 11111111
Sum mary
assum ption
otent ial
" ]<
) ',<
> .<
D D
I dent
L ITY
P H
P L
P ick
T State
b ow
e valuated
f ast
r t
s ser
t weet
Ġ DefinePropertyOrThrow
re generator
Ġre start
Ġre cord
Ġre store
se q
en ces
Ġf uture
Ġs hebang
Ġs pacing
ch an
get AttributeNS
ig her
Ġd irection
Ġto JSON
Array s
Ġh igher
ĠB ackground
Ġget Prop
ĠO N
ĠE ITH
Ġassert Record
Function Name
from Dir
File System
sec ure
ID ED
match All
Ġspec ify
GE MENT
ĠIs Extensible
trim Left
Dependency Template
}) ();<
wh itespace
merge Stream
Work box
AB C
Expect Type
pb m
me an
ĠAp p
ĠSubscription Log
Ġ'{ "
ĠEX PRESS
INF RIN
develo per
Ġhsv V
ĠPR OV
Ġselect Color
Trailing Surrogate
ĠLE FT
Leading Surrogate
Status Code
Ġcap turing
ERCHANTAB LITY
cr Error
Declar ator
ah oo
Ġpermis sions
ĠLIMIT ATION
ĠINCLUD ING
ĠEITH ER
INFRIN GEMENT
ĠPROV IDED
D I
M s
M ERCHANTABLITY
W B
W ARRANTIES
W eek
b eg
s mall
v s
Ġ rad
Ġre v
qu ences
Ġc e
Ġ" $
(" .
Ġcon currency
De structure
ĠM etadata
ist ory
Ġres ource
Ex act
Ġ2 55
Ġcom puted
ers ions
Ġch anges
sh are
Code c
Ġ3 9
Ġsh are
12 3
Ġformat ting
any ing
Cl amped
non IterableRest
ĠComp iler
roll up
Del im
ĠisW indows
MAINVERSION LOOSE
Ġdist inctUntil
Unsubscribed Error
Ġaccomp anying
- ?
4 4
6 3
9 2
B ig
G ray
I ss
K ind
P SI
P unctuator
T ry
V L
] ]<
b und
f allback
l ify
m ote
m icrosoft
p ages
x FE
ct r
un iq
var iant
(' "
Ġt ar
Ġ' |'
ul h
Ġp ers
def er
el li
Ġ` [
ĠM ihai
Ġres ume
ĠB inary
ĠL et
array WithHoles
ĠR GB
__ .
ĠI P
ĠG rid
ĠN AME
oc us
Ġex cluded
ĠF UN
ĠD ig
01 2
ĠH ex
from Callback
En abled
/# /
Ġx or
ST REAM
ĠTo Int
gener ic
Ġal iases
min es
Or dinary
Ġspec ifier
state ment
Ġparser OptionsMapper
Th rough
Scope Type
exp ressions
release d
ĠSt yle
ĠPro cess
ĠY ahoo
ELE MENT
Ġexpect s
metadata Key
Ġtransform File
rid den
Ġneg atives
Modules Paths
Ġred Bright
paris on
ĠScope Base
Mark er
ĠKeyword Cxt
Ġlib rary
ĠDeter mines
Seg ments
met r
ĠBaz on
Ġsup plied
Bitwise Op
Ġbeg in
ToUn scopables
A GE
R l
d k
h n
h our
s at
Ġ ERC
Ĩ Ĵ
Ķ âĶĢâĶĢ
ex cept
Ġ' ;<
Ġth ings
str aint
if ec
pt ic
Ġ" [
Re declaration
ĠC offee
Ġun used
Ġget Options
__ (
ĠU N
sh ake
Ġwh at
Ġindex Of
Ġevent Name
scri bable
ne ed
ĠĠĠĠĠĠĠĠĠĠĠĠĠĠĠĠ ĠĠĠĠĠĠĠĠĠ
ĠK EY
Ġcol s
Callback s
rimit ives
Ġimport s
Prop Base
we ight
Ġprovi de
Ġ9 8
Private Redeclaration
ĠAdd ress
Ab stract
Ġneg ated
Ġrepresent s
Ġansi Regex
Ġ\` ${
Holders Len
ĠâĶ ĶâĶĢâĶĢ
war ded
MOD ULE
Ġâ ĨĴ
ĠSupported Algorithm
Destructure Set
PSI LON
ifec ycle
ĠCoffee Script
$ /<
) |
1 80
A stral
H elp
O UR
P red
b lackBright
c aching
i i
i ation
m F
r amer
v l
y per
ar ound
Ġf oreground
um an
Ġ" )
Ġa Function
Ġw ide
(" ");<
Ġis PlainObject
key pair
Ġ[ ,
for ward
Ġget Map
Ġ(! _
and al
ĠObject Type
ix ins
ĠU SD
URL Parse
Node Callback
Ġpre tty
source MappingURL
Ġparse Query
one Line
mo z
css Text
Time Component
ĠTo Length
constructor s
col lect
raw Value
Ġ(_ ,
finit e
ĠSt atic
ific ate
Ġrgb R
ert ificate
Ġuser name
CI ES
Ġapply Style
ĠEn sure
icro task
Support s
Ġme ans
go ing
ĠIss ue
ĠEX P
ĠExport s
bgB lackBright
Fe atures
yp ography
|\\ *
Ġhyphen s
Mut ation
Ġpe ople
ycl ic
ĠShort cut
: '
G if
H TTP
L etter
P ayload
S LASH
[ ]<
^ $
e v
f b
h and
m ixed
o pe
p y
s up
s napshot
th rottle
Ġt race
an ity
Ġp th
Ġ" *
Ġa es
In line
Ġd b
Ġis Hex
De lete
Ġst dio
ĠM ut
ĠM ain
com bineLatest
Default s
call er
ĠE d
fix er
ID L
Role s
bo ard
dom ain
ĠV ER
Ġdest ination
Ġmerge Map
ĠPre vent
Ġaction s
Ġimplement ations
Row s
Ġmulti plier
basic URLParse
Ġmo ved
iterableToArray Limit
HO ST
Ġbitmask s
ĠOther wise
0 2
C re
C aches
H igh
M T
N um
N etwork
O ptim
P arens
T ries
V ersions
W sc
a decimal
d pub
p osed
x F
Ġ{ ...
al d
al f
al g
Ġre cursive
ro uter
is L
Ġn ines
lo op
type Annotation
Ġin cluding
ver sal
get ter
Ġis PropertyDescriptor
all ist
ĠC lose
len coded
ase CRLF
Ġv iew
Ġcom bineLatest
Ġlo ss
Ġen o
Ġch rome
ĠD ot
Int egral
ĠH EX
Ġparse Color
Ġbase Is
File Name
([ ],
AR G
With First
Ġ201 3
Expression Container
av ing
plugin Syntax
Ġ(_ )
Enc aseCRLF
Char set
struct uring
bg H
Ġused Models
$/ ,
Ġcopy Props
Ġstop Digit
Util ErrorObject
Return s
ĠEx tract
Ġopen All
Ġchalk Factory
Log ical
Ġfilter Patterns
skip SC
Ġdot ted
Strict Equal
Ġcontains Number
[^ \
Upper case
Ġsection Metadata
QU OTE
Read Stream
Ġsem icolon
Media Rule
Ġprodu ct
po inter
role s
Replace All
ĠCOM MENT
Ġcandid ates
Seg ment
Are a
Generic Descriptor
ĠtoPos Int
ĠYear FromTime
}% }<
Ġwide ly
andal one
Integral Number
WithFirst Index
EncaseCRLF WithFirstIndex
! ("
M y
M ul
O B
b idden
p rompt
x d
Ġ ERROR
th rough
al ert
Ġc r
Ġt a
ter m
lo red
Ġm ater
Ġtr unc
>// !
Ġcon trol
set tled
De cipher
Ġ1 01
com parator
node Interop
li p
ĠF ilter
Ġon End
ĠH armony
new line
Ġpos itive
Ġne cessary
FF SET
Ġle ast
Ġrun s
CH AR
Not Throw
Ġclose d
Ġinter sects
Ġver bose
Trans parent
NotFound Error
Ġsim ply
Ġreco gn
beg in
. \
/ ${
A g
A m
B order
D ESCRIPTORS
H and
M ask
M ARK
O S
P age
V IS
V itals
Y Y
p rim
on ts
Ġre base
Ġre tain
se ed
Ġf ulfilled
is Core
ul p
Ġp ick
Ġs ample
to Fixed
ver ify
Re actions
pl ode
In toArray
Ġg ame
ĠL ine
To Primitive
To PropertyDescriptor
To ggle
Ġe valuate
pre pareStackTrace
/* .
Code Path
Code KeywordDefinition
({ });<
Ġuse Context
Ġarray LikeToArray
ĠCopyright s
over flow
red is
AR N
not ify
Ġclass Constructor
ĠTo PropertyDescriptor
disable d
Ġtry Catch
trim Right
Ġmod ular
last Index
}) `;<
Ġexport ed
Ġschema Type
Ġbrowser slist
Web Vitals
Ġqueue Head
Comp at
prefix es
Ġper mitted
chunk s
And Apply
Chunk s
net work
ĠX HR
ĠSe lect
Cur ve
pair s
Custom Message
Ġcss Text
ĠZ ero
ĠID ENT
ĠSchema Object
Ġshort cut
Ġflex Spec
ĠWebpack Error
Ġcombin ation
frames Rule
cleanup Semantic
ĠWeak Set
ĠEs cape
ĠSyntax Error
usy Tries
Quant ifier
VL Q
012 3456789
vl q
AndApply PropertyDescriptor
D river
F alse
M enu
N G
N ormalize
` ${
b iz
c lock
p riv
x or
or iz
al yz
Ġre name
Ġf iltered
is Primitive
Ġc yan
Ġc amelcase
Ġc opied
Ġn af
>} (?:\\.
Ġa gent
In Year
ĠS plit
Ġh ope
ĠP rint
Ġ2 1
Ġ2 5
To Hex
Ġe arly
ĠN O
Key Changed
Ġal phabet
Ġversion A
Token List
stream s
Ġab v
Th enable
Ġ/^ (
Ġ/^ (?:
allow ed
Ġaff ect
user Agent
]}) *))
Ġimpl ied
Byte Array
Ġplace HoldersLen
gu ards
Ġ', '
("../../../ ../
Ġassoc iated
HEAD ER
>}(?:\\. ${
]})*)) `)<
0 3
C LO
C ODE
C ITY
D A
F ake
L anguage
N O
S paces
^ ${
c G
e ject
w atcher
y J
Ð ¾
Ġ ..
Ġ Arguments
re cursive
in fer
Ġ{ "
Ġre levant
se al
is Interactive
(' --
Ġt ail
es m
str m
Ġp ump
Ġs ci
to Red
inter val
set Immediate
Ġun its
Require ObjectCoercible
Ġpath name
ĠP op
ĠP lease
To ol
ĠI TER
call s
Ġon Start
Ġcall able
Ġcode Point
Ġmodule Context
ĠE nd
Own er
Ġcreate Iterator
from Array
Ġarguments List
File Path
uth y
Pl ay
Ġresolve Seq
Ġparent Schema
Ġlist Cache
Ġlog ging
fn s
Ġmap Fn
plugin Transform
load ers
remove All
Match ers
ick y
wh ich
Ġimport ed
Ġwindow s
strip Ansi
ĠmsPer Minute
ĠBigInt s
ses sion
rain bow
")) ,
SY NC
Ġordinary Has
Validate Function
ĠNull Dependency
doParallel Limit
decor ators
ĠCond itional
ctr ine
Ġsci Pos
- ]*
. ';<
C ell
C ircular
D er
D irect
F OUND
] `
c ion
c ross
h en
h uman
i ator
r anges
v b
{ "
Ġ ;
Ġ ripemd
on tal
er tain
Ġre tri
un n
is Undefined
Ġc ircular
Ġ} }
Ġt y
Ġo ptimize
Ġo bserver
rom ium
module Id
Ġget Value
err no
sh ow
Ġpre cision
Ġ3 8
from CodePoint
ĠIn ter
Ġprivate Key
Ġmod ified
Sh ift
Ġro utes
ĠEx tra
Comp are
Json Sync
pc Provider
ĠisObject Like
ĠDe code
Ġcoer cion
tim es
Ġme chan
Ġrandom Bytes
Ġdetect ed
ĠWrit e
47 40
room Id
Ġsom ething
Ġder ive
does NotThrow
ĠUp date
Ġign ores
OPT IONS
oriz ontal
alyz e
) ();<
+ )\
1 01
B RACKET
F ont
F latten
P ure
S w
b link
b son
d uplex
m icromatch
r w
y l
Ġre gExp
de bounce
un its
is match
Ġt ab
Ġ' `
Ġs w
Ġs alt
per f
Ġfunction Name
Ġ" +
ĠT S
ĠC AN
ĠS ec
ff f
Ġan cest
Ġnew Value
ir m
Ġst ake
Ġh ooks
Ġg OPD
ĠA R
Def late
Con f
Ġpath Filter
Ġget S
To Check
eth rough
Of Workers
SE PARATOR
ĠU I
Exp r
Node List
iv ely
json File
start Offset
min imatch
Ġtoken ize
Ġtoken Index
ular ies
Pre cision
proto Props
Ġwe re
ĠJ ust
ĠNode Path
cache Controller
Ġgovern ing
Th ing
Pos itive
spec ifier
80 80
Ġrun Tests
ik ethrough
Ġ'/ '
den ce
Ġfix ture
Ġsu bject
AD ED
Ġ'" '
25 4740
ĠAsync Scheduler
ĠX hr
ĠIterator s
Ġar ia
static Props
initial Params
ĠmsPer Hour
icon fig
IG H
Ġsection s
([^ \
resource Query
ocab ularies
Ġbig int
ĠUt f
msPer Day
realpath Sync
Ġsc reen
007 199
ĠCurrent ly
Hint s
Ġnan omatch
ĠâĢ ¦
elli ptic
254740 99
007199 25474099
2 7
? .
A jax
E M
G re
M int
R x
S uccess
U s
a ar
b a
b log
c ending
p ress
r n
Ġc ookie
Ġo l
Ġa ren
el ist
In st
In sert
Ġd istributed
ĠS ingle
Ġfor ms
ĠB e
us age
ĠI T
Ġe quals
code c
ss ions
Ġuse Wallet
Ġ3 66
Ġat tach
RE CT
Ġu uid
Le ap
12 8
sign ature
Ġpublic Key
mod ifier
AS K
Mod al
ĠOperator Subscriber
ĠisArray Like
Ġlimit ations
mark s
Ġass um
reg ion
bine All
ĠUt ils
subscribed Frame
Ġmean ing
ĠESCA PES
Ġplay list
Ġtranslate Level
ĠMult i
+ )
+ \
- %
9 31
A v
B AR
C LA
E very
H ot
L azy
P M
Q ual
S uite
V sd
W yJ
Z IP
] ',
] ),
a es
s pe
} ]
in struction
al ic
un ch
Ġf older
Ġf raction
is o
is PropertyDescriptor
(' `
ul fill
Ġp ause
Ġp rior
Ġo k
Ġs ymlink
Ġs uffix
lo rem
Ġ" <
to a
Re alpath
In f
Ġis Prototype
Ġis Constructor
Ġvalue Promise
Ġde clar
Ġl ar
row l
ĠA t
ĠA UT
ĠA gent
iz ations
Con tain
Ġget Native
Ġbe low
Ġbe havior
Ġe ffect
qual ified
Ġnot ation
Ġnot ify
pre set
ĠW ARRAN
ĠE DIT
ĠE PSILON
form s
Ġwh iteness
ĠH SL
OR E
Ġy et
Ġy arn
ĠCh ange
ĠIn st
ĠIn stance
Sync Iterator
css wg
char s
An imationFrame
base Rest
start Token
start Digit
From SyncIterator
)( \
FI LE
Ġcheck ing
For Own
work space
Sub stitution
Base d
Base Type
Ġexport TypedArrayMethod
ero us
time End
Ġreplace With
OP N
ays InYear
Ġwritable Destroyed
math ias
ĠES C
compat ible
scope Manager
Ġ') ';<
Import Dependency
Dig its
Field s
dist inctUntil
Ġpost fix
ared ArrayBuffer
Sign ature
tim ers
Ġfallback hue
Ser vices
Ġrole s
ĠdefineProperty Module
Attr s
UPP ER
spawn ed
Sc reen
Arrow FunctionExpression
Ġproper ly
emitError NT
GENER ATE
ald ron
onts ize
rw aldron
00719925474099 1
ĠWARRAN TY
! !
' |'
. ",<
7 2
C F
O LA
S witch
S chedule
a unch
e of
g ray
Ġ{ (
qu iv
Ġc are
Ġc ross
Ġc ertain
./ .
ce dence
Ġp seudo
Ġs urrogate
Ġm at
Ġm ac
Ġm emory
ut imes
value Type
') ]
Ġcon tract
ĠC A
key of
default Value
ot iator
Ġst andard
Ġ$ $
Ġnode Type
ĠO k
ĠO ption
has Basic
Ġ{} )<
Ġpre pend
ĠH ead
IN ITY
Ġcomp let
mo st
Ġy ellow
dis play
Ġconfig s
Ġ4 00
Event Pattern
(?: \.\
As cii
10 24
Tag ged
ĠCom pute
Ġexp ose
Async Generator
cept or
Sh adow
Ġformat ted
dest ination
bit wise
IL ITY
warn ed
the re
Ġmode s
Ġts lib
Sign er
Ġdom ain
Without Properties
ĠText Decoder
mater ialize
Ġvisit ed
px Pos
Ġdst path
del ta
ĠWord list
sen der
oss y
}- [
OLA NA
+ (?:\
5 1
6 2
6 9
; ',<
> ****************************************************************************
G ap
M ASK
S OL
W arn
\ ))?
c enter
d p
e per
f light
h ub
h elp
o ptim
Ġ race
re achable
in ator
ar row
le ad
al ty
se quence
ro ad
Ġf ig
is Value
is TTY
Ġc w
Ġc ipher
(' [
it or
str ike
Ġs iblings
lo rer
il ar
ate way
to Number
to Integer
') }
Re move
Ġw arr
js perf
Ġl ang
res pon
ĠM ATCH
ĠM ERCHANTAB
") ()
Con current
Ġsource Keys
Ġget Keys
Ġ2 14
ER O
Ġlo ck
Of SourceMap
ĠF ree
ĠF lex
ay son
test ing
ĠH as
Ġbase name
ang erous
ant y
File Comment
ĠIn ner
AT EST
Is Constructor
Ġsub net
(?: (?:
ĠJ o
event Names
ĠĠĠĠĠĠĠĠĠĠĠĠĠĠĠĠ ĠĠĠĠĠĠ
Ġ5 2
bg Red
bg Yellow
ĠY OU
ĠEx t
Ġ'\\ $&
Ġtag s
Ġglob als
Has OwnProperty
ĠBase Node
Ġ^ =
ĠConfig ure
Red uc
Ġred istribute
ĠisValid UTF
desc r
Dependencies Block
dep th
Absolute Path
Ġren derer
Ġspecific ity
Ġframe works
ĠValidation Strategy
Ġclean up
Ġdec rypt
PO SIT
ĠBrowser slist
GH T
}| .
Relative Path
LOW ER
ĠStart OfSourceMap
ENER ATED
ĠLo ad
Ġsuccess fully
Ġsom et
Species Create
CSSKey framesRule
found Path
BY TE
Termin al
([^)]* \))?
Ġmanip ulate
ĠITER ATOR
+(?:\ ([^)]*\))?
>**************************************************************************** *
road cast
Ġwarr anty
ĠMERCHANTAB ILITY
* )
: ';<
J avaScript
M AN
O uterSubscriber
P ack
R OW
S emVer
c f
e ed
v as
v endor
x s
Ġ Properties
Ġ height
er ies
ct al
Ġre define
ro ken
Ġf ire
Ġs ys
ic ally
ic ons
Ġin clusive
('./ ')<
Ġtr ust
Ġd uplicate
Ġto Str
ĠS afari
set ter
are a
this Arg
Ġ// <
ĠL azy
array LikeToArray
Con straint
lob ber
Ġpath Key
ĠN umeric
ĠN ATIVE
ĠF ULL
source map
IN ED
En gine
ĠIn terface
Ġlist s
10 8
Ġgener ic
Ġwork ing
rag ments
Init ialize
Ġoption ally
Cl asses
OU P
Ġreport ed
Json Rpc
Ġvalidate Options
Ext glob
ĠSourceMap Generator
por al
Ġinclude Prerelease
INF O
ALL Y
ĠFormat ter
ĠConnect ableObservable
ĠSTR ING
= ",
B ug
B LOCK
C OD
H B
I Object
K IP
P tr
R le
R ate
S cheme
W riter
] ],
_ :
d a
d s
d LCJ
e val
k ZX
k ZW
m YX
n ake
q cy
y y
à ¥
Ġ ra
Ġ DefineOwnProperty
in verse
th ers
al go
Ġre viver
de pendent
en o
en queue
Ġf low
Ġf ragment
is Date
Ġc or
ur lencoded
(' =
Ġ' ]';<
an Mi
Ġp ointer
Ġs quare
Ġm int
Ġm agenta
ut ive
module Path
ext name
Ġis Digit
() `,
Ġto MetadataKey
ĠS ocket
js dom
set Timeout
Ġ` "
co v
Ġh ide
Ġh oist
Ġg r
String Transformer
ĠB it
Ġget Symbols
ĠR ow
path Exists
ĠG ENERATED
call Site
ĠF A
ĠO FFSET
act iv
ĠD on
Ġcode Frame
ĠU INT
ĠU SING
ĠW AS
eb ab
out side
ĠH SV
ĠH WB
umer ator
Ġbase Rest
Ġarray WithHoles
ang le
Ġat tached
Ġsh adow
sec utive
Ġx hr
Data View
ĠCon cat
Ġresolve From
Ġclass ExtractFieldDescriptor
disable Glob
token End
babel Plugin
Ġstart ing
OM ATIC
ne cessary
Ġexp anded
Ġdis k
Ġ${ _
PR IMIT
Scope Base
deep StrictEqual
bg White
bg Green
bg Cyan
bg Magenta
": "
Ġnon IterableRest
public Path
Ġcopy Buffer
offset And
Entry Dependency
OU BLE
browser ify
xA A
Str uct
Ġ9 007199254740991
Ġ') '<
Ġwalk er
mult iline
KEY WORD
Ġlocal Name
Argument Error
Ġsp an
ĠRE GENERATE
Ġxyz X
raf ts
ann ick
identifier Node
gre es
ĠScope Type
Ġextract ValueFrom
gu anMi
ERC ASE
Ġupper Scope
Meta Schema
Ġhsv S
Del ay
bgB lue
Sp y
CheckPrivateStatic FieldDescriptor
Have Names
under line
gregate Error
leg al
ZGV mYX
SPE C
Ġlight ness
ĠFrom PropertyDescriptor
Reverse d
Generated Column
pbm Rle
Ms g
Iss ue
ĠDig ital
metr ic
ĠVER SION
Ġloss y
human ize
ĠAUT OMATIC
kZX guanMi
offsetAnd Type
ZGVmYX Vsd
pbmRle C
ĠAUTOMATIC ALLY
' ll
) *
- '
/ >.<
I ST
M S
N ormal
S CHE
^ |
` :
d irect
e am
f p
u z
ar ily
al y
al pha
Ġf amily
Ġ} ))
Ġ' ,<
Ġth ird
Ġs inon
Ġ" "
Ġ" #
to Equal
Ġin verse
Ġd istribution
(" /
Ġis Enumerable
Ġto Buffer
Ġde structure
Ġde termin
ĠL O
Ġget s
ĠR oot
Ġ2 3
SE D
ĠE num
Ġhas Flag
ĠH mac
Ġstate Override
Ġunder line
strict ed
sc reen
Ġexp ress
20 28
Ġid s
ĠEvent Init
bin edStream
den d
gn u
merge Map
Ġfix ed
Ġskip ped
Ġswitch Map
ĠAsync Action
PLA CE
Ġtask s
Word s
Max imum
bracket s
Ġsystem s
Webpack Plugin
Ġattr s
Ġ'* '
ĠEnc ode
ĠCommand Operation
ĠCol lection
Builtin Module
Clamped Array
( .*
A G
A PP
B FS
D ynamic
D raft
F allback
M M
S Lint
X Sw
Y aml
\ "
] ':
a udit
b ottom
c ake
e valuate
f round
g ot
i et
i ally
l ite
r inter
s imple
s hebang
t b
x FB
{ [
Ġ ArgumentOutOfRangeError
ct ype
Ġre addir
Ġf sevents
is Type
is Tag
(' ',
Ġt x
Ġ' |
lo ud
per ations
ser ial
ad jacent
get Binding
In cluded
Ġd uring
Ġto Model
ĠS er
Ġ1 8
Ġnew Config
Ġst orage
co ercible
Ġh mac
ĠĠĠĠĠĠĠĠ ĠĠĠĠĠĠĠĠĠĠĠĠĠĠĠĠĠĠĠ
ĠA g
ĠA tt
Module Name
Ġsource Len
To Uint
pre fer
code Frame
ĠW riter
Ġmodule Name
Exp ressions
ip ass
Ġ{} ));<
comp osite
Ġuse Native
Ġcomp osite
valid ators
ĠBuffer Layout
Is TTY
By Name
Ver ify
LE AST
Event s
Tr bl
All Keys
Ġurl Obj
ĠJ osh
Test Case
Ġmin imatch
CSS MediaRule
ces sed
ĠSet tings
sv go
Ġint egrity
ĠFunction Prototype
TE AM
prev Time
Ġbuild Graph
Ġuser Agent
ferenc er
(() )<
\. ?|
Al ign
Attribute Mock
LI ST
angu ages
Non Null
Ġconcat Map
Ġins pector
Worker Pool
produ ce
Flow File
Ġhsl S
frame Rule
58 6
Ġpad TimeComponent
wrapped Fn
IP v
bgB lack
aria Query
Mi O
have Stream
Ġconfigure d
channel s
Ġaltern ative
GRE ATEST
OUR CE
yper link
Supports Rule
Ġderive BFS
IGH T
XSw ib
TEAM CITY
1 000
3 64
4 00
C L
C LI
L IN
R ound
S uffix
T EST
T uple
W D
c ookie
f iling
g zip
j query
p p
t ab
z en
{ \
| [\
Ġ URI
le ave
Ġre ce
ro ute
un esc
Ġ( --
(' ')<
Ġn Bits
Ġs a
def s
Pro gress
get Token
() ));<
ĠT im
Ġto IndexedObject
em ail
Ġ` -
Ġun supported
ĠM er
Ġh ack
Con tains
Con verter
Ġbe com
Ġe c
Ġr x
Ġex ception
Ġse s
IT IAL
Ġset ting
ĠArray Like
11 0
Pl aceholder
write Head
sc an
tra iling
Lo ck
own Sync
ĠNumber s
'] (<
Ġcontent s
mod ified
Ġstyle d
Ġper iod
Ġtra cker
MA P
ĠCSS StyleSheet
task s
capt ures
COLOR TERM
ðŁ ¦Ħ
Ġmulti ply
tl s
(', ');<
ĠAb stract
ĠCo hen
Me asure
ABC DEFGHIJKLMNOPQRSTUVWXYZ
' });<
7 48
; )
C rypto
D irection
J dLCJ
K IT
N v
O dd
O mit
W F
W indows
a i
b id
d raft
g te
i us
i ans
l te
n ens
p ick
p assthrough
r is
s k
s ubject
w ss
re c
re gistry
Ġre produce
qu ick
is Un
is Custom
Ġc of
Ġp ages
>} ];<
Ġ_ :
Ġs ibling
im g
im als
per Item
to Object
tr zy
Ġvar ious
Ġis Global
ĠT ree
Ġto Number
em place
De ps
Ġ` ^${
Ġ[ _
Ġl f
end Line
Ġh aving
ist ic
('../../ ').
array Includes
ag gregate
ĠR pcProvider
ĠI an
ĠN avigator
ĠRe present
err s
ĠF oo
ĠD irectory
Ġobject ToString
ĠGet V
ĠGet Method
dent ials
Com binator
Ġarray Map
mo ving
At tempt
over write
State Module
Data Property
base Get
From PropertyDescriptor
Ġsub stitution
Ġ201 7
Ġstart Offset
Ġadd ToUnscopables
Ġchar At
As Esm
private Key
ĠRes ponse
ten sible
Get PrototypeOf
by nens
Test Found
Ġj asmine
Ġ5 12
]( ...
Ġmod ification
Ġ10 586
Per Hour
find Up
Ġk eccak
arguments List
dom exception
Ġelement Type
prec ision
Ġwork box
dest Stat
bit Length
OP S
num OfWorkers
Exten ded
Ġdest Stat
Ġbuild Queue
Create Element
Ġper cent
ĠNew Plugin
Ġdecode d
\\. '
Ġ') \\.'
Ġwalk ing
fa ctor
Has Instance
ĠAsync FromSyncIterator
ĠX MLHttpRequest
Ġser vice
RI GHT
Ġinner Result
Ġfree Exports
No TestFound
Ġmember ship
Over rides
lu ZGV
avig ate
Ġ'{ {
ĠRed BN
ĠRed istribution
IV ES
Ġspecial ized
utes PerHour
}\ ``
Ġshorthand s
Short ener
}. ${
Ġ14 931
GR OUP
rem ote
ĠValue Type
lap se
ĠInternal StateModule
sPer Minute
ĠBaz aar
Ġbalance d
Load AsEsm
compute WorkerKey
Fail ure
getIterator Method
Dev Tool
onError ResumeNext
Ġ'(?:\\. ('
bserve On
CUR RY
ĠEth an
isL ossy
Ġmater ials
ĠcssText s
Us age
mathias bynens
) ('
/ ,
: ':
C oder
G T
I con
L ow
M on
P C
] ][
b races
l azy
n y
u FF
} ).
Ġ /<
Ġ ].
ct ive
ur pose
(' ^
(' \\
Ġth unk
Ġp Limit
>} ());<
ri x
Ġa uth
Ġin f
pl us
get State
get Polyfill
Ġd rop
Ġis Inside
Ġis Extend
ĠC oder
ĠM at
St andard
Ex it
String ify
for warded
Con version
Ġpath Ext
ĠP ost
ĠP erson
Ġget Current
ĠR FC
To Object
Ġe as
ĠN eg
eth ere
Ġse quences
ĠO paque
ix el
Ġthrow n
add EventListener
ip ient
Com posite
ĠThe se
ac ity
face book
ant iate
Ġat tempts
over ride
base Account
cod ers
level Mapping
LE D
Ġ201 6
Ac cept
ilen t
Ġup ath
tin u
ĠSt at
LOOSE PLAIN
ĠAn d
Ġrequest s
'] ;
report ers
rgb a
styles heet
Ġinitial ization
ĠGener ator
Ġdel imiter
Sort ed
Without Holes
ĠText Encoder
cons umer
ĠIterable Iterator
Ġ(/^ [
Api Url
([] .
FULL PLAIN
Ġpx Data
ĠESCA PE
ĠTyped Event
Ġprim ary
Serial izer
Exponent ial
redis Client
Leap Year
ĠFA IL
SCHE MA
Ġses sion
ĠisExtend able
ethere um
' >
( +
( ({
7 4
> ><
F ill
N ines
O OT
S hebang
U id
Z hd
_ (
a Array
d uration
d ifference
g ame
i O
j osh
o v
r ink
s Im
u fe
w js
or ing
st ian
le y
de g
de precate
ro iss
qu ent
is N
is Node
is Stream
Ġt urn
Ġth ree
it elist
Ġn ine
ter mine
to Key
Ġa Allow
ath an
Ġw eak
Ġis Symbol
Ġis Background
op ies
Ġto Quantifier
ĠC roiss
Ġ1 80
ir ation
Ġde comp
Ġun safe
Ġh pack
ĠL inter
ĠL ang
array buffer
Ġsource Space
Ġget Token
__ */<
ĠObject UnsubscribedError
Ġex ponent
Ġnumber Offset
ĠF ull
ĠF unc
ĠU UID
ord inary
source Space
Ġopts Arg
ĠH elper
IC OLON
Ġarray Slice
from SourceMap
Mapping s
Ġat rule
Ġstat uses
]) )<
token Count
Ġtarget Space
PE D
Ġvalid Len
Or Create
LO T
10 5
Ġend ian
Ġac cumulator
Loc ations
Sub scribe
20 2
CSS SupportsRule
Ġsrc Stat
postcss Normalize
spec ifiers
Ġrule Tester
ĠY annick
ĠSub tag
Cl oned
Ġover ridden
Ġ'/ ';<
TYPE D
reduce Right
Ġcount Zeros
Space After
ĠRequire ObjectCoercible
warn ings
AD D
99 99
Dis abled
man ifest
Ġinner From
Ġfree Module
Ġsp dy
]} ;${
Ġtrim ResultTransformer
PT ION
ĠPre serve
ĠJon athan
neg ated
Ali ases
Htt ps
watch man
Ġzip ped
Ġbig A
Ġbig Z
ĠDis allow
Single NodeList
ĠTemplate Tag
Ġlittle A
Ġlittle Z
Ġlittle Offset
ĠChri stian
ĠPl ugin
Inner Subscriber
ĠBasic SourceMapConsumer
lin ux
ĠTime out
Ġresol ution
sPer Day
Dec rypt
CSSKey frameRule
Ġinherit ed
abcdef ghijklmnopqrstuvwxyz
ĠSEM ICOLON
ĠDes criptor
Ph antom
ĠsplitTo Patterns
sock js
isE lem
crim inator
Ġhigher Order
kZW Zhd
Ġcor respon
ĠaAllow Duplicates
ĠCroiss ant
kZWZhd Wx
$ %
( \\
) ({<
, \
- ]+
0 6
2 000
D id
F ace
F lex
M any
P ause
R ES
R oute
S ome
S pacing
_ /
d ns
g reg
h ide
i em
>< /
Ġre write
ro zen
is SafeInteger
ex haust
od d
od ies
Ġp assthrough
ent ic
ed Value
Ġs m
om ething
ri end
Re g
In dic
ĠS OL
ir ing
Ġde v
ĠM onth
ĠA S
up grade
", "
Ġ{} ),
Ġwh o
ial og
[] >;<
web Socket
ĠĠĠĠĠĠĠĠĠĠĠĠĠĠĠĠ ĠĠĠĠĠ
20 29
Ġcol lect
201 3
sp ired
Spec ial
Iterable Spread
34 1
Ġdecode URIComponent
iron ments
ĠIN F
wallet connect
('. ').
cy c
Ġav ail
Read Only
xyz X
DEF INED
PO ST
Pass Through
hot mail
ĠonError ResumeNext
('| ');<
cn tr
ste vens
ĠSte vens
sat isfies
Warn ings
ĠRepresent s
josh stevens
riend ly
) '<
) (_
C URL
H alf
I M
L odash
M IX
P rint
R ad
S end
S plice
S iblings
T TER
T weet
W Buf
d ar
d rafts
f ontsize
h ack
h pack
j our
k eccak
n avigation
r ng
s For
t ate
} );
Ġ Keys
in el
en umerationValues
is Symbol
is Color
Ġc amelCase
Ġt ls
Ġ' ..
Ġo ctet
ect ors
ri ce
module Visitor
('../ ').
get UTC
In sensitive
ig r
Ġis L
Ġis Buffer
Ġis Padded
Ġto ol
Ġto Meta
ot a
ot ify
Ġ! (_
Ġnew lines
Ġun document
Ġas ap
node ify
Ġit alic
Module Metadata
Ġget F
Ġget Node
ĠR untime
ĠR IGHT
?: <
pre act
ĠF F
ĠF oreground
Ġon Rejected
Ġen umerationValues
ĠD ave
ĠW atch
test er
create HTML
Ġresult ing
Code Factory
log level
ĠH andle
Ġparse String
Ġtest Helpers
Element Type
Ġbase Property
from Entries
be ep
ID US
mit ment
Ġmatch Node
Ġadd ition
assign In
As set
Pre vent
RE QU
Iterator s
ignore d
Ġmap s
tem p
do uble
Ġle sser
max Length
Ġutil ity
Th reads
201 4
current Request
ĠV ocabulary
cord ing
instance of
ING S
Ġmake Dir
sem icolon
Ġpart ial
ĠTY PES
merge All
Ġco lored
copy Within
Ġbg Red
Ġbg White
Ġbg Green
Ġbg Yellow
Ġbg Cyan
Ġbg Magenta
ĠBase d
ĠLong ley
Ġcond itional
Ġsha pe
JSX OpeningElement
Update Chunk
TI ME
Ġworker Farm
Package Json
Ġ"\ "
ĠSh ould
ital ics
OwnMetadata Keys
Ġordinary Get
font color
ĠReport Base
ĠLE TTER
Sto red
Random Values
(?! \
ĠData View
MATCH ER
Ġconcurrent ly
ĠEC MAScript
ĠbgB lue
Leg acy
cssnanoUtilGet Arguments
('.. ');<
ĠShortcut s
ĠDot env
OB JECT
quiv a
Reduc er
PRIMIT IVES
Measure ment
CURL Y
Splice d
ĠtoMeta Key
Ġundocument ed
ĠForeground Color
/ \\
9 1
A A
B ottom
D one
H ello
M VER
M usic
P UB
S W
S ynchronously
d an
h o
p id
p rime
r m
re served
on jour
Ġre Is
at io
is Enumerable
Ġ} ];<
Ġ} ]);<
pe ar
lo s
Re maining
get ownproperty
In to
Ġis Integer
ĠT E
ĠT ry
ĠC ar
ĠS low
Ġ` '
Ġde coder
Type Name
int l
Ex clude
String Regexp
ĠB ox
Ġget Iterator
map Visit
SE MVER
index es
source Code
IN VALID
IN ARY
IN ITIAL
++ ,
OR RECT
ĠCh rome
Ġ4 9
RE AK
ĠĠĠĠĠĠĠĠĠĠĠĠĠĠĠĠ ĠĠĠĠĠĠĠĠ
tra il
tra ck
Bound ary
ee e
Match ing
Ġ'@ @
Ġoriginal Line
Ġoriginal Column
ĠWeb IDL
If rame
dot ted
]/ .
inner From
Ġqu otes
width CodePoint
ĠDOM TokenList
Trace Limit
Ġgenerated Line
Ġgenerated Column
Full widthCodePoint
select ed
Ġzip All
ĠReadable Stream
Connect ableObservable
ĠUt il
Readable Stream
Ġauthor ity
Ġfast er
ĠRaw SourceMap
Ġ'^ '
memo ize
Ġke pt
Ġrad ix
Ð¾ Ð
WithoutProperties Loose
ABCDEFGHIJKLMNOPQRSTUVWXYZ abcdefghijklmnopqrstuvwxyz
" ].
8 1
D B
F RA
F UN
H ub
H OL
H armony
S parse
S ources
Y W
a ac
c andid
g es
i add
s pl
t ics
re define
re store
Ġre factor
un signed
un install
Ġf loat
Ġc ycle
ex plicit
Ġs preadable
ab e
to Base
ri ate
able Response
Object Caches
Ġd P
() ',
Ġto Utf
key frames
ĠS c
ĠS UB
Ġde termine
ĠM ixin
St dio
Ġnode Name
ĠP AT
ĠP rimitive
ĠR end
ĠG raph
Ġex haust
Ġ/ (\
ak ing
IT OR
ĠO pen
ĠO uterSubscriber
Ġch anged
ĠD uplex
version B
create SingleNodeList
file Name
Ġcomp leted
Function Declaration
Res ize
writ ten
sub mit
Set State
Is Extensible
Ġclass CheckPrivateStaticAccess
An Event
ĠJS Doc
src Stat
Stream ing
jest Message
Test Name
Ġ}; }<
ell man
Ġ"@ @
Char acters
Ref resh
prop Name
prop riate
pend or
Offset Buffer
Request s
Ġ6 55
DE V
Prop Value
Entry Plugin
stack Frame
CH ILD
ĠEx clusive
namespace URI
Space Before
Ġ9 1
CI SION
Ġinitial ized
Min imum
Operator Subscriber
fa iled
pad End
delete Rule
Stri p
ĠIterator Prototype
200 2
part ials
Ġ"' ");<
Ġpublish Behavior
ĠTh ree
IND OW
PRE CISION
ĠTSE SLint
Mark s
Paren thesis
mer ged
msPer Second
Ġaccept ed
Ġmo cha
Ġhwb B
Ġhwb W
rel ax
ĠBabel RegExp
iph ers
Il legal
ĠNE WLINE
ĠScript Cov
Fake Timers
Ġmechan ics
Ġancest ors
Ġ214 748
ĠBrowserslist Error
aly tics
isCustom Prop
Face Rule
getUTC FullYear
jestMessage Util
) `
- +
1 00000000
< >
B atch
B REAK
P olling
Q g
c losure
f amily
h ook
k le
r fc
s b
v ote
Į Ī
on ic
Ġf inish
is object
is PlainObject
Ġp ure
Ġp ool
Ġs olana
Ġs vg
Ġb n
Ġb roken
Ġm Len
Ġm ixed
ap able
pl ate
In clude
Ġd ue
Ġd ns
Ġis File
ĠS ender
string Literal
Ġh ub
Ġg ateway
St uff
Def er
object Mode
Ġv isible
Ġlo aded
cess arily
rig ger
Ġdefault Options
ĠO ng
ĠType s
Ġ{} .
cur r
Un supported
ĠH tt
ĠH ASH
Ġes c
data Path
Ġarray Buffer
que e
Ġsub tra
Ġal loc
Ġinterface Name
Ġstart s
For Of
ong s
Ġexp r
Ġbreak s
Up load
own Keys
iler plate
Block Statement
ĠEx ample
ĠIm age
Ġper form
rx Subscriber
Ġlocal storage
Ġnormalize Options
Ġneg ate
Ġtrim Start
Ġtrim End
pb kdf
insert Before
ĠComp ile
dev net
)$/ ;<
cre ase
ffffffff ffffffff
77 7
Ġtermin ator
Pass word
lap sed
Ġcombin ed
xxxx xx
Ġresol ves
vance d
Timestamp Provider
Big Number
Ġeno ugh
unn el
there um
Ġsomet imes
ĠEnum Value
$ `)<
. ')<
. '<
3 000
> ]<
B ack
D own
E p
G en
H ellman
L mp
R GB
T eam
U ST
U sing
_ ),
` {
c amelcase
c lobber
c ipient
i w
i dent
j ust
p ascalCase
r ing
s o
v go
x modules
y d
y modules
re w
in sensitive
or ange
st icky
de tails
un y
un link
Ġf ake
is Class
is Impl
Ġrequire ObjectCoercible
it ory
ing Team
od in
Ġp ragma
Ġo paque
as ap
>} ${
ch mod
ol odin
ck ton
get Types
get Proto
Ġw rong
Ġd uration
Ġis Scheduler
() ];<
Ar ity
ĠS p
cl amped
Ġstring ReplaceAll
Ġstring EncaseCRLFWithFirstIndex
Ġl tr
ĠM od
Ġh andled
Ġg u
Ġg it
uff man
define Getter
ĠB U
ĠL INE
ĠL ayout
Ġnode ModulesPaths
up ath
ĠP O
ĠP ubkey
Ġget Next
ĠI ly
Ġv node
ly One
ĠRe moves
pre publish
ĠF irefox
ĠO P
ĠO rig
ĠD aysInYear
Ġset ter
read ing
Ġhas Unicode
Code Frame
Ġcomp ressed
Ġbase Iteratee
parse Options
pos itory
Ġmethod Name
Se p
base Iteratee
style Name
list en
Ġcolor Level
ĠChalk Class
ĠChalk Function
Ġdeclare d
Expression Statement
(/ \\
range Limit
ignore Case
ĠIs Constructor
trim med
bo ol
Ġmod ifier
This Initialized
Ġprop Name
postcss Selector
AL I
bg Color
bg Keyword
bg Hex
bg Ansi
ĠV olodin
Ġexpected Calls
ĠAn ymatch
Ġnon ce
DE ADED
Web Assembly
Ġallow ArrayLike
ĠIm mer
Ġreport WebVitals
]+ $/
Ġfix es
Ġ9 7
Add itional
ĠURL SearchParams
isObject Like
Ġtransform FromAst
Ġdelete All
ĠBase Account
Tra ck
dot dot
window s
Ġrs Astral
enc ingTeam
random Bytes
ie Hellman
ĠIN TERNAL
Ġclear Timeout
insert Rule
variable s
ensure Object
Ġemoji List
Ġemoji Cache
Ġemoji Encoding
attr Modified
Orig inal
ĠAl gorithm
Ġmkdirp Native
nan omatch
Connect ed
ĠKey pair
Look ups
Ġlocate Options
yp ot
Loop s
Ġdecor ate
Within Year
pretty Format
Main TemplatePlugin
Box Role
Month FromTime
Ġblack ness
Ġsubstring Length
Ġsim ilar
Ġcompact able
Diff ieHellman
ĠtoRegex Range
origin Module
coming Message
ĠMark er
Ġcompat ible
Ma de
DIS ABLE
ĠbaseGet Tag
ĠmkdirpManual Sync
Ġcluster ApiUrl
Ġbl ake
ĠBackground Color
Exact lyOne
ĠHex adecimal
Ġrecogn izer
ĠPrint s
removeAll Listeners
ĠordinaryHas OwnMetadata
Der ived
Gre y
got CR
Ġlf Index
ĠFAIL S
ĠSOL IDUS
quiva lent
CURLY BRACKET
ĠRend ition
ĠGraph ic
Marks Range
Lmp zI
ĠIly a
postcssSelector Parser
/ ',
0 7
0 8
3 00
E l
H ooks
M o
M ismatch
W ARN
] \\
b H
b os
s ass
| |
Ñ ĭ
Ġ ./
Ġ et
re stricted
ro utes
un ref
is or
is ub
is Equal
Ġ' =
Ġ' //
Ġ' )<
ce ed
Ġs ig
Ġs ilent
ch uk
ol ume
Re ason
Ġd ash
Ġis Identifier
Ġis Negative
ĠT J
ĠC ount
ĠS tr
ĠS tri
cl amp
Ġde precation
int ain
ĠL EN
To E
ĠI tem
Ġe ver
ime Type
bserv ed
URL SearchParams
sh am
ay chuk
low aychuk
Code s
Un able
log y
Ġparse Url
Ġtest ed
class Static
ĠIn v
word list
ĠPromise s
col l
LE TE
Event Handler
Ġmatch ers
"] )(
ref er
Ġproperty Name
Ġerr no
Ġdescriptor s
Ġdis pose
Ġk nown
ĠMap ped
OP EN
Ġallow ing
Ġ'/ '<
NUM BER
Ġuser s
ĠUn iversal
Ġconcat All
ĠIN VALID
full width
neg ate
zip All
command s
ĠComp are
COM MENT
PRE C
curs ively
CodePoint s
ĠNot ification
mkdirs Sync
ĠHo lowaychuk
Dec imal
Ġbackslash es
Dot s
Water Mark
ench mark
Ġweek days
ĠTimeout Error
igr ations
5 4
: /
; [
> *
> /
? ${<
A uth
B ad
C amelCase
D ER
E m
E OL
H oist
I t
M R
R en
T Event
U g
W ITH
X HR
b num
l si
m ix
o ctet
s ig
s ite
s preadable
s iblings
t x
| ${
Â §
Ġ Q
re serve
er ase
en sible
is Mixin
pe t
str Node
Ġp ayer
== ':<
>} ();<
>} |${
Ġb num
ic ss
Ġa udit
Re mote
ext ensible
Ġd raft
Ġis For
Ġis Native
Ġis Directory
ĠT able
Ġto Hex
Ġto Comparator
ĠS ome
De clarations
Ġan notation
Ġ` )?)?
Ġun necessary
ĠM OD
Ġg tr
ĠA uth
ĠA wait
String Index
Ġget Symbol
To Length
ĠN esting
Ġr sort
map s
Ġcom m
ĠO bserver
has AttributeNS
ĠW ith
ĠW indow
cur ly
Un iq
Element ById
Res olution
ant ed
Ġsh uffle
File Deprecation
Ġmethod Names
11 55
quest ion
ST ATE
Set s
AT IN
Is NaN
Ġresolve Url
not es
Ġsub scription
Ġal t
[" @@
ĠPromise Like
open ing
token Types
SS IGN
Ġlist ed
Ġvalid Range
jest Snapshot
context s
LO AD
Pre lude
work ers
Ġap plic
ĠCom binator
Get Method
ĠĠĠĠĠĠĠĠĠĠĠĠĠĠĠĠ ĠĠĠĠĠĠĠĠĠĠ
Ġmin ver
Ġline break
Ġcompare Loose
Message Listeners
PR OPER
End Index
Assert ions
ĠEvent Interface
Ġbrowser Sync
Ġtypes cript
Col on
case s
ĠRange Cov
Ġemit ted
Ġdesc s
ĠWeb Assembly
]* (${
Ġpkg Dir
Ġcustom MessageListeners
Export Map
ock er
Ġ'" ');<
Const ant
ĠAsync Generator
]}) ?${<
Ġ'. ';<
Non Interactive
]} |
]} $`)<
Red u
Ġinter val
âĢ Ŀ
COM PARATOR
lu Z
Ġ'{ '
Found Error
xD C
Browser slist
Ġim age
Local Name
Ġyield s
lookup Getter
Ġdif ference
switch Map
termin ate
xe f
Replace ments
EC MAScript
lab L
([] );<
Ġlch C
Ġlch H
ĠRaw Source
Ġexact ly
Ġspawn ed
]}? `
]}? `)<
]}? ${<
vance StringIndex
yb i
ĠMy ers
iph y
ĠSEM VER
We i
toRegex Range
Ġrcompare Identifiers
mock s
|\\* `)<
Font FaceRule
relax Zeros
Ġ214748 364
ĠtoComparator s
Ġ`)?)? `)<
$ )/
) ]);<
< |
C alc
E E
F s
I ME
M ust
S ent
S ER
] ]);<
g iphy
h andlers
i ol
n od
s a
t emplates
x ffff
y es
re fs
on Change
se ssions
un set
is Scheduler
Ġc amel
Ġ( -
(' :
port s
ul k
am ing
Ġb lob
Ġb ump
Ġm ock
Ġm illiseconds
om ep
function Name
ad ded
get First
pro ved
Ġis Type
() {
Ġto ols
Ġstrict ly
ĠS witch
ot al
De precated
con current
Ġ[ ])
Ġg ive
Con tinue
Ġget Package
Ġ/ \\(
ĠRe gular
pre d
ance led
ĠW rapper
sh uffle
\\ \\/
jo bs
Ġbase Url
vi de
class ExtractFieldDescriptor
Ġat ob
ĠCh ain
ĠIn voke
Iter ation
buffer Size
]) *
PE MD
Ġread er
ref resh
Ġap pear
Ġac ross
12 3456789
Sh aredArrayBuffer
ĠEvent Source
Ġignore Case
ĠHTML Collection
Text Decoder
xA B
ĠWeb Kit
mult iple
Custom Error
Ġcommand s
part ition
ĠcharCode At
ĠSE TT
iterate e
cons istent
uD FFF
Ġsystem Program
75 4
95 2
classPrivate Method
Ġinject ing
ĠMatch es
ĠcreateError Class
IF Y
cyc le
ĠTE MP
classStatic Private
omep age
" '
) ');<
> ]
A lice
A BaseURL
B l
B ranch
C OU
D rain
K ill
P at
P atch
P np
S rc
W rong
X MLHttpRequest
Y allist
f ree
g ines
h ind
i object
j asmine
m enu
t ZX
u dd
x FFFF
in to
in correct
or ns
de eper
ion al
se en
en umer
is Null
is TrailingSurrogate
is LeadingSurrogate
ur r
Ġ} ());<
Ġ' ='
Ġ* =
ce ll
as n
am ma
ent icate
et ime
ter y
im ul
per cent
Ġm xn
ic orns
get Last
get Decls
Ġd im
Ġd uplicates
Ġis Descriptor
Ġis Promise
Ġis Strict
Ġis Accessor
Ġto IObject
js Default
ass oc
Ġde bounce
Ġstring ToArray
ĠM ethod
define property
Ġobj ToString
ĠB utton
ĠL A
ĠL ink
ĠL ann
ĠL ATIN
Module Dependency
Ġget Data
To Pattern
__ ';<
map per
Ġse n
pre processor
ĠO ut
ĠD raft
ĠW alker
sh ams
add Helper
create List
Ġpre pare
Index Map
bug s
Ġglobal Names
dis pose
ĠIn s
ity State
Par sing
AT ER
assert Literal
Ġ201 0
Token Account
Ġlog s
Ġvalid ating
Valid Schema
Ġread ing
As cending
Ġmax Length
Ġerr s
ĠJ est
Ġmap per
ĠIs GenericDescriptor
concat All
cache Keys
Ġlast Node
wh at
Be ABaseURL
Request Options
ĠY arn
Ġro uter
bit Offset
Ġcopy URL
generate Uid
ld s
Point s
ide o
Account Number
And Columns
warn FileDeprecation
transform ation
'. `);<
ĠSource Node
Prefix ed
Ġexec a
Al loc
ĠX RANGE
ĠSe ction
Ġassign ed
Document Rule
Ġbit Length
Ġ12 8
Ġq mark
Internal State
Ġlab L
ĠList Cache
gu ess
ĠAl ign
spdy State
Hour s
ĠDis crError
lookup Setter
OptionsMapper Factory
Ġflatten IntoArray
ĠKey Pair
]| [
Ġ(/^ (
ĠPR ERELEASE
Ġprodu cers
Bracket s
zz zz
NE WLINE
Ġpop ulate
Button Role
Do uble
visit ed
ele ms
Ġconsume Raw
high light
leg ated
ĠEmitter y
compress or
']) ('
Ġpreprocess ors
trunc ate
Ġce il
Av ailable
Ġmanipulate Options
Ġhoist ed
ĠConcat Source
Ġtool ing
ALI AS
ĠAwait Value
ĠLann ister
( ++
* (\
5 3
7 1
> )<
B LA
C b
C andid
E A
G U
S calar
T RI
T ypography
U SE
U UID
b r
e f
g ulp
n avigator
r r
x b
y te
} ));<
} |\
Ġ UR
Ġ Indexed
in ject
ar ity
at tach
is Server
if er
ce eded
ent r
Ġs ing
im its
Ġb order
Ġstr ong
um od
to ISOString
Ġa jax
Ġin correct
Ġin crease
Ġis ASCII
Ġ| <
ĠS Y
ir y
Ġtype Annotation
Ġh r
)) (
als y
ĠA L
Ġsource Root
Ġe v
ĠN ext
ak ra
Ġen gine
Ġch oices
Ġset To
test Path
Ġhas Un
Un signed
Un handled
ib yte
Ġcomp iled
mo val
At trib
[] }<
Ġerror Object
quest ions
An not
Ġadd ing
Or dered
(/ %
Get OwnProperty
cond itional
Message Deflate
Ġwhen ever
common js
exp anded
ĠSub scribable
stop s
99 9
Ġmerge All
Dis patch
Filter s
dot env
ie ce
Ġpass ing
Parse d
produ ct
Over flow
Glob als
section s
Ġevery thing
Ġstyles heet
Ġent ities
cap turing
Ġcapt ures
Sc roll
inf late
ĠClient Session
Ġ'ðŁ ĮĪ
ĠChar acter
issue comment
Ġpers ist
ĠEnd Error
ĠInner Subscriber
('= ');<
ĠStat s
) ';<
) ')<
9 6
= %
C LE
C ause
D F
F resh
H J
I p
M icrotask
P U
Q k
Z mF
a ug
a led
b ign
b etween
d ark
g OPN
h ypot
m yst
n yc
n ormalized
o bserver
p ense
s afer
u ish
x Type
x tensible
Ð ¸
Ñ ĥ
Ġ question
al ph
Ġre initialize
de legate
se l
un expected
Ġf all
Ġf round
Ġf inished
Ġc yclic
Ġ' â
lo ss
ab v
Re gular
In strument
Ġis Data
Ġis Stream
Ġis Primitive
inter active
ĠC ast
Ġconst ant
Ġ` /
par sing
Ġstring Length
Ġl ifecycle
Ġun iq
Ġun evaluated
ĠM ill
ĠM ember
ĠM igrations
com parison
end ant
Ġh orizontal
Map ped
us pense
ĠP attern
ĠP rompt
ĠR oute
To Bytes
Ġe os
error Message
ise xtensible
oc used
ly ing
Ġex ceptions
call Expression
pre p
pre pend
Ġdefault Is
ĠO ld
SE VENT
URL Prefix
ĠW arning
ĠE SD
[] ,<
Ġsh allow
Ġx ml
global Names
base State
Ġsub tags
min ipass
Ġ4 7
loc ations
Case First
FI LEN
Ġ"./ _
foo bar
stream ify
Ġread y
Config urable
Pre cacheController
Ġend Line
Ġend Offset
Promise Then
Ġac orn
Context Dependency
Ġlen s
Ġup grade
Ġmin Len
CSS FontFaceRule
ĠK arma
Th an
Dir s
Scope s
exp r
sent inel
Ġret v
Parser Helpers
Ġfind Made
DE X
sign als
Literal PropValue
stack TraceLimit
Ġescape Pos
first Arg
Ġ!! (
Ġreport ers
Encod ings
Str ong
Ġdef Func
\. |\
ĠNew Thing
Prefix Of
Ġ') *))
Ġnative Keys
with in
ĠIterator Next
ĠIterator Complete
)/ );<
Document Type
ĠDo ctrine
Ġraw s
Ġstrip ped
PAR E
Ġred undant
same ObjectCaches
Ġflat Map
29 4
ĠCall Expression
Ġrelative Path
tap Async
Ent ities
serialize Context
hsl a
ĠJson p
gre y
Package Data
ĠScope Manager
Ġslash es
ferred Name
LU SH
Connect or
ffffffff ffff
Webpack Error
App le
Ġcompletion Thunk
ĠAnySchema Object
Ġexecut able
Comma Lists
ĠFind Position
ĠWorkbox Error
ĠWorkbox Plugin
ĠLo ader
ĠInit ial
completion Thunk
Named Declaration
icate a
inf ra
('| ')
ĠValidate AndApplyPropertyDescriptor
Cached Lookups
Ġbund le
FIL TER
DO CUMENT
Ġ'(?:\\. '
findLast Index
cannot BeABaseURL
aste Map
bund le
lify JS
Rl ZmF
Ġaffect ing
Ġassum ing
Every Prop
Ġsymlink Type
Substitution Transformer
Based Transport
iet f
FlowFile Annotation
uny code
myst icatea
Ġreinitialize URL
ĠESD oc
Ġ')*)) '<
" ><
' .<
( .
/ ^
2 34
5 2
8 4
9 64
A ctive
B o
B om
D if
D ocker
P ipe
Q W
S UB
] ();<
] >;<
f iler
f raction
g win
r ames
s ys
u ck
re al
er n
or dered
Ġre cursively
se quent
Ġf p
is Iterable
Ġc over
Ġ( /*
Ġ} )(
Ġ' ).
Ġ' '),
Ġth rottle
Ġs dk
per message
ab i
ut ed
to ol
to Throw
') ),
tr ansaction
ap pen
get RandomValues
Ġw orld
Ġd angerous
op s
ĠT ra
ĠS ch
ĠS im
ĠS em
Ġ` [${
Ġl odash
ĠM enu
Ġh appen
00 9
ĠL odash
Ġget Path
Ġkey len
ĠF ast
ĠO ne
ĠD ER
Exp lorer
Un ique
ĠH ow
Ġarray Includes
from Promise
Res olved
11 00
head ing
token ize
te ction
Ġread Pkg
Ġap plied
Ġdebug ger
Async Scheduler
Base line
Ġ/^ [\
}` ,
Ġwork around
Ġweb Socket
Ġimport ant
Ġrgb a
present ation
Ġ'\\ \\
getOwnPropertyDescriptor s
Child Process
Ġdef s
Global Scope
ĠAsync Subject
ĠX ML
clone Deep
ĠDe cor
00000000 0000
ĠPre vious
Ġbind Callback
ESC A
Ġbo ol
Ġpublish Last
cy gwin
ĠAc cept
Ġproxy Req
ĠJson Object
Word Array
WebSocket Subject
Ġhost name
ĠHash er
ĠSign ature
append Child
tom l
}: ${
pol ling
ĠProgram Result
lin ed
del imiter
]+/ ,
gif s
Ġcancel able
Ġmkdirs Sync
dum b
Ġrev Lookup
ĠFUN CTION
Qual ity
Ġmat rix
sk ips
}\`` );<
uFF FD
PUB KEY
ĠHtt p
ĠLEN GTH
nod oc
COU NT
( /*
* )?
* +?
1 0101
; ':
> ():
A W
E I
F ore
F ramer
F LUSH
G IN
S ample
T ri
V z
W INDOW
X J
] '
_ ));<
a j
d ates
g ist
i ag
m ur
m ount
m ish
n ip
p np
s ap
v node
v ector
Ø ±
á ģ
Ġ QU
Ġ Err
re moves
re levant
al gorithms
Ġre load
ex istent
Ġ} ]<
an it
Ġn il
as sets
../ ../
Ġb usyTries
Ġm im
Ġin exact
Re moved
get Tag
get ElementById
Object Create
Ġis Last
Ġis Escaped
Ġto PropertyKey
Ġto Exec
Ġto Copy
De vice
Property Name
Ġl int
res ses
define Setter
Ġget Time
Ġbe aut
os m
ĠR om
EN OT
ĠN ative
Key Type
Ġnumber Of
Ġnot ification
ĠD om
ĠD istributed
ĠU ser
Ġmodule Directory
read Pkg
dir s
Ġhas ToStringTag
tern ally
Un icorn
Com mitment
ĠThe re
Ġarray SpeciesCreate
Ġ3 60
Index String
parse Color
class CheckPrivateStaticAccess
helper Create
List Map
Se verity
Ġx Type
Ġsuper PropBase
Equal ity
Is Strict
led ge
Ġconstructor s
min imum
Event Payload
Ġstart Time
message Parent
Ġlog Fn
Ġcheck PrivateRedeclaration
jest Regex
Ġread Wasm
Config Path
Pre sent
Pre serve
Pre vious
Ġap propriate
Ġmap Cache
child Nodes
Ġprivate Set
max imum
Ġmin ify
CSS StyleSheet
CSS DocumentRule
ccur rence
Ġpromise Capability
escape Invalid
ĠEvent Impl
DE LETE
SD IR
Var iation
Ġcopy Object
generated Code
Generator Fn
very Param
Ġparsed URL
Return Type
schema Code
sp ans
mod ify
Iterable s
Ġregex ps
Ġoriginal Source
AB EL
TypedArray Constructor
Ġinvalid Node
Ġglob by
Al pha
Ġsingle Quote
Ġreference d
search String
strip Comments
ĠIterator Value
ĠIterator Step
Ġrs Opt
Ġcre ation
áĢ º
Ġsearch Element
Expect ation
Ġsort ing
walk er
walk Decls
Parse Int
Implement ation
Decoder Buffer
tap able
dep loy
tree Adapter
resh old
publish Last
publish Behavior
always ValidSchema
ital ic
absolute Start
Ġ'../../../ __
Fix ture
seg ment
NOT E
ĠPl us
realpath Err
Ġdouble Quote
ĠCOM PARE
Ġdecor ated
Ġobservable s
ĠisW sl
Wasm Url
Numeric IndexString
ĠDO CUMENT
maybe Resize
Js Data
SV AR
ĠAjax BasedTransport
Ġinstruction s
Assignment Expression
Ġcompute WorkerKey
ĠFirst Type
Percent Encode
onF ulfilled
ĠiterableToArray Limit
additional Keys
Hidden Level
Encoded Len
Ġparen theses
tostring tag
Enum Value
ĠFlow TypeAnnotation
onical NumericIndexString
;; \
ĠarrayMethod IsStrict
XRANGEPLAIN LOOSE
ĠLEFT PARENTHESIS
DI FF
ĠIP v
ĠKEY S
ĠgetMap Data
Features Plugin
Ġta pe
MARK ER
ĠcreateIterator Proxy
Ġlar ge
flight Commitment
Constraint Validation
nake Case
ebab Case
LIN K
GT LT
$% &
ĠMonth FromTime
candid ate
Ug lifyJS
ĠIns pector
generateUid Identifier
Qk FB
bign umber
ĠMember Expression
EI SDIR
mish oo
nip pet
jestRegex Util
. $
2 12
9 3
? !
A ware
C ES
E sc
F older
L at
O ther
S P
S can
T otal
W p
[ (
\ `,
c opyright
d z
l c
q mark
r ate
} ><
Ñ Ī
Ġ ed
Ġ{ '
un stable
Ġf ew
is array
Ġp ast
Ġp ixel
as ons
am ps
am ports
ch akra
Ġb ottom
Ġb etter
Ġm argin
ut ny
Ġ" !
Ġ" >
Ġin crement
ver bose
In comingMessage
id iem
Ġis Error
Ġis Block
ĠS ince
ĠS IGN
ĠS omething
est amps
ot ed
set State
Ġun shift
Ġun pipe
ĠM E
ĠM ar
com mit
end ian
Ġh our
Ġh old
Ġg ray
)) ,<
Ġres pect
ind utny
Ġget String
ĠN ULL
Ġv ectors
map To
.. .<
Ġdefault Encoding
ance ll
Ġfile Name
\\ +
from Red
bind Callback
red S
throw ArgumentError
ĠCh ild
Is Finite
Ġ4 43
Ġunder lying
Ġne cessarily
tem poral
Ġab sent
ĠNode List
Async Action
20 3
Schema UtilErrorObject
Message Type
Th read
201 1
Sh im
The re
Ġ6 5
Ġreplace ments
other Dir
Ġpublic Path
Ġjs hint
validate Options
encode URIComponent
Ġ'" ')<
Ġload ing
25 0
search Element
Ġinv oc
Tim estamps
Ġbyte Length
Ġqu ick
Subscription Log
fr amer
Ġfull y
por ary
Ġoper ating
**************************************************************** ****
Ġiss ues
absolute Path
Ġselect ed
Connection Provider
trans late
(?:\ {
bl ake
final ized
Same Line
Ġmut able
Ġexecut or
Ġsources Content
JECT ED
Ġserial ized
ĠOver rides
Ġoptim izations
ĠDes cription
Dom ain
(?= \
td z
ĠdistinctUntil Changed
ulfill ment
ĠExt end
COD ES
Ġgr anted
ĠSc roll
Stuff Off
Ġhr time
Wp Opt
" ==
& #
4 70
4 294
9 4
> `;<
D irectories
E MPTY
J B
J avascript
M ATION
P op
P asses
P rime
R U
S l
S ong
S vgo
T ODO
T emplates
V ocabularies
W EB
a que
b all
d XJ
k ill
k Join
o logy
p arens
r bu
r zy
s Config
s inh
s pacing
u er
u FE
v able
w m
} }`,<
Ñ Ģ
re gExp
or sh
Ġre jection
de em
se ud
is Export
is Rejected
(' !');<
an ks
str ikethrough
if ies
Ġp riv
Ġp oll
Ġs cheme
ch dir
ch rome
ch oices
ab ly
Ġ" );<
Ġ" ..
ic le
to Reversed
Re generator
get AttributeValue
Ġw atcher
Ġis Date
Ġis Core
op aque
Ġto ISOString
ĠC atch
ĠS PE
set AttributeNS
Ġ[ ];
par allel
Ġst uff
Ġl ame
res ol
Ġh it
Ex tra
ĠB B
up load
Ġget File
Ġget Word
Ġnull Stream
ĠR OT
Ġe val
Ġr ng
ĠRe cursive
Ġse l
Ġor dered
ĠF S
ĠF arm
ĠO ffset
ies Constructor
Ġset Proto
ĠU sing
ca de
sh ell
next Sibling
ĠE V
create Server
Ġhas Prop
Ġhas EveryProp
Ġext s
ĠH ack
Ġtest Code
Ġcreate Writable
ac orn
declare d
Im proved
Number Value
At Level
Ġsh ell
Ġerror Ex
red it
Ġglobal Config
lock s
dis criminator
ĠIn fo
Data Size
only First
Arg Array
Is In
base dir
base Url
Ġal pha
Ġ4 5
Ġstart Line
apply Options
Ġpos itions
Ġurl Utils
assign ment
For age
ĠJ ayson
Sub tag
ĠĠĠĠĠĠĠĠĠĠĠĠĠĠĠĠ ĠĠĠĠ
Ġ5 3
CSS Value
ĠK at
Up grade
tag ged
12 7
12 34
Scope Manager
>/* #__
Ġenumerable Only
Ġwrap Width
ĠSt ate
Script s
Ġfind Index
ĠSet s
AN GE
Selector List
Wh itelist
UL ES
ĠFunction Cov
Ġmeta Schema
stack overflow
Spec s
ĠIf rame
Inter section
IL L
Ġcount Nines
And Map
Ġ'\\ ')
Mode s
Ġglob Tasks
Global Config
Import ed
Ġ'" '.
ĠReact DOM
Ġ'< /
late st
pop ulate
ĠUn ary
Ġassign ments
Ġraw Mode
Ġcre ator
Ġsp ies
Ġenc rypt
Parse Error
Sign als
IG IT
DOM String
Ġseg ments
Ġhsl H
ws api
Ġwidth s
Plain Function
uc s
havior Subject
subscribe On
ĠScheduler Action
dec rypt
ĠClass Name
INF INITY
Ġcalls ites
ĠMin utesPerHour
Mult iple
toBe The
Webpack Options
mis c
Latest From
Handle Type
Ġdec imal
Any Prop
Ġindent ation
Ġ"/ ".
ĠSecond sPerMinute
ĠReport er
Ġseparator s
Ġhigh light
Ġdelta Bytes
cd n
Ġmemo ize
ĠAction Store
Ġorigin Module
Ġ]) )<
istanbul js
Ġcompress or
Ġpx Pos
ĠTransaction Request
ĠValidate Function
git ignore
Character Class
Ġ"\\ ".
isNative ReflectConstruct
('.') [
Grid Gap
We ight
ĠElement Node
Ġ-------------------------------- -<
ĠStack Frame
Produ ct
ĠJSXElement Mock
ĠdistinctUntil KeyChanged
Ġtar ball
Ġspecifier Value
Hand shake
Ġ"+ ".
ĠBe haviorSubject
Contain ing
POSIT ION
activ ate
Ġinspector Log
DevTool Module
ĠSlow Buffer
Stdio Stream
guess HandleType
anit ize
Ġbeaut ifier
osm iconfig
ENOT DIR
******************************************************************** *<
rbu ckton
uFE FF
seud os
ĠcreateWritable StdioStream
- ][
> `
? =?
A F
F ork
H andled
I RE
L Y
N ote
N ormalized
] ():
] |\
b semver
c ise
f un
g m
h istory
m g
m time
p i
Ġ Define
in vert
ro ck
is H
is Promise
is Block
is Win
ex ternal
(' {
pe ated
Ġt akes
Ġt uple
Ġ' ));<
Ġ' ]',<
Ġ' ((?:
Ġn a
Ġp otential
Ġb toa
Ġb odies
om ic
Re fs
Re write
ser v
pl ural
get Text
Ġw ave
In Buffer
pro file
Ġfrom Entries
ĠS to
Ġ1 0000
Ġg as
prototype of
ĠA xios
ĠB OM
ĠL ook
der score
ĠP ack
Ġget Program
ĠR outer
ma Wx
Ġv irtual
Ġv ote
ĠU SE
fe b
ĠW EB
Ġobject Types
Ġpre sets
ĠH e
ĠH yphen
\\ ])/
Mapping List
line Number
over lay
11 6
ĠIn valid
Ġx Range
Ġal gorithms
16 5
pack ages
Ġtoken izing
Ġ4 3
Stream s
Or Promise
=" ./
bo th
Ġdis posable
tag Name
ces ses
Ġem its
ĠPro to
>) ?=?
apt ure
Qu otes
UL FIL
Ġ'/ ')
]+ ?
Comp ress
)? (\
ĠNew line
Ġhandle s
ĠAdd ing
member Expression
Ġinter faces
ĠWork space
Report Error
ĠCall Overrides
inst alled
ĠExp ressions
.* "
Second s
imal istic
ĠgetOwnProperty Names
uD C
mis sion
Ġtraverse d
coer ced
eq l
Ġexecut ing
)(?: [
Ġident ifer
ĠMapping List
Display Name
UP D
PROTO TYPE
Ġfmt Short
Ġfmt Long
Ġcr ash
ĠAS CII
Ġsubtra ction
<| >)?=?
ĠTEMP LATE
Candid ates
Ġ'((?: <|>)?=?
ULFIL LED
! @
" |"
) ("
- ####
7 8
9 7
= <
C ast
C ard
C ALL
C ounter
D im
D iv
D uplicate
E T
L i
M OV
M ixins
R et
T odo
U JB
Z lib
Z yb
[ /\\
a el
a vid
b ird
b iJ
b uffered
e ping
f A
f an
f all
f ocused
g po
h ance
i ann
i Term
l cy
l ittle
m js
m ascript
n Bits
t IC
t ick
t odo
w es
x term
Õ §
Ġ Ar
Ġ qual
Ġ ....
re v
re co
re base
re placer
on gest
in c
in ess
in strument
or ig
ar ies
Ġre achable
un ary
is Prototype
is Arguments
an alyze
Ġn s
Ġn th
Ġp lease
Ġo ctal
Ġs uggest
Ġs napshot
Ġs ynchronous
im ist
Ġb az
Ġb Lines
Ġm on
Ġm icromatch
ab yl
Ġ" ",<
Ġ" (".
Ġa xios
Ġw riter
In verter
Ġd ay
inter polate
Ġto wards
Ġto CharacterClass
/** *********************************************************************<
ĠC ancel
ĠS ort
Ġde pend
Type Scope
Ġun less
Ġun installed
ĠM ost
ist ered
let on
Ġfalse Func
ym metric
ĠL AST
Module NotFoundError
array Buffer
Con secutive
ĠP rivate
ĠP END
ĠP ascalCase
Ġget Tag
Ġget Types
Ġget Holder
To Promise
To Exponential
To Bottom
Key Pair
Ġdata View
Ġr sv
Ġv ector
Ġnot e
Ġnot Pred
Ġse parated
Ġon CustomMessage
ec mascript
Ġset State
Ġset Parser
Ġset tle
ON E
Ġname Or
ip v
Class List
Class Declaration
ifi able
comp let
Ġuse Memo
Ġcreate Property
Ġcreate Agent
IC T
from Directory
mo ver
Ġfunc s
Ġsh am
Observable Input
pos itives
List Cache
Ġfa ctories
sec p
Ġx s
ĠCon verter
... .<
base Property
base ForOwn
From Constructor
Ġsub patterns
min imalistic
16 80
ĠPromise Value
Ġ4 0
Ġnext Tick
SS A
RA D
date part
Ġcheck sum
Or ArgArray
As ap
10 32
rule Name
Promise Capability
ĠJ TD
tc biJ
do g
Get Intrinsic
Ġshould Throw
concat Map
Base WorkerPool
max Len
Ġrange ToPattern
Ġup load
Ġup vote
Ġcompare fn
>/* :
ynt act
Ġonly Negative
du plic
Math Operation
escape s
On SameLine
ĠV AL
ĠV isitor
Ġoutput Bits
apt ed
Fn s
ĠFunction s
Lower case
Ġstatic From
Ġover flow
Ġescape StringRegexp
ĠUsed Names
fer oss
first Loc
Ġclose Parentheses
Ġopen Parentheses
BigInt s
Chunk Group
Ġfilter s
stop ped
\. (
Ġdecl s
copy Props
Ġ'" ')
Query List
Ġhere by
print ln
ĠValid ates
}} '
UN ZIP
Ġinter section
Worker Threads
mut ed
Ġ"' ".
.... ....<
field s
insert Cloned
DOM Exception
neg atives
TI SSA
Ġpack ed
QU F
Read only
Ġpad Zeros
break Loc
Ġim mutable
Host Rule
Jz tcbiJ
Html Char
Foo Bar
Snapshot s
Short String
df Q
toBe AtLevel
Ġprotocol s
Ġcalc ulator
Access ible
termin al
Filename Helpers
Ġ"- ".
ĠWh itespaces
NE CT
ĠCOM MA
Ġwhitespace Pos
rsv p
sect ed
Ġ". ".
ĠQueue Scheduler
Ġcast Slice
Ġdiv isor
)(?: \
ĠContract Factory
room s
Ġtem porary
ĠWebSocket Subject
met ic
imationFrame Scheduler
ĠAb ort
Variables From
Ġ": ".
Ġcondition ally
Ġcompute Hmac
Ġmonths Short
Ġcompat ibility
Ġbund led
Ġ/(?: ^|
comma Lists
LCJ maWx
Environment VariablesFrom
DOT S
ĠsplitTo Ranges
excluded Items
without Index
Await Value
gop d
ĠHour sPerDay
bf j
Ġ", ".
ĠLiteral Union
Ġshare Replay
Ġ") ".
Ġ"* ".
VIS ITOR
CodePath Segment
ĠExtra ctor
MAN TISSA
babelPlugin Polyfill
ĠAg gregateError
Nv dXJ
baseGet Tag
hack s
ho ek
abe led
ĠgetNext Token
ĠSETT INGS
ccurrence Order
ĠME TA
IsIn NvdXJ
ĠKat z
UJB QW
iann ess
lcy I
wes ome
Ġ.... ....
abyl on
ĠsetParser Name
ĠnameOr Node
JztcbiJ dfQ
LCJmaWx l
IsInNvdXJ j
# <
# [
$ )
( ~
) [^\\
7 21
B O
C RE
M ill
O perations
P refer
R oun
W ill
a de
d ash
e h
f ollow
g ol
h ad
i rock
s uccess
u ke
z lo
Ð ¹
Ġ est
re moved
st and
th et
al ity
al iases
Ġre li
Ġre mainder
ro id
un ded
is Supported
is Odd
Ġc lock
Ġc enter
pe ed
// <
Ġs chemas
Ġm iddle
Ġin fer
id ar
Ġis FullwidthCodePoint
ge ther
ĠC B
ĠS ing
Ġan sw
ĠM A
ĠM IME
)) )<
Ex ample
ĠA ssign
array WithoutHoles
ĠP h
ĠI ERC
ĠN ina
ĠF ULFILLED
ĠD OUBLE
ĠE E
IN DEX
[] .
[] >
over rides
Ch alk
sub scription
sec retKey
Ġsub type
property Name
Ġevent Names
Ġcolor Convert
ok idar
Or Value
Ġwrit ing
Ġwrit ten
Async Iterable
Ġmin Version
Th rottle
Ġk ill
Gener ate
wrap Native
Ġem ail
000 9
super PropBase
Ġro uted
AN Y
SD K
ific ations
exec a
Text Content
Text Encoder
Ġast Util
ipe md
gistr ation
yn thet
Ġafter Glob
Timeout Error
Ġ'- ')
)? '
]* ?
Ġ(' '
check PrivateRedeclaration
Min imatch
Dis posed
Ġnative Min
)/ .
ĠDe c
Ġqu eries
ĠRE JECTED
Out going
ĠIN TER
reject ed
Ġclient s
Ġim mediate
subscribe ToResult
Ġent ire
Ġprevious ly
trans parent
Cipher iv
Ġdecor ator
Ġwatch ing
under score
Ġident ical
Ġverify ENOENT
ĠPer MessageDeflate
Ġsubscribe ToResult
ĠWord Array
Ġdefer red
readdir Sync
True Color
isNative Function
symlink Type
symlink Paths
ĠCl one
leading Comments
ĠFUN C
Decipher iv
Direct ive
Ġretri e
ĠWrite Stream
Ġdetermin ed
tinu ation
ancell ation
ĠHe ader
Roun ded
zlo irock
wrapNative Super
" "
" '<
' [
) (<
* \/
- @@
: *<
< {<
? (
A ux
A MES
B ABEL
C O
C md
C ors
C WD
D etect
D isting
E valuate
F it
H ref
H asteMap
I FT
M emory
O uter
P LU
S ide
S OURCE
U x
V Node
_ );<
a cosh
c uL
h c
i Pos
l statSync
m cm
m agic
p ri
p otential
s ri
w ast
Â ł
Ġ he
ľ âĶĢâĶĢ
re commended
in ed
at Rule
en gth
un def
un pipe
un evaluated
Ġf ont
Ġf iring
is Digit
ex ponent
ing Point
Ġ_ `{
Ġs ch
Ġs ong
Ġs qrt
im mediate
lo table
Ġfunction Names
Ġm uch
ut ing
Ġ" }
Ġ" ",
Ġ" "<
Ġ" {{
om it
') ()<
Re set
Pro posal
tr c
ap ing
get Function
get Scope
get Symbols
pro cessed
Ġd istribute
id y
(" "),
Ġis F
Ġis TrailingSurrogate
Ġis LeadingSurrogate
Ġis Extglob
() >
ĠT W
ĠC amelCase
ĠS OLANA
default Init
cl z
Error Callbacks
con tract
Ġnew Chunk
arg er
row ly
Ġun ary
Ġun handled
string ifier
com bineAll
Ġi o
end Emitted
Ġh ard
Ġas set
ĠB reak
ĠL int
ĠL eg
ĠL ength
Module Ids
Ġget Error
Ġkey pair
ĠR and
li ving
To Path
ĠG MT
call Result
ak er
Ġse verity
Ġdefault Props
Ġdefault IfEmpty
ĠF IL
ĠD IS
ance st
ca ption
add Space
create Require
create Super
create ReadStream
Node Name
Node Interop
ping s
Ġhas AnyProp
Ġpre p
Un its
Com binedStream
no st
Ġy aml
([ _
red irect
ENT RY
ĠCh ris
Se aled
ST OP
replace ments
global This
Ġany way
Ġparent Process
start Line
style hacks
From Fixture
ĠUse ful
pon der
try Catch
Ġtoken Type
LE T
Ġnext Code
"] ),
Token OnSameLine
Ġlog Level
Valid ity
jest Config
jest Get
Ġread FileSync
For Statement
As Id
(/ \\/
Ġspec iesConstructor
Pre ference
RE E
Ġmax Concurrent
sc iPos
split StringTransformer
max SafeInteger
max Loops
should Update
Ġcache Data
Ġcache Babel
Ġcache NodeInterop
cept ors
Ġprop Types
Ġcl ause
ĉĉĉĉ ĉĉĉ
exp ress
remove Child
AL LOW
wrap RegExp
current Node
Script Cov
rint f
Col lapsed
bit map
JSON File
content s
Empty Error
Literal Union
Ġwindow Time
sp rintf
Variable Declarator
ĠPar sed
Ġ>>> =
Add r
)? $/
Ġwrite Int
AD ING
Ġcustom Properties
Ġinitial izer
Ġload Config
LI P
ĠSe quence
ĠUn ique
:: {
ĠValid ityState
Ab ort
Ġcommon js
FA CE
Ġinv isible
mode s
áĢ ¬
áĢ ±
Ġconcat en
Ġinter polate
Ġsearch ing
Null Dependency
Ġ12 3
Ġ"' "
JSX Attribute
IG Zyb
Proxy Type
Report ing
listener Count
Client Request
store Name
rop y
ĠSE PARATOR
Ġgroup By
my event
Member s
Ġ'$ '<
Ġmkdirp Sync
rad ient
inherit ed
addir p
Paren thes
Spread Element
irc us
Ġgre y
cap ability
msPer Hour
msPer Minute
uk i
emitter y
Ġdiv i
rel List
SIG N
IGN ORE
Ġduplex ify
Ġder ived
SPE CIES
quot ed
Ġparen thesis
fake Timers
TRA VIS
Ed itor
ĠMut ation
CLA MATION
spe ction
Realpath Sync
ĠTim estamp
isColor Stop
ĠDotenv Parse
FRA ME
ĠOrig inal
ĠisFor ced
udd ing
alph anum
iag nost
ĠSPE CIES
ĠUnary Function
tIC cuL
ĠPEND ING
Disting uish
ĠFIL TER
jestGet Type
shouldUpdate Selector
ĠcacheBabel Interop
! =
" ',
' `
' >;<
' };<
+ )(?:\
. ",
: \\
> ';<
C are
D ES
M ount
O UL
S KIP
Z pb
] ')
] ?:
d st
d raw
g able
i eee
l ated
w eek
Ġ ._
Ġ very
in clusive
at tempts
un supported
Ġf t
ur ix
(' '));<
an onymous
Ġn or
Ġp urpose
>} ).
>} >;<
Ġs afer
im ated
Ġb ias
Ġm illi
to Hex
to uch
ri ve
Re al
Re load
ser vice
get Options
get All
Ġis Path
Ġis LE
Ġis First
Ġis Arguments
() (
inter sects
ĠT EXT
Ġto gether
Ġstrict er
Ġfrom File
em onic
ĠS TY
ĠS PACE
est ig
cl oned
Ġ` @
Ġde legate
Ġstring Hints
Ġst able
Ġl aunch
Ġfor bidden
ĠM S
Ġpro blem
)) |
:// ')).
us able
array s
wn af
ĠP ass
Ġarg String
ĠI con
ĠG iven
ĠN amespace
Ġ/ (
Ġ/ \\
ĠF ix
Ġen s
Ġthrow If
Ġset Is
++ ];<
count ered
root Dir
replace Text
Set tled
not Equal
Ġbu iltin
assert ThisInitialized
Event Types
RA CE
Ġiter ations
Ġcheck For
Ġurl s
ft p
RE PLACE
Ġap pending
author ized
Ġmap Visit
Ġup on
Ġup sert
Ġfirst WpOpt
ich ael
Per mission
spec ial
Ġ>> =
Ġ/^ (['
ĠV irtual
Ġfind ing
DE PREC
wit ter
]+ $/<
Form Data
Ġwrite File
Func s
NA F
random bytes
non IterableSpread
CON NECT
ĠSchema UtilErrorObject
Ġ(/ -
)\ ))?
Ġfoo ter
connect ed
cre ated
Ġoper ations
ĠMin imum
Runtime Error
Effect s
[\\ \/
ird rop
Instruction s
ĠBlock Hash
Allow ed
ĠOver ride
Ġexecute Callback
ru pt
TD Z
Ġconsum ing
playlist Id
distinctUntil Changed
ĠHead ers
ĠLO OSE
Ġrx Subscriber
Ġeas ier
FUN CTION
ĠgetPackage Candidates
Esc aping
ĠProto col
ynthet ic
Care t
OUL D
ĠSTY LE
+ '
, }
. |[\
/ )<
2 25
7 00
8 30
9 65
; ?
B w
B ren
B anner
C yclic
C PU
D Key
D RA
D ifference
E ich
H ole
H yperlink
I Z
I jpb
J TD
J vb
L P
L ess
L ite
M jsDefault
P IT
S ass
S dk
T IC
Y PH
] ?\
_ `
a ul
a head
b W
b om
c of
f our
i LCJmaWxl
m emory
n ested
n atural
p ids
s x
s qrt
u pe
u YW
v cn
z modules
| (\
} ),
ĉ ĠĠĠĠĠĠĠĠĠĠĠĠĠĠĠĠĠĠĠ
Ġ odd
re write
on ing
le HB
Ġre cur
Ġre plac
de grees
at ab
at ane
ro at
is Open
Ġc ampaign
ex e
ex isting
Ġ( ${
pe ek
./ ;<
Ġ' >'
an der
ce Reactions
Ġp ids
Ġp rr
ent ities
et ype
ra ps
>} (_
Ġs peed
ter ser
Ġm ul
um ulh
ut ions
ut atane
to BN
module Directory
') [
ver s
Re order
Re cursive
get Next
get OrCreate
Ġw d
Ġd river
Ġis E
Ġis N
Ġis Iterable
Ġis Absolute
ĠC OL
em e
ĠS kip
ĠS uz
default Resolver
import Rule
Ġnew PromiseCapability
ps um
Ġde tail
Ġde nodeify
par able
Ġl iter
string ToArray
Ġpro posal
let ter
St ake
int egrity
00 3
00 01
ĠA udio
ĠB en
ĠB IT
up dated
us uke
for Own
array Push
ach ine
Ġsource map
Require ExactlyOne
Ġpath Env
ĠP et
ĠP ut
ĠP olling
Ġget Set
Ġget Method
Ġget Remaining
ag raph
ĠR o
Ġ(! ('
Default Resolver
ma de
error Object
ry ption
Ġr and
Ġex ternal
Of Lines
ĠF ixed
ĠF latten
has Attr
ĠD IGIT
Ġset Tag
Ġset Cache
ĠW ill
index of
ĠE OF
ĠGet Iterator
Ġpre load
Com parable
ĠH YPH
Ġparse Json
Ġparse Measurement
Element Node
Ġcreate Element
Ġcreate Base
Ġcreate PropertyDescriptor
Ġcreate Filter
Ġcreate AsyncIterator
++ ]<
Ġbase Slice
Ġbase Unary
Ġarray Union
Im V
Im Zpb
Ġfunc Name
Ġy Type
[] [];<
helper Validator
Ch oice
En sure
valid Len
sub type
ĠIn verse
ĠIn LeapYear
parent Key
Ġcan Use
Is IntegralNumber
Is ImZpb
slice InstanceProperty
not ifier
not Id
property key
pon y
ain Value
Ġnext Key
Event Source
Ġmatch RelativePath
Ġroot Dir
te a
Ġurl To
Rule Tester
39 86
Ġread Sequence
Pre Steps
Ġwe ight
Ġap plication
Ġmap Tag
ĠIs RegExp
ia W
Ġparser Options
Ġparser Config
Ġ5 5
query String
filter Reject
Ġcache Wrapper
Ġup dated
CSS HostRule
cache Key
Lo ading
Ġ/* :
find er
Ġk StatusCode
AX Objects
Parser Services
ĠSet Cache
allow Symlinks
DE G
ĠY usuke
Ġro tate
Ġrun Matcher
ĠJSX ExpressionContainer
Ġrequest ed
ced ure
Ġcopy Array
IS K
Ġreplace Holders
med ium
'] )<
Web Core
CE PT
ik ely
Ġargument Count
Ġbut ton
Date FromTime
Comp ile
Variable Declaration
typed Array
Hash Digest
readable Destroyed
skip ped
Right Shift
Ġ++ <
Ġquery Args
Ġencode URIComponent
Ġtra il
gate way
ud CI
ud GV
Ġexec Sh
copy Array
template Settings
ĠTr ans
user Request
delete All
Column Width
Ġreference Str
Day FromYear
Ġmetadata Value
]] ')
]] '))
Ab s
Define OwnMetadata
ĠDe coder
Custom Logger
loader Index
Tim es
mark er
enc y
Ġstrip Bom
Ġconcat Nodes
run Tests
Ġsort Ascending
Ġmember Expression
ĠZ ERO
Ġflat Rest
Ġ12 2
ĠisValid Number
Ġimpl ForWrapper
('. ',
Ġreg istered
New Expression
Ġq r
FAUL TS
ND b
ĠRead Stream
osed Methods
gre ater
Sort er
Merge able
Ġspecial Values
gy p
ZX NDb
Ġenum Bug
ĠAl low
timeout Id
Public Path
expect ation
expect Data
Ġserialize Context
Ġcompiler Options
Supported Error
rad ians
ĠMin FromTime
ĠDay WithinYear
SameValue Zero
Wrap ped
Del imiter
FFFF FFFF
Ġordinary DefineOwnMetadata
Ġforce Braces
Ġbubble s
Ġgo ing
Binary Expression
ĠPl ainValue
Ġ"- "
preserve Order
Ġinsert ion
cast Slice
Ġfast Glob
ĠAccount Number
built ins
lin trc
abort ed
Ġ\' '
Iteratee Call
Ġreadable Destroyed
Visit ors
emoji List
ĠConst Dependency
Post Steps
ĠST OP
Ijo iaW
Ġ'; '
ips um
Ġmime Type
Ġassoc IndexOf
Ġrealpath FS
onF reeze
ĠWeak Ref
Ġign oring
sinon js
MIN US
iJ pbmRleC
CB mcm
ĠLocal Forage
Wait ing
cssnanoUtilGet Match
balance d
ĠHour FromTime
remaining Request
Ġemojis List
Workbox Error
Ġce Reactions
Ġresource Path
share Replay
ĠProcess Cov
Area Role
prim ary
ĠtryCatch Target
ĠSec FromTime
WyJ leHB
Tagged String
Ġfig ures
Pack et
Ġfire AnEvent
qcy IsInNvdXJj
kZXguanMi LCJzb
ZGVmYXVsd CBmcm
ĠgetCurrent Request
iO iJpbmRleC
Rad ius
dar win
ĠordinaryGet OwnMetadata
Stored Level
dan Eich
Qg ZGVmYXVsdCBmcm
CodeFrame Error
ĠrsAstral Range
Ñĭ Ð¹
ĠisNegative Zero
ĠStri ct
bserved ValueOf
Redu ce
Pnp Resolver
GU iOiJpbmRleC
entr ance
ĠhasUn icorns
Vz Q
470 3
ÑĢ Ð¾Ð
ĠROT L
plural ize
Consecutive Uppercase
yntact ic
BO X
Fit z
225 4703
Bren danEich
Cyclic Copy
DRA FT
Ijpb ImV
PIT AL
iLCJmaWxl IjoiaW
vcn QgZGVmYXVsdCBmcm
ĠSuz uki
Ġliter ally
ĠgetRemaining Request
ĠHYPH EN
ĠcreateAsyncIterator Proxy
IsImZpb GUiOiJpbmRleC
udGV udCI
ĠenumBug Keys
WyJleHB vcnQgZGVmYXVsdCBmcm
qcyIsInNvdXJj ZXNDb
( ([^)]*
* +
+ (
+ <
. '
8 7
: ",
; \
? ${
B read
B ST
C lean
D et
D uration
E le
G ame
M er
N ever
T ab
W W
d x
l ict
m int
n In
p ok
r d
u a
u ped
v ue
y ling
| (?!\
Ä ĩ
er ialize
ar b
de tail
is Root
is Neg
Ġ( ~
Ġ( ['
(' <
Ġ' )?'
str iction
Ġp rimitives
as c
lo aded
ab l
um my
type Parameters
Ġ" ?
Ġin tent
get Data
('./ ../
ig it
Ġtr uth
Ġd ictionary
(" ðŁ
Ġis In
Ġis BuiltinModule
ict ure
>// ////////////////
() ]<
() ),<
ĠT op
ĠT ypography
Ar rows
ĠC ipher
ot ing
nc y
Ġpro file
00 20
Ġas ynchronous
ĠA li
ĠA fter
") (
object WithoutPropertiesLoose
Con versions
ĠP ick
Ġget ting
**** /
Ġkey stream
Ġe Len
ĠG T
text area
Ġcom bineAll
ĠF actory
has Symbols
ĠD B
ĠU rl
URL s
ĠE thereum
ip lex
source Type
Ġext name
\\ ',
Ġcreate Token
Ġbase URL
Ġbase Path
Ġbase Ct
Ġconvert ing
11 2
json ify
From String
Ġsub mit
]) +?
ok es
Ġcheck ed
[' \\',
assign ed
Ġend point
Ġu v
Ġab c
max B
Ġ5 1
ĠK e
Ġ/* ,
][ \
AL SE
Ġlast Column
Ġoccur s
ĠPro gress
ĠAn onymous
Ġ6 1
ĠModule s
Ġweb socket
Ġro unded
Ġhash func
Ġhead ing
Web Kit
first Child
Listener Options
ful filled
Ġ'\\ '],<
Ġlevel Mapping
Ġquery String
\. )(\
Ġtag Name
Ġmult iline
Ġapply Options
encoding s
Ġnative Max
NA MES
Rest Element
Ġhex lify
He ight
Ġbyte Width
COL LE
Ġrepresent ed
Ġred irect
Ġma intain
sal t
ĠisValid StatusCode
Ser ialize
))) |(\
Ġbinary Search
(?:\\. |(?!\
([^ \\])/
Ġpolyfill s
Ġlow est
Ġim pro
edit ed
OW N
]| ^
]| (?=\
Ġcollection s
pol l
47 6
lch own
ĠisW in
ORD ER
Ġsum mary
ĠMapping Item
Ġnan oid
Ġ/(?: \\(
isF rozen
Compilation Targets
})| ((?:
Week days
)| ([^\\])/
distinctUntil KeyChanged
Ġmac ro
}|. ))|
}|. )|([^\\])/
+(?:\([^)]*\))? (?:\.\
+(?:\([^)]*\))? )*
("/ ");<
ĠCommandOperation Options
Ġbecom e
ĠWebIDL Conversions
"])( (?:\\.|(?!\
ĠMapped Position
sig Bytes
])* )\
Bl ank
ĠOut put
Lat n
Ġinvoc ation
(?:\{ (~
ĠgetProgram Instance
Ġ/(?:^| \.)(\
)[^\\ ])*)\
ĠSing h
+)(?:\ (([^)]*
Ġ/^([' "])((?:\\.|(?!\
)\))? /
ĠbaseCt ors
])+? )/
)))|(\ })|((?:
}|.))| (?:\{(~
+(?:\([^)]*\))?)* )(?:[
+)(?:\(([^)]* )\))?/
)))|(\})|((?: .|[\
}|.))|(?:\{(~ )?(\
" ',<
" !=
' ");<
' },
, ,
, _
4 43
: {
B ail
B FF
C enter
C bc
C ORRECT
C iphers
D rop
E valuated
F ilenames
F encingTeam
J o
J y
N one
N avigate
P SH
R ab
R ENT
S U
T mp
X G
X ML
Y arn
] '<
_ ]*
b eta
b sd
d n
d r
e lo
f j
f ath
g Jy
h ore
h oist
h bW
i XSwib
m V
m ill
m cake
p asses
t k
w cG
z ing
| #
} ',<
Ġ EN
re marks
er g
er ve
er print
in coming
st ree
Ġ{ \
th ew
Ġre Has
Ġre cipient
de str
un ix
Ġf our
Ġf ee
Ġf ilenames
is Callable
is Invalid
ex ceptions
Ġt t
Ġ' (
ing erprint
ul ated
ra b
Ġ_ ();<
Ġs lot
ch anged
im uth
Ġb Index
Ġm ix
Ġthis NumberValue
Ġ" ").
to Spliced
Ġin sensitive
Re ceived
get FileName
get NoTestFound
In val
(" ")
(" .");<
Ġis Index
Ġis Extensible
Ġis Supported
() ))
ĠT sConfig
em file
of fs
ĠS uper
ĠS ave
ot ion
De p
Ġnew Target
Ġstring edValue
Ġl arger
Type Property
Ġun destroy
Ġun iversal
Ġun subscribedFrame
co erc
ĠM e
ĠM ock
Ġpro b
end Offset
Ex plode
Ġas inh
ĠA sh
Ġobj HasOwnProperty
String Value
String List
ĠL OG
for In
Ġsource Symbol
Ġget Property
To Map
To BigInt
ER ISK
ĠI Observable
ĠI DE
and box
ĠG yan
ry Run
Ġv iable
ĠRe moving
ĠRe addirp
Of Size
vert ical
ĠF etch
has ownproperty
ĠD oc
SE LE
ec params
ast er
Ġfile Location
ĠW orld
next ick
read FromFixture
Ġobject Symbols
Ġhas Padding
Ġhas Arity
Ġwh ose
Un used
\\ ]/
Ġcreate Non
Function Cov
Ġbase Partial
from Index
], [
Number s
iv ing
ang ing
ant iss
parse Trbl
class CheckPrivateStaticFieldDescriptor
Ġat Rule
pos Int
pos itive
fix ture
red undant
replace All
Iter Result
Ġresolve Context
Ġclass CheckPrivateStaticFieldDescriptor
An cest
Time Context
Ġsub scribed
new Chunk
col on
Ġnext Index
Event Handlers
Ġcur ve
Tr uthy
RA W
fore ach
stream IsTTY
Ġdo ctype
Ġpos Int
Ġiter ates
Ġadd All
Ġadd Extension
Or Semicolon
For ce
As Used
Config s
10 4
Ġspec s
Ġspec ifiers
Ġproperty Keys
Loc ator
Ġerr State
Ġmap To
event ify
Ġ[' \
Async Data
query Selector
plic ator
cache Wrapper
plugin Proposal
Check sum
Sh ell
MP L
Ġ/^ \.
}` .
Offset s
Ġwork ed
ĠY Error
Ġro tl
public key
Ġprops ToCheck
Wrapper s
Wrapper Functions
Obj Cxt
Pattern Caret
Init Spec
case d
exec Path
Ġcontent Type
Spec ify
Spec ific
Run Path
block Hoist
Ġregex Tester
Ġafter Each
ĠTYPE D
Es Ty
>/*< /
Ġwrite U
MPOR T
\. ?
Ġnum End
ud a
ud fff
Next Sibling
mkdir Async
Ġinvalid Block
Operator s
Has Loc
Const Dependency
30 4
Ġfunctions HaveNames
Core js
Enumerable Property
NA PSH
Ġlimit ation
integer Index
áĢ Ķ
50 6
Ġbit wise
Only Error
Glob Tasks
Ġform Control
Ġhsl a
Hook CodeFactory
sd am
Ġproxy Socket
isValid UTF
functions HaveNames
cp u
Second Type
FOR M
expand Directories
make Re
Ġdif fs
ĠMin imatch
Ġ~ ~
Chain Expression
ĠAs ap
Ġcould n
Ġmark ed
Ġtop ToBottom
ĠReport s
multi ply
Ġcached Wasm
Ġpop ular
Same PropertyDescriptor
Ġmut ation
Ġdecor ators
Ġ'> =
Ġdelta Elements
bb b
Ġfe atures
}/ ${
ĠCustom Response
exclusive Options
schedule d
Percent age
ĠâĶ ľâĶĢâĶĢ
Conditional Expression
Conditional Keys
Ġlook s
isF ulfilled
Ġouter Index
CB kZWZhdWx
Ġmappings WasmUrl
createError Class
Ġconsum ers
ĠSte fan
classApplyDescriptor Set
classApplyDescriptor Get
classApplyDescriptor DestructureSet
ĠclassApplyDescriptor Set
ĠclassApplyDescriptor Get
ĠclassApplyDescriptor DestructureSet
Decor ators
Memo ized
Ġreplaced By
Simple Type
READ ME
READ ABLE
cc ure
dum my
oneLine CommaLists
ev p
Transparent Expr
Am ount
ĠArguments Type
isInteractive Element
Ġobserver s
qualified Name
ĠHas OwnProperty
Ġsys Path
Ġra ther
CL S
Ġrece ive
Placeholder s
WF wcG
ĠTree Walker
entic ated
Reg ional
ĠgetIterator Method
Ġ655 36
ĠExclusive Variation
yd CBkZWZhdWx
ĠmkdirpNative Sync
ceed s
ĠItem Struct
classStaticPrivate Method
Ġsing leton
ĠDoctrine Error
ĠInitial izes
ĠHow ever
vector OfSize
redS qr
tagged TemplateLiteral
osmiconfig Result
Dim ension
Accessible Child
Ġens ures
atab ase
maxB usyTries
fath ered
iXSwib WFwcG
destr Obj
isInvalid Brace
emfile Wait
ĠsourceSymbol Keys
ĠGyan deep
ĠcreateNon EnumerableProperty
antiss a
EsTy IsImZpbGUiOiJpbmRleC
NAPSH OT
iXSwibWFwcG luZ
* ')<
8 000
A ss
B ias
D S
G N
H ASH
H MR
I SE
K e
L ive
L IC
S ol
S OLANA
Z one
c losing
e ff
l hs
p rior
r am
r hs
u V
Ġre asons
Ġf inite
is C
is m
Ġ( ((
(' ;
an umeric
export ed
Ġp id
Ġp ify
Ġp rime
Ġs ynthetic
ch romium
Ġb pp
Ġm icro
ver al
Ġ0 123456789
Ġcon side
ĠS olana
default Options
default IfEmpty
ve red
js hint
ber g
De structuring
Ġ1 20
Ġtype Name
require s
Ġst yling
Ġpro c
cript ive
ĠB atch
ĠL y
ĠP ort
Ġe thers
Ġr an
Ġ/ [^
Ġse lection
Ġse veral
ers olver
Ġen queue
Ġen umeration
ĠU s
ĠE val
create ForOf
pect s
log Level
Ġparse URL
Ġcomp ression
Ġcomp osed
Ġcreate Async
Ġcreate Hmac
pen ded
Ġ3 6
mo cha
Buffer Error
helper CompilationTargets
red Mul
throw Error
Se lection
Ġconfig File
Ġindex es
Ġprocess ing
Ġ4 6
scri ptions
config uration
foo ter
(/ [\
RE D
Ġend ing
Ġdefine ReadOnly
Ġac cording
Iterator Helper
Ġle ak
Ġle arn
ED ED
Ġasync Scheduler
This Expression
close Re
find Program
Ġk WebSocket
Ġ'[ ^
Ġwrap Raw
Ġwrap Conversion
Ġwrap Rounded
pac er
On Error
Ġenv Name
Ġenv ironments
Ġro tr
Qu oted
glob s
compare r
ĠEx cept
Ġsign ers
ĠPar ses
sort By
ĠURL s
Ġinner Value
ĠUn derscore
Ġcss Keywords
mark up
UN K
UN DEFINED
ITH UB
ĠZ ip
PT ED
can onical
ĠTh anks
ĠExp and
('/ ')
Ġwarn ed
ĠDis posable
ĠUt ility
Ġtotal Length
CD C
Same Object
ĠDefault s
('- ')
cmp n
Ġip v
Ġroute Models
Dev Middleware
Ġcause s
0000000000000000 0000000000000000
ĠCond ition
ĠSpec ify
ĠEd it
Cre dentials
Ġol der
Ġpause d
audit Time
Mo use
Ġet ag
Calc ulator
ffffffffffff f
ĠPh antom
Bread th
Ġconside red
createForOf IteratorHelper
findProgram Address
+ $/
2 20
5 00
: _
A uto
C ould
C lip
C JdLCJ
D SL
G IT
G rowl
G ITHUB
I FE
L ATER
M ove
M illiseconds
R an
R CLE
S LOT
T w
T ES
V EY
Y PE
] "
] ";<
] (),
b an
c fe
h omepage
i XX
l iterals
l aunch
n Jvb
o bserveOn
s lot
t YX
v ocabularies
{ ${
} (?:
} })
} ]/
Â ´
Ġ Def
Ġ --------------------------------------------------------------------------<
Ġ IndexedObject
in crement
in variant
or throw
le b
Ġre main
Ġre pository
de reference
de precation
is k
is TypedArray
is Hidden
is BuiltinModule
is NonInteractive
is Sealed
Ġc s
Ġc ell
ur mur
(' ðŁ¦Ħ
Ġt odo
Ġ' '));<
Ġ' )?)?
Ġp b
Ġp ic
am und
ra se
>} )(
ed ium
ch own
im ulh
Ġb lackBright
Ġstr ikethrough
um ps
ut or
Ġ" ;
to int
to Pairs
Ġin coming
Re peat
Re ferences
Re ferencer
Pro filing
ap hore
use less
get Map
get Native
get Rules
In v
In spection
Ġis Key
Ġis Name
Ġis SharedArrayBuffer
Ġis GeneratorFn
ĠT State
ĠT AG
Ġto Source
ĠC TR
ĠC overage
ĠS ING
cl ick
js doc
set Of
Ġ` \\
Ġde serialize
Ġde pendent
Ġde grees
Property IsEnumerable
Ġstring Slice
string Width
co sm
ĠM D
end ors
Ġ$ .
Ġ$ ({
Ex e
node ModulesPaths
String ValueOf
ĠB order
ĠB rand
Map s
ĠL ower
ĠL ock
ug ar
us on
Module Scope
Ġsource Type
ĠP RE
ĠP react
Ġget Prototype
Ġget Support
To Int
To Esm
EN SION
ĠI Disposable
ise n
fig ures
Ġr tl
map Values
Ġlo t
Ġnumber Literal
Ġnot FoundError
Ġse em
Ġpar allel
ĠF a
ĠF erg
Ġon end
ĠO bservedValueOf
code ship
has property
has Prop
Ġset ToArray
/* :
ON G
ow el
add Handler
test Results
Ġmodule Path
Ġmodule Exports
ĠE OL
ust ed
Node Impl
Symbol ToString
Ġassert ions
Ġobject Keys
Ġobject TaggedString
Ġhas RegExp
Ġhas Query
Ġpre lude
Ġwh y
comp ose
cur ate
Ġext ended
Un released
log ic
Prototype FromConstructor
ĠH OT
Ġtest Result
no v
Ġcreate Desc
Ġcreate Link
jo int
Ġbase For
Ġbase Assign
Ġbase ForOwn
Im mer
Im mutable
mo vable
Number ValueOf
bind ings
Index By
parse Error
[] [][];<
red Bright
sub tract
sub Arr
Data PropertyOrThrow
ST YPE
iterator Symbol
css om
replace Holders
Set Cache
AT ES
Is GenericDescriptor
Ġresolve Command
json file
An ymatch
start With
From Undefined
property descriptor
match ers
Ġ4 1
keys In
Ġnext Node
Ġcur ly
stream ing
Ġpos ix
impl ify
Rule set
Ġstream IsTTY
Or Hole
jest PnpResolver
Length s
10 3
10 7
10 9
bu iltin
Pre v
Promise Array
Constructor Name
ĠJ amund
do pt
Get Result
ĠNode Iterator
Ġinput Off
20 5
method Factory
max Size
Ġ5 00
Ġall Errors
should LoadAsEsm
Schema Object
CSS ClassList
Ġcurrent Index
plugin utils
exp ire
LA B
find GetResult
Ġlast Token
Line Break
Match All
AX Object
": {"
current Attempt
Template Expression
ĠRegExp Initialize
ĠRegExp Alloc
md zI
Ġus ually
sv en
sv gr
az imuth
Ġimport CustomPropertiesFrom
bit Field
ĠMap Cache
IS cheme
Pattern Prompt
sign bit
Ġ'/ ');<
element Type
ollow ay
Inter ceptor
Bytes InBuffer
Comment Block
Ġoriginal Console
Boolean ValueOf
rx vt
encode U
]* ('
cb rt
'. "<
Ġprogram Id
\. )/.
CI RCLE
ĠSource Code
ĠTr im
Min ify
Min utes
Ġiterator s
Ġiterator Symbol
Ġiterator Return
Content s
Ġload C
ĠX YZ
Ġser ve
If Not
romis able
Tra verse
Tra versal
weak set
loader Utils
output Path
pipe line
No Tests
Non Print
SH IFT
Ġ] ]<
random Fill
EX EC
Modules Plugin
div id
div ide
Ġcore js
Ġcore JsData
ĠID ENTIFIER
can Explode
ĠBigInt BitwiseOp
âĢ ľ
')( [].
('. ')<
pb mdzI
Ġclear CachedLookups
BUILD KIT
supports Descriptors
shim med
ĠParser Services
Ġform Owner
Ġman ifest
Ġver ified
Implemented Error
ĠcharCode Def
Ġproxy Handler
top rimitive
Ġprototype s
Section Metadata
CA K
Ġprint s
Ġprint Warning
Max Length
React DOM
Ġabs Value
('/ ');<
Weak Cache
Weak Ref
)$/ .
timeout s
Ġ[] ).
Ġos Release
Ġserialize Rules
Media List
ital ize
unique By
13 37
Ġstore d
Ġhsv H
ĠOn Event
Ġdeep merge
Ġ[[ <
Fa ctories
ĠPR OPER
Changed Files
Ġ'? '<
ĠTemplate Strings
BuiltIn s
Ġmaximum Value
trans Url
Ġ"/ "
Binary Path
Ġsyntax Stack
Ġauthor ized
(', ')
FC QUF
Ġcached Should
Ġlabel s
eachOf Series
Do es
Chars RegExp
take While
Ġbound ary
Validate AndApplyPropertyDescriptor
ĠgetImplicitRoleFor H
Ġdiv ide
drain ed
Ġdeploy ed
Ġblue Bright
istanbul Lib
blue bird
Ġplatform s
Ġconsume Number
isArrayLike Object
UPPORT ED
previous Sibling
Ġ'} ')
ACT IONS
egr ation
ĠisString OrHole
Ġgreen Bright
AC CEPT
ĠOrdinary HasInstance
ĠModuleDependency Template
control s
ĠbgB lack
ĠCan onicalNumericIndexString
minify Trbl
normal ModuleFactory
ĠPartial Observer
Ġouter Fn
reporter State
Ġshow s
Ġconsum ed
Computed Key
ĠCl aim
Ty win
magenta Bright
Ġjsx Util
Ġwhite Bright
PL IT
ĠLEFT CURLYBRACKET
Ordinary HasInstance
ĠStyle Sheet
Abstract Role
mF tZX
ĠgetMap Iterator
|\\* '<
Mutation Observer
Ġcyan Bright
Ġagent s
Ġretri es
ĠAR RAY
ĠisConstructor Marker
ĠInst ead
Ġyellow Bright
Shadow Root
ĠJo hn
Ġ'\\$& ');<
*) \.|\
ĠLazy Wrapper
HB pbmdzI
qcy JdLCJ
Ġmagenta Bright
kZXguanMi XSwib
ZGVmYXVsd CJdLCJ
APP VEY
MM ING
getBinding Identifiers
ĠAtt ach
MiO lsi
Ġsa id
ĠRpcProvider Interface
Ġcorrespon ding
greg ated
riendly URL
ĠRIGHT PARENTHESIS
Sparse FromUndefined
iadd h
ĠPAT H
ĠMod ifiers
isub h
Ġshuffle Self
PROPER TY
menu item
AndColumns Computed
ĠUR IScheme
iece Index
ĠOld Value
Bo ilerplate
readPkg Up
RU PTED
ĠSto re
Cast Expression
Ret ry
ĠINTER RUPTED
Ġretrie ve
Cors Object
hc HBpbmdzI
Ġdivi dend
Distinguish SparseFromUndefined
dst path
,} \.)/.
Bw aW
JTD TypeError
rewrite Config
DefaultResolver Cache
yntactic Placeholders
Ele ms
pok ersolver
ncy I
Dep loy
GIT LAB
LATER AW
tYX BwaW
Ġ')?)? '<
ĠSING LE
cosm iconfig
ĠgetSupport Level
ĠFerg uson
ĠhasRegExp Matcher
CIRCLE CI
BUILDKIT E
ĠTemplateStrings Array
ĠcachedShould LoadAsEsm
mFtZX MiOlsi
qcyJdLCJ uYW
kZXguanMiXSwib mFtZXMiOlsi
ZGVmYXVsdCJdLCJ tYXBwaW
APPVEY OR
ĠURIScheme Handler
kZXguanMiXSwibmFtZXMiOlsi ZGVmYXVsdCJdLCJtYXBwaW
' d
* '
+ -
2 32
< [
> |
? \\
B G
B AD
B INARY
C atcher
C loud
D C
F ast
G F
H S
M imeType
N ow
P erson
P icture
R OOT
S ender
W OR
` )
b toa
d c
d angle
n wjs
p ic
s ong
s corejs
s ameValue
y alty
â ĸ
Ġ \\
Ġ ])<
re fe
re mainder
er man
st uff
de ll
ion ally
se sc
se xe
at ty
is atty
Ġc u
Ġc ar
Ġc ertificate
Ġ( \
(' ?
Ġt abs
Ġt rigger
Ġ' ))<
Ġ' ':<
Ġn avigator
Ġn wjs
Ġp Try
Ġo bserveOn
ra dio
Ġs ass
def ghijklmnopqrstuvwxyz
ch o
Ġ" ;<
to o
to Have
to Wei
Ġa Array
Ġin dicate
Ġin lined
get Path
(" ,
() }
ĠC OLON
em p
ĠS KIP
Error Constructor
ir med
Ġ[ ])<
Ġde leted
Ġun set
Ġi sexe
Ġg ulp
Ġres ize
ĠA BC
ĠB ar
Ġnode Interop
us pend
for age
To Fix
Default Declaration
Ġr l
Ġr hs
map ped
Ġcom e
ken as
code point
Ġen countered
rit ical
Ġch annel
ĠD ATA
Ġset Lazy
/* #
ans w
fe ature
comp ressed
eg ers
Ġ'./ ';<
ĠH ub
ĠH EAD
Ġtest Path
bind NodeCallback
([ {
sub array
Ġresolve FileName
Ġversion B
SS L
write Buffer
Ġadd s
Ġadd resses
Ġcheck Limit
0000 0
target Space
Ġwrit es
ignore Elements
=" ${
=" ../../
ĠJ ere
>/** ****/
Ġcol l
Regex Token
format ter
Ġus ize
Ġmake Dynamic
Ġint egers
content Base
Ġencoding s
Cl aim
Ġsign als
]+ $/.
main net
Ġ'- ',
Min us
Ġdep d
|\ /
|\ [
man ual
encoding Name
ĠUn shift
ĠDe lete
Ġnormalize Path
Ġ] ).
mark ed
Ġsha Common
User Config
big A
serialize Host
ĠTh rows
Ġ'! '
ĠDocument Cloud
Ġ', ')
Supported Algorithm
Fix Sync
[\\ /
reverse d
+/ '.
zz z
Ġ'* .
ĠReport ers
ĠFind s
under scorejs
Layout DSL
wards Curve
Ġ'} '<
ĠWallet Link
{} ()
ĠMax imum
Ġ'+ '<
}' `);<
Ġ'ðŁ ¦Ħ
ĠAssert ion
Ġsec retKey
month s
aut op
ĠNO OP
Play list
irm Transaction
codec Options
Ġprior ities
Ġcomplet es
IST S
Ġsa ved
trailing Comments
quick Sort
Mon ey
('^ '
Phantom JS
Ġcycle s
Ġpure ly
ĠInv estig
ĠIndexed SourceMapConsumer
Ġpersist ed
ĠSim on
Ġhour s
Ġquick Sort
little A
ĠMost ly
Ġansw er
ĠLeg acy
Det ail
Ġtruth iness
Ġabc defghijklmnopqrstuvwxyz
ĠAsh kenas
ĠLy dell
ĠEdit ors
ĠABC DEFGHIJKLMNOPQRSTUVWXYZ
ĠsetLazy Property
ĠJere my
ĠmakeDynamic Styles
ĠInvestig ative
# ;?
) `,
) }`;<
3 01
: =?
< ()>
= \
? '
B asis
B uffered
C UST
E IN
E PER
F FIX
F raction
K S
M ay
M essages
P Is
P rice
Q iXSwibWFwcGluZ
R PC
R ULES
S chemas
S olana
U nc
W alk
X N
X hr
] $/
a e
a Index
a ption
b anner
c st
c ork
d Name
g ue
g amma
i use
k a
p iled
s parse
s uffix
t n
t or
t du
t anh
w ill
y a
} }<
Ġ ERR
re ach
re ferences
re viver
on Value
on End
in strNode
le sser
ct Loc
al tern
Ġre connect
at rzy
ro uting
qu asis
is Path
is Zero
(' &
(' ')
(' __
(' "');<
es lintrc
it able
Ġn orm
Ġn atural
str Slice
ing Cell
Ġp ascalCase
Ġp erson
>} ));
ed dy
Ġs ri
Ġs ax
val l
ch type
ab a
Ġ" {
Ġ" //
Ġ" :"
to UTC
Ġa dopt
Ġthe me
get Directory
get FullYear
get LiteralPropValue
Ġw ks
Ġis ub
Ġis TypedArray
Ġis PrefixOf
Ġis TokenOnSameLine
ĠT R
ĠT a
ĠT weet
ĠT eddy
ĠC alc
ĠC ircus
ĠS LASH
ĠS anity
ĠS LOT
ĠS uspense
ĠS NAPSHOT
cl am
import Type
De clare
Ġ! _
Ġ1 11
Ġde al
Ġun reachable
ĠM edia
Ġi add
Ġg raceful
)) ).
ĠA T
node Version
ĠB ele
Ġnode Version
us m
array Each
Ġget LC
Ġget TT
Ġget FC
Ġget NoTestFound
Ġget CLS
__ ;<
ĠI JsonRpc
art icle
Ġe at
Ġe Max
Ġr m
oc olor
eth er
Ġex its
Ġex plode
ĠRe sets
ign ores
Ġse q
pre e
pre cedence
IT S
ĠO PTION
has All
ĠD OT
ĠD ELE
ĠD uV
ĠW eek
init Event
Exp iration
ip ad
Class Selector
create Spy
Ġuse Selector
file Receiver
Ġcreate Context
Ġcreate CustomError
ren gth
url s
from Comment
older s
Range Cov
Im RlZmF
Number OfLines
ĠError Reporting
Des cribe
Des erialize
Res erve
ant ity
(_ ,
vi ch
En force
11 5
sub stitution
parent Schema
Is RegExp
clu sion
Ġparent Port
start Col
From Source
From Screen
buffer Off
Ġstat Sync
OD Y
Ġnext State
Ġstart Digit
FI EL
"] ();<
Ġmessage Parent
Url Request
jest HasteMap
As Require
ne o
ne eded
Pre pendor
Promise Like
Promise Resolve
Ġac cum
Le ast
Context Types
Ġdebug ging
Sub net
Sub sets
Test Results
indexOf InstanceProperty
mat tdu
tra versal
concat MapTo
ĠK ir
Ġcol lapse
ee ded
sol id
cache Plugins
}) *)?
Transform s
ĠSt andalone
Parser Options
wh iteness
ĠY allist
instance Of
Ġoutput Path
80 8
Ġinst antiate
ĠJSX AttributeMock
bit rary
Ġoption Defaults
ĠEx its
Ġpart ition
Date String
sp ooks
Ġjs doc
regexp p
Emitter y
Run Data
Comment Node
Create DataProperty
Chunk Size
ached Scope
Ġwrite UInt
skip Until
ĠSource ListMap
Ġgenerate GlobTasks
Export Specifier
copy URL
ĠTr ansport
fail Handshake
Dis card
Dis crError
search Cache
Ġlocal Names
Ġsafe Json
}} `<
}} \'
dic ates
200 7
Ġstrip IndentTransformer
build CodeFrameError
Raw s
Lib rary
Open ing
Ġsort By
Ġsecond s
can Merge
Styles heet
protocol s
Ġspace d
ĠAST ERISK
Ġensure Object
Ġensure Function
Super s
ty pings
ann ingCell
hr time
bed ded
After Timeout
ĠRead Preference
Wallet Connect
ĠAc cessor
Ġword list
serialize URL
hsl H
splice d
Ġpad ded
Ġ'{ ';<
connect or
Assign ed
Process Cov
Browser s
ĠEX CLAMATION
Ad vanceStringIndex
ĠgetOwnProperty Symbols
watch All
Command s
Local Object
Local Storage
Ġtrans Url
xB F
sum mary
switch MapTo
Ġ(/^ \
po ser
Ġneeds Whitespace
Ġ'(' ;<
PO OL
Ġiv Len
location Object
Sp otify
NE W
hwb H
pseudo Class
missing Deps
green Bright
xml ns
Ġexact Iterator
GET TER
Ġresol ving
blue Bright
ĠCache ableResponse
({} );
Species Constructor
Ġnpm RunPath
Ġcmp Str
yellow Bright
isInside Escape
ĠST ABLE
Ġ'} ';<
Closing Brace
Ġrealpath Sync
CSSStyle Rule
VzIjpb ImRlZmF
Project Config
Ġminimum Value
255 19
Duplex ify
ycl ist
ĠNetwork ish
Ma jor
cyan Bright
dependency Factories
Ġascii Lowercase
Ġke eping
Ġsent ence
'} ));<
Ġaltern atives
white Bright
Ġtyped Array
ĠEd ge
roles Map
Ġty ping
specifier Value
Ġmac OS
ĠCA CHE
ĠHas Property
bgRed Bright
bgYellow Bright
Ġ`" ${
bgWhite Bright
bgGreen Bright
bgCyan Bright
bgMagenta Bright
bgBlue Bright
ĠAtt achedScope
Ġbecom es
ĠMat t
ĠTypedEvent Filter
ĠgetF ID
Ġterminator Pos
LmpzI l
bH QiXSwibWFwcGluZ
Ġ'= ')
ĠStr uct
Ġ214748364 8
getFirst Token
Kill AfterTimeout
enumer ability
Ġsen se
Ġincorrect ly
Strong Cache
ĠJsonp Receiver
ESCA PES
Ġmim ic
Ġna cl
UPD ATED
MOV ED
Ġqual ity
complet ions
eh uda
PLU GIN
ingPoint Number
ĠmaxConcurrent Workers
ĠAli as
Rab in
SU FFIX
hbW VzIjpbImRlZmF
coerc ion
SELE CTOR
isHidden FromScreen
ĠBrand on
CUST OM
EIN VAL
EPER M
toUTC String
ĠBele vich
ĠgetLC P
ĠgetTT FB
ĠgetFC P
ocolor s
hasAll Props
ĠDuV all
mattdu vall
isHiddenFromScreen Reader
' "
) ].
5 7
6 8
8 39
B ACK
D OUBLE
E ther
G it
L u
P UT
P ointer
R OUND
S vg
Y k
` /
a udio
b ile
e os
i en
m m
n av
s heet
t witter
Ã ¶
Ä Ļ
Ð ´
Ð ¼
ro uped
Ġf ocus
is View
is Infinity
is aac
Ġ( âĢľ
Ġ} .
Ġ} ]
Ġt f
an imation
ul ating
Ġp olling
Ġo bserve
Ġo ccure
pt r
Ġs pl
Ġm ount
Ġ" <"
Ġin spired
ey es
Ġvar iant
('./ ',
ĠT akes
ĠC ss
ĠS C
ĠS napshot
ĠS afer
cri ptions
Ġl in
Ġh i
Ġh ad
Ġh ole
Ġ? ?
Ġg ap
Ex ternal
ĠB l
") )<
") ["
Module Paths
Require Resolve
ĠR en
ĠR ipemd
__ <
Ġe Bias
ĠG al
ĠN AN
Ġv iol
ĠRe g
ĠF ork
Ġon error
Ġon PerfEntry
ĠD b
Ġset Interval
back Rate
Ġpre c
Ġpre flightCommitment
comp leted
Ġtest Case
Ġ3 00
dis k
ST ER
AR ED
ĠCon s
Ġcan vas
be red
not e
start s
Ġsub class
env Name
]) ,<
Ġlist en
Ġstream ing
Ġtry ing
ĠCom binedStream
Ġerr Inval
ĠJ avascript
api Key
av es
last Modified
Enc ryption
Ġk p
Check er
Style Declaration
time Interval
Ġwork ers
wrapper ForImpl
ĠFunction Expression
TS Lib
FE AT
merge MapTo
package Dir
ĠSource Location
check box
Ġ) }
Head ing
Ġswitch MapTo
30 8
Ġ'< ',
pad ded
Ġfree ze
Format Token
Ġ'_ ')
inner Comments
Ġneg ation
Ġmember s
Ġbind ings
New Line
User name
ĠSchema Env
Ġman ager
Ġ20 20
ĠAc cess
Ġprint ed
ĠText Map
keep Escaping
Media Type
Ġtrans fer
rad ix
Surrogate Pair
Ġdirect ive
Cipher Mode
Sp dy
Ġ'* '<
outer Value
Ġtmp file
Ġ". "
sample Time
Ġexecut ed
Month s
Ġsubscribe On
ĠEnc od
ĠEnc rypt
Ġserial ization
Sec retKey
ĠConnect or
TRA CE
ĠSpec ial
[\] ^$
ranch es
iterableToArrayLimit Loose
CHAR S
CLO SE
display Name
Ġinf late
ĠAnd rew
ĠINF INITY
TIME OUT
ToE ven
âĢĿ )
ĠRom an
Sl ider
ĠLook up
Ġreli es
abl ish
Pointer s
isaac s
$ <
% @
& .
* |
* (?:
- (
. ")<
1 31
2 80
4 80
5 476
8 2
9 28
; &
= ><
> `);<
A wesome
B B
D ict
D EN
E lem
F lush
F SEVENT
G MT
H sl
H PM
I PEMD
M ixed
N th
N EST
N ina
O ccurrenceOrder
P e
R z
R ULE
R LP
S ig
S ince
S quare
S urr
T SE
U INT
V ec
V olume
[ @@
b h
b Index
b roadcast
c loud
d irectories
e ase
f l
f ront
f irefox
f ilenames
g id
h at
h armony
i eg
j b
l index
m b
n l
n n
n af
p ile
p oly
p pc
p assed
p ragma
p rimitives
s Location
s urrogate
u ana
v aW
v itals
v Lite
w as
w here
x a
z h
| :
| ~
} }`)<
} })|
Ã ¼
Ã Ń
Ù ħ
â Ī
Ġ Debug
Ġ urlencoded
Ġ Â§
Ġ icss
re ous
er Rabin
in o
le ed
th s
th ru
th roat
al ys
Ġre open
Ġre fer
Ġre Combo
Ġre Opt
Ġre mote
Ġre peated
Ġre striction
de dent
de clar
se eded
se verity
un safe
Ġf ar
Ġf ib
Ġf ulfill
Ġf ragments
is Descriptor
is Constructor
is Negative
is Pending
is Draft
is Quality
Ġc os
Ġc opies
Ġ( #
(' ðŁ
pe er
Ġt anh
ction Context
an Literal
str ong
str ategy
ing Values
Ġo ps
as df
Ġs inh
Ġs calar
Ġb val
Ġb el
Ġb anner
Ġb ench
Ġb leed
Ġstr Symbols
Ġm b
Ġm time
Ġm antissa
Ġ" ::
ic y
om or
to IndexedObject
to Precision
Ġa Lines
Ġin divid
Re lated
tr bl
ap Manager
pl uck
get Item
get Holder
get Reason
get prototypeof
Ġw ildcard
Ġw nd
In Size
In formation
In ferredName
('./ ');<
Object ToString
Ġd ont
Ġis Equal
Ġis Null
Ġis Browser
() ]
Ġto Absolute
ĠC tor
ĠS ugar
ve c
import CustomPropertiesFrom
Ġvalue Of
Ġvalue Parser
Array Expression
set Max
Ġ1 010
Ġ1 000000
Ġnew Set
Ġtype Parameters
Ġ[ []
Ġstring Method
Ġstring Size
Ġst ash
Ġl ongest
Type ahead
res olution
Ġun wrapped
string ReplaceAll
string EncaseCRLFWithFirstIndex
ĠM ask
ĠM issing
Ġi Am
Ġpro gress
Ġh re
Ġg cd
Ġg rand
St rength
00 41
Ex ceptions
Ġobj Filter
node Name
String Prefix
ĠB races
ĠB INARY
ĠL T
object Path
object Reference
for ces
for kJoin
array like
iz able
iz ia
Ġsource String
Ġpath Arg
Ġget Is
Ġget Stream
Ġget Directory
Ġget Last
Ġget Global
Ġget Label
Ġget AllKeys
Ġget InternalState
ag ation
ĠR od
ĠR AD
ĠR IPEMD
ange reous
To Index
To Fixed
To Cursor
To Rgb
To Show
EN SYNC
ins pector
ĠI WS
path Arg
and s
ĠG UID
UR ES
ĠN EXT
Ġr am
Ġr hue
ĠObject Iterator
Ġ/ >'
ĠRe q
Ġse cp
Ġdefault Resolver
ĠF ALSE
Ġon etime
ĠO ptim
Ġen gines
Ġch okidar
has Native
has Unicode
has AccessibleChild
ĠD ES
ĠD avid
Ġset Headers
Ġset ToStringTag
ĠU ID
fe rer
URL Record
add Keyword
Exp iry
Class FeaturesPlugin
JS File
read Sequence
Ġpre cedence
ib ly
log ging
Com parison
\\ /#
Ġparse Accept
Ġes utils
Ġes next
ated By
Ġcreate Require
Ġcreate MathOperation
Function Prototype
Ġbase ToString
Ġarray To
Ġarray Push
Ġarray Sample
Ġ3 4
from Right
mo ji
ĠError No
arr ify
Index Size
class Names
lf Index
Ch annel
number s
pos als
Ġerror Obj
Ġfa ctor
State less
placeholder s
throw NotFound
sub mitted
ĠIn clude
ĠIn struction
Sync Plugin
Sync Cache
ST ACK
Ġcallback Called
Ġresolve Yaml
Ġparent s
slice Iterator
ook ed
ved Settings
json p
base ToString
base IndexOf
base Unary
Time Value
led Dependencies
ĠTo PropertyKey
Ġsub tract
fs cale
buffer Time
Ġstat Fn
Ġal ter
With Cause
new Value
ĠString ifier
]) +
open ingElement
convert SourceMap
Ġmatch Stack
Ġunder stand
All With
All Internals
Ġkeys In
39 0
jest Validate
Ġread UInt
Ġtry Convert
For Node
For Account
For ward
rule OptionsMapperFactory
Ġend Bit
post Message
ĠIs IntegralNumber
ms Crypto
Method Property
do ctype
html file
Ġle x
Async Subject
RegExp Char
Ġz one
Ġcache Has
Ġmod ifiers
Ġcurrent Target
postcss Minify
postcss Discard
Ġfirst String
load ing
Per iod
exp osedMethods
Transform ing
LA NG
Ġlast Group
Ġem place
Match ed
Match Node
Ġawait Wrap
Ref Error
stringify Array
bg Model
bg Rgb
bg Gray
bg Grey
prec aching
current Script
wh itespaces
Ġtime Interval
Ġschema Code
End s
End ianness
ĠNumber BitwiseOp
ĠInc re
Ġtext s
az iable
Ġremove Listener
Ġrequest Options
Var Range
Item Role
Ġcopy Prototype
IS MATCH
Prop agation
Ġsymbol Proto
Ġmeta Map
'] )(
Ġ'@ '
Ap pendor
Ġover Arg
compare Specs
schema Utils
Ġblock size
Ġqueue Microtask
RAN DOM
ĠDate FromTime
Ġvariable Util
Ġclose st
Ġclose Idx
block Tracker
Symbols Range
Frame Size
Json p
Ġstyle Name
merge Rules
ĠPar am
Ġemit Fore
some Arg
Log Level
validate Wsc
And List
local Storage
encode Int
transform File
transform FromAst
Ġad vance
Ġencode Non
Ġcustom PropertiesFrom
ĠNew Target
check FakeTimers
copy Object
Debug Current
Ġinitial Value
Ġinitial Scope
Ġload Plugin
LI M
ĠAsync Iterable
Ġbg Model
Ġbg Gray
Ġbg Grey
ĠX XX
Ġleft CurlyBracket
Ġleft ColumnWidth
decl s
Ġnative Create
Core Modules
Func Name
ĠEn ables
Ġreference Code
ĠUn ion
weak map
Ġscript Cov
strip Indent
ĠIterator Close
ĠIterator Proxy
dot All
)/ ,
ĠDe clare
\/ \/
Ġrs ZW
Ġrs Closed
Ġrs Fitz
Ġrs Regional
Ġrs Surr
Ġrs VarRange
Non Astral
Ġraw End
mark o
EX ACT
200 3
200 6
200 8
200 9
ĠDE G
inner This
ĠConfig Loader
exit Code
Modules Dirs
Ġqu ota
ĠRE F
ĠRE PLACE
jsx ExpressionContainer
run In
Parse Float
mut ation
ĠPre fix
ĠDOM Iterables
ĠAny ValidateFunction
Left CurlyBracket
Left Parenthesis
JSX Identifier
New lines
pending Header
Ġmain Fields
big u
ĠStream Cipher
ĠParser Options
ĠParser Helpers
Client Additional
Hook State
Ġrelative Index
ization Level
Section ForNode
break Loop
Merge Deep
Merge Exclusive
Neg otiator
ĠCON STRU
.* \
abc d
}\ })|
Ġpreserve ConsecutiveUppercase
Ġabsolute Runtime
Ġcontain ed
Ġcoerce ToInteger
expression Statement
Search Provider
media Slash
Foo BAR
Local Names
Ġvisit ors
ĠColor Support
sym metric
Ġvisitor Keys
ĠValidation Options
Ġdisallow ed
ĠIterable Element
23 01
ĠForm Data
Ġprodu ce
ITER AL
Ġordinary OwnMetadataKeys
cap acity
total Percent
trans ition
CD O
Ġgot CR
ĠContext Dependency
final ize
final Callback
Ġdepth Arg
}| {[
LOW ERCASE
Inner HTML
ĠgetOwnPropertyDescriptor Module
Ctor String
45 2301
cd ab
ĠAccount Balance
take Last
Ġbound This
pretty Bytes
ĠEmit ting
FIX ME
hsv H
ĠWorkbox Event
While Statement
ĠNull Factory
bad cfe
Ġexposed Methods
}/ );<
Ġsc roll
ĠparseFloat ingPointNumber
vens ht
ĠforcedString Trim
high WaterMark
Ġbalance End
CHE CK
(/[ {}
ĠDependency Reference
67 452301
Are as
ĠEventTarget Impl
YAML Map
ĠOrdinary GetPrototypeOf
Fail ures
getProp Value
Ġrealpath Err
Ġstub False
isHex Literal
isHex Digit
sorted Last
sorted Uniq
Project s
Atrule s
Atrule Prelude
ĠbgB lackBright
ĠrsCombo Range
ĠrsCombo MarksRange
ĠrsCombo SymbolsRange
Ġoptim ized
(/^\ {
Ġhidden Keys
\/\ //.
DIS K
Ġindic ates
PROTO COL
Unary Expression
ĠonF inally
DOT ENV
Ġassignment Expression
DR BG
Find Index
Manifest Entries
Closed Tree
ĠEmptyError Impl
Ġ'# '
UI Event
Ġrad ians
Gray Args
bund ledDependencies
ĠUN DEFINED
Optim ized
bgH sl
bgH sv
bgH wb
Uppercase Letter
Ġta ken
Ag gregateError
Ġbrowserslist ConfigFile
Compat ible
Compat ibility
ĠConditional Except
ĠConditional Pick
ĠisArrayLike Object
WyJ kZWZhdWx
}] `;<
Inf Literal
Ġlar gest
ĠCA PITAL
ĠOption al
Ġ'\\$& '),<
POSIT IVE
Delay edStream
ĠSer vice
Ġhmac Sha
ĠuseNative Sync
Ġ`- ${
Ġec ma
ĠMat thew
ialog Role
Half MarksRange
ĠKeys Type
ĠgetNode ModulesDirs
ĠbaseProperty Of
ĠbgRed Bright
ĠbgWhite Bright
ĠbgGreen Bright
ĠbgYellow Bright
ĠbgCyan Bright
ĠbgMagenta Bright
ĠbgBlue Bright
ĠCar uana
HOL ES
Streaming Transport
ĠLINE BREAK
prepublish Only
EventHandler NonNull
;[ -
ĠisNative ReflectConstruct
ĠMOD IFY
Browserslist ConfigFile
xef cdab
jasmine Utils
ĠSection Metadata
ĠDiscrError Obj
TRI BU
}|\ {[
ĠSubscribable OrPromise
Dispatch er
ĠMill s
FILEN AMES
ĠfindMade Sync
ĠNewThing One
Dif fs
ĠLodash Wrapper
ĠnumberOf Args
helperCreate ClassFeaturesPlugin
ĠrsOpt Var
Svgo Config
deem able
ĠRecursive Visitors
ĠOffset Buffer
assignment Expression
toBeThe StoredLevel
ĠWEB KIT
ĠWorkspace Pattern
Õ§ Õ§
Ġrsv p
1032 5476
babelPluginPolyfill Corejs
ĠSEPARATOR S
Parenthes ised
ĠMutation Record
alphanum Sort
getOrCreate PrecacheController
ĠPut s
helperValidator Identifier
ĠcanUse WorkerThreads
Ġimpro ve
ĠTsConfig Loader
ĠReaddirp Readable
evp kdf
Ġpb kdf
ĠLower case
isen berg
Interceptor Chain
NonPrint ingValues
refe ree
ĠSKIP S
Money ForAccount
:=? %@
ĠTR UE
clam ation
ĠWeek Day
Assigned Names
ĠGal izia
FEAT URES
&. :=?%@
alys is
ĠreCombo HalfMarksRange
ĠreOpt Mod
Ġcos metic
InSize Encoding
ĠtoAbsolute Index
ĠiAm Generator
ĠIWS ClientAdditional
\\/# &.:=?%@
ĠErrorNo Params
IndexSize Error
ĠtryConvert ToPromise
ĠemitFore st
DebugCurrent Frame
ĠrsZW J
ĠrsSurr Pair
ĠCONSTRU CT
ĠforcedStringTrim Method
(/[{} \\]/
NonPrintingValues Transformer
ĠIWSClientAdditional Options
\\/#&.:=?%@ ~
" /
- (${
/ ,<
1 39
4 30
8 34
? ',
@ __
B ag
D b
F K
F IN
F inal
K eccak
L N
M ALL
N FT
S ynchronous
S PACE
S lot
V ideo
W R
] ');<
_ ${
` ');<
c ing
e ven
g c
j ul
l r
m oo
n b
n tr
o perations
p r
s anity
s anitize
t re
t unnel
x ffffffff
x EC
y ent
z one
z eros
Å Ľ
Ñ ĩ
Ù Ī
on Data
st age
le ep
al phabet
Ġre fs
de materialize
un zip
qu otes
is Reference
Ġc ut
Ġc ntr
Ġ' '),<
Ġ' ===
Ġ' =':<
Ġ' ==':<
Ġn Bytes
ing Mode
Ġp t
Ġp ing
Ġp oly
im ate
Ġfunction ality
Ġ" ^
ic z
to PropertyKey
to Locale
Ġin variant
Object UnsubscribedError
id le
Ġis Property
Ġis Root
Ġis Glob
Ġis Special
op ing
op Observable
/** /*.
ĠC opied
ĠS MALL
ub y
Ġan um
Ġ! ('
Ġde pending
Property Bag
Ġst ores
Ġst andalone
Ġl anguages
Ġun esc
ĠM ichael
Ġh ello
uff led
Ex ist
ĠA ss
node ModulePaths
Def ined
ĠB ut
ĠB uffered
wn d
ĠP RI
ĠR UN
Ġ2 000
and roid
text Content
ĠN B
ĠN ormalize
ĠN eed
Ġcom es
ĠObject Id
Of Year
ĠF E
Ġon Rejection
Ġon Click
Ġcall Expression
ĠO wn
Ġch r
ĠD en
SE vents
Ġthrow ing
ĠW arn
ĠW ARN
ĠE ach
Ġassert ing
dir Exists
log ical
\\ \\
jo yent
ac cepts
([ ...
ĠIn herit
ĠCon tent
min ver
Ġnext Value
Impl ForWrapper
PE CT
Ġiter ating
ts x
ĠSymbol Constructor
Ġcheck Global
ne q
ĠCom put
sc r
Sub mit
Ġdir Exists
mat ic
Ġchild Path
Ġchild Process
Ġdis posed
ph ic
ĠK eccak
Message Event
Ġutil ities
12 3456
common s
Line Number
Ġ'[ ')
DE P
HTML Collection
Prop Types
Ġignore Elements
compare Build
Ġescape Html
Component Update
Ġjs dom
Not ifier
]+ \
]+ ')<
skip While
]* ${
cb c
check ed
ock JS
Ġmerge MapTo
Dis able
ĠCSS StyleDeclaration
Ġ'< ':<
Ġ'< =':<
Ġinner Index
Ġ[" -
Ġ}) ();<
Ġconcat MapTo
wallet s
New Arrows
COLOR S
Ġstatus Code
ĠTh rottle
Ġapi Key
inst antiate
ĠCre ating
Ġ'! =':<
Ġ'! ==':<
Initial Props
]| $)/
Ġ`(?: -?
Ġ`(?: \\+
Ġ`(?: -(${
po ch
sources Content
Ġel ap
ĠBrowser sync
([] ),
Inner Comments
Ġ'> ',
Ġ'> ':<
Ġ'> =':<
Ġcombin ing
ĠTransaction Instruction
Assignment Pattern
ĠWorker GlobalScope
*? +
Ġpermis sion
Termin ator
calc ulate
war der
*\ |\
Ġindic es
Deprecation Warnings
hd key
Leg al
Ġseparate ly
(/^[ =
throttle Time
Ġaes Cbc
CLO SING
ĠPop ulate
-]* ')<
ĠInter opObservable
Inst alled
Modal Provider
Inf late
CLI ENT
ĠMer ges
remote Address
ov ic
-]+ ')<
Indic ator
COMPARATOR LOOSE
ĠSem aphore
ĠDecor ate
Ġ'((?:<|>)?=? )')<
!@ *?+
Mill is
DEPREC ATED
Ass oc
Ġlin eno
Ġ'=== ':<
Ġ`(?:-? (${
Ġ`(?:\\+ (${
" (
" >
# $%&
' ve
) %
) '));<
* $/
+ )/
, -
- ${
2 001
7 3
7 29
8 11
9 55
: ')
: ${
B in
C lock
C orrect
C ORS
C osmiconfigResult
F O
F amily
F oot
G l
G as
I ZE
I MPL
J BLE
L iterals
O STYPE
P rinter
Q S
Q iO
R atio
S uggestion
T s
T RAN
V is
V isible
Z m
Z cf
[ :
\ {
a ins
c UJBQW
d t
d Props
e de
f ers
f sevents
i B
i los
j un
j erman
k p
l imits
l prep
m im
m ore
m iss
m eter
m icrotask
n os
n ary
p urpose
q ry
s n
s css
v ak
x FA
x FD
y er
Â °
ð ł
Ġ ENT
Ġ icon
Ġ Dependencies
ģ Ñ
on Test
on ParseError
in p
in et
Ġ{ $
al ready
Ġre Escape
at as
---- --<
un ctor
un wrap
qu x
is constructor
is Match
is CodePoint
is WhiteSpace
is Thenable
Ġc osh
Ġ( (_
Ġ} (
Ġ} :
var i
(' //
(' }');<
pe e
Ġt n
Ġt dz
Ġt idy
Ġn l
Ġn ice
if e
ul a
Ġp np
as lprep
>} );
ed Suffix
Ġs anity
im mer
Ġb om
Ġb est
Ġb are
Ġb enchmark
Ġb ulk
il on
** <
Ġm em
Ġm ixins
ab ling
um d
Ġ" &
rom pts
to Sorted
Ġa Path
Ġa Index
Ġa stral
Ġin p
Ġin finite
Re moval
Pro filer
tr ust
get Call
get Style
get Parent
get Worker
get Hook
get ImplicitRole
get Current
In ject
In fer
Object Expression
(" :
(" [
Ġis Color
Ġis Tag
Ġis CSS
Ġis Undefined
Ġis React
Ġis SafeInteger
Ġis Punctuator
Ġis Mergeable
ĠT ab
ĠT Args
Ġto Key
Ġto ByteArray
Ġ& =
ĠC ST
ĠS end
default View
import ed
import Declaration
Error Code
Ġvalue Index
._ .
are st
Ġan alyze
ctor s
Ġ1 7
Ġnew u
Ġstring ToBytes
Ġl amports
Type Check
Type Reference
Type Duplicates
ĠM ilos
Ġg zip
Ġg OPN
Ġas n
ĠA SYNC
ĠB ound
Map pee
ĠL cov
ĠL abeled
Ġnode Data
Module Export
Module Import
array Format
ĠP LA
Ġget All
Ġget Match
Ġget First
Ġget Env
Ġget Window
ag ing
Ġkey Len
ĠR SV
To File
EN CE
__ `
__ ');<
__ ',
__ ',<
ise lect
Ġv endor
map FileComment
call ing
Of Project
Ġnumber Hints
ak o
pre load
pre sets
err back
ĠF ire
Ġen counter
Ġen hance
Ġch own
Ġch mod
has own
Ġval s
ĠD iv
ĠD jerman
ĠU P
Ġfile Details
add Default
test Result
Symbol ToStringTag
ify Content
Ġassert HasLoc
cur ves
({ ...
({ }.
Un quote
Ġ'./ -
ĠH ere
ĠH ybi
ĠArray Iterators
Ġparse Type
Element Dependency
Element Stack
Ġcreate S
Ġcreate Parser
ax ios
from Event
from EventPattern
Buffer s
ang er
Index er
parse Query
parse Wsc
At Rules
At Least
class ic
---------------------------------------------------------------- ------<
Ġat omic
helper Module
helper Buffer
helper Wasm
Ch rome
pos ables
red Sub
ĠIn spired
AR CH
ĠCon struct
Pl aces
32 4
An alytics
start Dir
From List
From Raw
Ġfs Stat
Source File
ĠJS API
Ġal g
With Value
With SourceMap
By Path
By Identifier
Ġversion Util
new Line
ard hat
Ġare a
Ġcur ves
write Enc
Role Map
Case Insensitive
OM ISE
FI FO
Token CodePoints
Token WithValue
rl p
apply Prefix
ite e
Ġadd AbsolutePath
Ġcheck StrictMode
Ġmessage Type
gr and
[' "]
Length Unit
Config Up
(/ ([
rule Id
Pre face
RE CTION
Ġcb rt
SI BLE
child s
event source
Method Name
Ġshould Use
Ġshould Skip
IDENTIFIER LOOSE
Ġbreak Options
Ġinput s
method Names
max DataSize
Ġline Number
Ġcompare r
CSS File
CSS select
Ġcurrent Node
PR NG
Ġcl z
load Cache
Ġ/* @__
}) `);<
remove NonPrintingValuesTransformer
Ġlast IndexOf
Ġrule Name
Sh uffle
Sh rink
tt ify
tt ier
Ġ/^ (?:[
current Element
ĠV IS
Be hind
Ġfind er
Ġfind Variable
Ġformat Exclusive
Ġpattern Object
Block Tracker
Ġremove Sync
Ġremove All
Ġimport Fresh
Qu ota
JSON Sync
Ġreplace SubstitutionTransformer
Pattern Index
Pattern Visitor
med iates
Literal TypeAnnotation
num Bits
Ġover ri
ik tok
Ġescape s
Co in
ĠEx ec
ĠEx clude
Ġprovi des
Ġblock Tracker
ĠRange Value
ĠRange Tree
first Char
Ġcontent Path
redu x
Inter polate
xt uc
Comment Line
report WebVitals
Work ing
Ġsu itable
enumerable Only
)? \\
Author ity
]* (?:(?:
package Json
Ġgenerate UUID
Ġexec ution
Ġglob s
ĠAsync Series
worker Path
Ġvalidate Object
man Watcher
generator s
ĠEn umerator
Column Number
Ġfree Self
pair wise
component Name
Ġhex adecimal
Ġ'_ '
app le
Ġraw Value
original Array
Ġ] ');<
active Count
Ġar bitrary
Ġidentifier Node
200 4
200 5
decode d
ĠDE FAULTS
ĠDE LIM
Ġsupports StrictMode
pub key
Ġzero Pad
ĠRE ACT
non String
same value
can iuse
slash es
CON D
group Collapsed
29 1
Ġthere fore
JSX Text
JSX AttributeMock
supports StrictMode
ĠMo use
ĠBy te
ĠWork s
Ġ(/ \
Ġplace d
Ġansi Escapes
ĠAc cording
zip Object
Plain Value
Ali ve
Section s
Ġtimeout s
Ġunique Items
Ġextract ed
Ġim ul
ĠInt egration
attribute List
ĠAl so
edit able
Ġredu ction
Ġredu ced
ERC ENT
Ġplural ize
traverse Flags
Ġwarn Once
timeout With
Ad ded
Ġshorthand Setter
keep Quotes
Ġtrans pile
Ġflatten ed
Interop Observable
Mult iline
Mult iplex
Paren Token
transport Name
Ġ'? ')
Fix er
Ġdec imals
Ġdigit Only
Filename Template
cut Off
Ġindent Level
Partial Config
Partial Response
Ġgo od
auto complete
ĠPl aceholder
lch L
Ġpop Scheduler
Relative Config
codePoint s
Ġmut ex
Ġinsert Before
ĠCur sor
ĠgetOwnPropertyDescriptor s
Ġdelta InSizeEncoding
Ġlch L
Ġmemo ized
Ġmemo ization
Ġfinal Callback
Ġlower case
EXT RA
Ġtem poral
Ġ\' {{
Sc oping
ĠNull able
Js x
dispatch Event
ĠLoc ation
Ġnested Options
ĠNUM ERICIDENTIFIER
ĠPer formance
Ġip addr
Post Formatter
register Walker
Label able
ĠYAML Exception
PON SE
010 20
Ġinline ArrayTransformer
SING LE
Unit ed
sTo Run
delay When
Sec ure
Ġabort ed
cm N
Ma XN
Ġindic ator
dependency Templates
ĠSync Hook
ĠElement Type
Ġarity N
ĠtoPos itive
Water fall
ĠMerge Exclusive
ĠValidationError Configuration
Wait For
ValidationError Configuration
ĠHook CodeFactory
Ġnormal ModuleFactory
encrypt Block
lower Case
lower First
ĠCommon ModuleMetadata
1111111111111111 1111111111111111
Help Formatter
Mutation Record
Optim izing
settled Value
Hand ling
isInteractive Role
Ġstake Pubkey
ĠAR ROW
ĠUI EventImpl
Inst all
Qual ified
ĠAgent Callback
Tagged TemplateExpression
optim izing
Ġlock file
ĠFULL PLAIN
getToken Before
Contains HTTP
ĠAbstract Range
Ġpages Config
ĠPost Formatter
Ġdelimiter s
REQU EST
ĠPAT TERN
-+ ]?
Upload Music
ĠCompile Error
iw ic
ĠBU ILD
ĠImmer Scope
LmpzI iwic
negate Padding
tx QkFB
ĠWith out
vide o
free Global
ĠLA MPORTS
ĠXRANGE PLAIN
Explorer Base
relevant Document
temporal Undefined
resol ving
ĠFS Watcher
Ġwave Contract
Ġsuggest ions
ymmetric Matcher
duplic ates
ĠVAL ID
ĠMA INVERSION
Ux pc
LIP PED
áĢ¬ _
ĠDotenvParse Output
ĠLOOSE PLAIN
IZ ED
fj Stream
Ġprob ably
IterResult Object
Ancest or
Force Color
ĠLock up
Yk EsTyIsImZpbGUiOiJpbmRleC
ÄĻ Äĩ
Vis itee
cUJBQW JBLE
vak ame
ĠisPunctuator TokenWithValue
OfProject sToRun
ĠDjerman ovic
ĠaddAbsolutePath Keyword
ConfigUp wards
Waterfall Hook
txQkFB YkEsTyIsImZpbGUiOiJpbmRleC
! ");<
! ')<
" ])
' +
/ )
9 000
; \\
> .
> ');<
> ]:
A rab
B ut
C AL
E F
E AK
L inter
L anguages
M em
N EXT
P romisify
R UN
S UP
U A
U TE
U AGE
V y
\ (\
_ <
a co
b asis
c ampaign
d ont
f re
f lip
g im
g no
m em
n om
o United
p ool
r tl
r aries
t rigger
w sl
x CE
| -
Â ©
Ġ esModule
ĳ Ģ
er Or
in v
th eme
al ar
de ps
ro b
ro d
un handled
Ġf resh
Ġc aches
ul mill
ce ive
Ġs izes
ch id
lo ur
per formance
il st
ate As
to Promise
Ġa i
') ];<
use Color
Ġvar i
ror and
In dig
Ġd ummy
ht yl
Ġis DataDescriptor
Ġis WhiteSpace
() ))<
Ġ& <
ĠC lear
ĠC BC
ĠC ORRECT
ĠS top
ĠS htyl
set FullYear
Ġ` #
Ġ1 50
Ġde tection
row ds
return Type
ĠB ack
ĠL ib
ĠP ush
Ġget Len
ĠR OOT
To Buffer
__ )
ER S
Ġe ar
ĠG O
ĠG it
ĠG IF
ĠN ormal
ĠN FT
ĠObject Disposed
Ġ/ \.
ĠRe ceived
Ġdefault To
ĠD el
ĠW HO
next js
ip c
out Size
Ġby pass
Ġobject Mode
ord in
Ġuse less
Un authorized
ĠH and
ĠH EL
Ġcomp lement
IC ODE
Ġ3 3
ded uplicate
parse SourceMap
vi ded
[] >(
Ġsh all
red I
github user
Se en
ĠIn dent
AT FORM
Pl us
char d
not Regex
Ġversion Array
Tr usted
Ġadd Slice
Or Many
Ġread Shebang
LO BST
sc alar
Ġj Query
pa ulmill
ph anumeric
Ġline Count
overn or
Ġgener ally
>/* !<
spec ified
remove EventListener
LA Y
Char sets
Ġ'[ \\
Ġ/^ (\
current Path
ĠAn imationFrameScheduler
Ġbrowser ify
Ġmake File
Ġmake Link
TH ROW
Ġover lay
ĠEx ten
Ġpart ic
exec utor
Ġqueue d
sp dx
Listener Count
merge Scan
Ġoriginal Emit
*/ )<
Ġ9 6
transform s
Invalid ArgumentError
Ġempty Dir
Ġprogram ID
ĠSource Find
Prefix es
Ġ<< =
Ġdep Site
man ded
RI PEMD
pad Length
Ġinner Observable
Ġinner Subscribe
Ġdelete Item
column Number
ĠAdd Gif
with LatestFrom
Ġtim ers
Define Property
Custom Cwd
No thing
window Time
ĠDo uble
Ġ] ),
Ġ] ));<
Ġter m
inner Subscribe
Ġcre ates
initial ized
agent s
TR OL
Ġ{* }<
Ġ': ')
PAT CH
One OrMany
ĠTest Scheduler
Wallet Address
ĠAc cepts
ws Server
Paths Sync
ĠComp iled
Ġtimeout With
66 6
ĠEX ISTS
Without BOM
PA CK
publish Replay
meta CharsRegExp
ĠNot SupportedError
ĠNot ImplementedError
uD BFF
px Data
Ġshift ed
Ġprodu ction
relative Path
Ġ19 70
Sp an
bl ank
System Program
lch mod
PER S
Leading Comments
db Info
gra des
take Until
Ġhint s
Ġdiv ision
Ġplaceholder s
Ġcodec Def
Ġcodec Options
Locale File
ĠcallSite ToString
ĠcallSite Location
ĠEnc oder
Ġ'^ $
BOM Wrapper
QR Code
Decode WithoutBOM
sw ap
Ġ'+ ';<
Ġpacket s
cer n
Ġcomparator s
ĠUp load
decor ate
Ġsec ret
ĠMongo InvalidArgumentError
calc ulator
Anchor Provider
SUPPORT ED
Render ing
SIT ION
ĠSimple OuterSubscriber
ĠSimple InnerSubscriber
Ed wardsCurve
Pred icate
Ġeno ent
Ġtrunc ate
ĠLine Range
HEADER S
ĠUI EventInit
Ajax Observable
ĠExt glob
Ġrece iving
ĠNeg otiator
rm dir
Ġaudit Time
ĠChain Id
ĠSY SVAR
ĠsymlinkType Sync
sys call
ĠDom ain
('{ ')<
subscription Error
wnaf T
ĠPass Through
TDZ Error
ĠAsap Scheduler
prior ities
ĠAssertion Error
omor phic
LANG UAGE
PECT ED
ĠComput es
SUP PRESS
gno res
erOr Provider
ateAs Pure
Indig oUnited
ĠShtyl man
rowds ale
ĠgetLen s
ĠObjectDisposed Error
ĠWHO LE
parseSourceMap Input
githubuser content
LOBST AR
paulmill r
ĠSourceFind Position
OneOrMany Args
$ '
$ ^
% ')
% ])/
' ><
' **
+ .
1 010
6 952
8 85
@ #
A es
B eg
B IN
B ob
B abylon
B ODY
D K
E V
F ee
F loor
F ragments
G loss
H ID
H ide
H yb
H DKey
I stanbul
L S
L ifecycle
L ITERAL
M aW
M argin
M agic
O IZED
P ow
P ING
P udding
S mall
S lotable
T Result
U DO
V iol
V owel
W AR
W ILL
X or
X Document
Z Y
Z ING
\ ./.
] $/;<
a len
b uff
b urr
c u
c w
c ust
d A
d w
d od
e lectron
h yperlink
h uffman
i ary
j an
j unction
l tr
m Unicorn
n able
n of
o ct
o per
p ify
r ÃŃ
s r
s u
s Row
s quee
s ibly
u ul
u Options
v Q
v w
v ig
v endors
x l
x u
} }`;<
Ã ©
Ð ½
Ø §
Þ ª
à §
à ©
à ¯
à ³
à ¼
á Ł
Ġ ,<
Ġ jo
Ġ arch
Ġ raf
re tain
on read
on drain
in List
in ux
Ġre strict
Ġre assign
Ġre serv
de coders
de nodeify
se v
ro tate
en coders
un This
un quote
Ġf it
is Map
is Index
is Literal
is integer
is Super
is Pseudo
is Delim
is Windows
ur ch
Ġ( (/^
ire nt
ort en
Ġt e
Ġt ick
Ġt weak
Ġ' ),
Ġ' ...
Ġn yc
Ġn avigate
Ġn aming
Ġp Access
onst ream
Ġ_ `${
Ġs parse
Ġs mean
Ġs sri
ch ownSync
Ġif ace
il k
ol icy
Ġfunction Cov
Ġm edium
to Reserve
Ġin trinsic
Ġin strument
') ));<
Re curry
Re mainder
ap r
use Native
('../ ..
get Prototype
get Metadata
get Full
get Siblings
get Hours
get NodeName
In Scope
In Statement
In direct
In FCQUF
Object State
Object Pattern
Ġtr ick
Ġd h
(" =",
Ġis Mask
Ġis Remote
Ġis Opening
ĠT Default
ĠT ask
ĠT apable
Ġto Sequence
Ġto ShortString
/** ',<
Ġcon t
Ġcon secutive
Ġcon junction
Ġfrom String
ĠC ard
ĠS inon
ĠS calar
Error Matching
Ġvalue Type
ber to
Array State
set The
set Hours
Ġ` ;<
Ġnew Bytes
Ġde ad
Ġde ps
Ġde tached
Ġde structuring
Ġde cycle
Ġstring ified
require ObjectCoercible
Ġst and
Ġl stat
Ġl ayer
Ġl ikely
Type Node
Type Selector
}< /
ĠM ac
ĠM iddle
ĠM EM
ĠM AG
ĠM imeType
Ġh lo
Ġh its
Ġh ose
Ġg OPS
00 6
Ex cludes
Ex plicit
Ex perimental
ĠA RI
ĠA DD
ĠA PIs
ĠB ACK
ĠB fjStream
") [
") ("
Ġnode Impl
Ġnode Root
Module FilenameHelpers
array Style
Con tinuation
Ġsource Length
ĠP LU
Ġget Name
Ġget Filter
Ġget Raw
Ġkey Schedule
To Be
To Location
To Intersection
EN SIBLE
Default Specifier
Default Logger
ER Y
ĠI Options
ĠI MPORT
ĠG rowl
Ġr rows
Ġcom bine
param eter
ĠRe lative
Ġse ssions
Ġdefault Glob
Ġdefault Bit
ĠF ri
ĠO mit
code shift
Ġch anging
has In
ĠD iff
ĠD ynamic
SE UDO
Ġset InternalState
ĠU NS
ĠU ntil
ĠType Parameter
add ToUnscopables
Name Details
test Name
test dir
Ġlet Proto
ĠE m
ust on
create Socket
create Wrap
form Control
form sTo
Path Sep
Ġobject WithoutPropertiesLoose
Ġhas PropertyDescriptor
comp osed
01 1
Un ified
ush rn
ĠArray Iterator
Ġparse C
Ġtest Str
Ġcomp lex
Element Map
Element List
Ġcreate CaseFirst
Ġbase Each
Ġbase Ctor
Ġbase Flatten
Ġbase Times
Ġarray Each
Ġarray WithoutHoles
from Map
from Base
from JSON
Range Iterator
Range Tree
Ġy i
Res erved
parse Context
parse Measurement
At Rule
At Keyword
Ġat anh
Call sPer
dd d
File Utils
List Node
List Role
red its
11 28
replace SubstitutionTransformer
AR GET
Set ting
("../ _
ĠCon tinu
que ues
Ġcallback Stack
Ġparent Property
32 928
base Id
Time Role
Time Scheduler
From Array
buffer Count
buffer When
buffer Toggle
resolve Seq
args OrArgArray
By LocalName
16 8
new Plugins
ĠPromise Inspection
list Cache
loc als
LE B
Event Observable
strict Zeros
Color Scheme
ĠMath ias
Or A
Or Close
[' $'
jest Worker
jest Resolve
forEach Right
As sets
(/ ./.
Pre cache
Pre processor
Pre cached
RE ARG
raw Cache
raw Start
result Name
Cache ableResponse
Ġne Attrs
ĠJ oin
Ġmap ToArray
child Scopes
sc ing
event Listeners
Method SetState
Ġdir Glob
ĠNode Error
Ġinput SourceMap
Async Kit
bo op
tra cker
Names Map
20 70
state change
Ġid Obj
Ġrange Cov
filter Out
Ġmin Timeout
>' \
Ġline End
Ġcol late
Ġcurrent Path
Ġcurrent Types
cache Data
load MjsDefault
lat in
promise Callbacks
Pos itions
last GeneratedColumn
Per formance
Ġk Value
Ġlast GeneratedColumn
Ġwrap ErrorConstructor
Ġ/^ ([
Ġ/^ -?
On Expectation
ĠSt ep
ĠSt ake
ĠSt orage
ĠSt andard
ĠPro vide
current Stream
ĠV i
Script Covs
Ġfind Parent
Ġnon IterableSpread
BU L
bar Role
md ns
Ġro ll
AN G
box Base
Ġimport EnvironmentVariablesFrom
Ġone Line
Ġone TimeContext
Qu eries
Ġmake Test
Ġprops Util
Wrapper Value
Ġreplace ResultTransformer
generated Line
generated Column
'] ],
Web AreaRole
num Scope
Ġparsed TypeCheck
CH AK
CH ANGE
ĠHTML Element
ĠEx pect
exec Argv
Ġwindow Names
element At
request s
Text Plugin
Ġvariable Declaration
Ġreport s
observable s
Comp ression
main Error
Ġoriginal Url
Ġoriginal Fn
comm as
Ġbuild Groups
Ġuser Options
Target Plugin
curry Right
Log Entry
Log Missing
Ġdesc endant
hex To
First Pause
local forage
Chunk Ids
Author ization
Queue Scheduler
update Hash
Ġback ward
skip Last
Right Parenthesis
ĠWeb socket
flat Rest
package Name
Ġquery string
ĠCode c
ĠCode Path
Ġcolumn Number
'. ",<
Export Declaration
Export Imported
ud vig
Last GeneratedColumn
net works
Ġinvalid Win
Ġglob Partial
Ġclone ArrayBuffer
Al phabet
Global Object
Ġ') ');<
Ġsingle Run
mult ibyte
Has Property
Query String
Static PropertyName
Dis allow
Dis joint
Width Space
substr ToCursor
worker Farm
Ġser ving
RI ES
Ġnative ObjectToString
Ġtransform ations
[\ ]{
ĠCreate DataProperty
reference Node
Rest Property
Rest ore
dot s
ĠDe legated
Ġthen Branch
dist inct
BE L
Ġ100 6
Ġcons umer
Ġcons ider
rid ge
No MethodSetState
window Count
window When
window Toggle
ATOR S
]/ );<
Before Reference
idl Utils
Non WS
original Source
original Line
original Column
inally Entry
Root Dir
Ġzero WidthSpace
repeat When
run ning
Ġsocket s
Ġstruct ures
Ġloader Utils
Out side
Parse Token
Ġbit Index
ĠIN V
ĠIN CORRECT
structure d
ĠID L
ĠBigInt Equal
19 2
produ cers
Ġeach Of
Over lay
ĠAST Node
Ġensure PlainFunction
Ġ"' ")
fails Constraint
29 729
Tree Walker
Lint Result
User Key
insert ion
insert Text
ĠSchema ObjCxt
variable Declarator
Ġsome Variable
Ġq s
ting ElementList
Reference Error
Namespace Specifier
CK LIST
Wallet Adapter
script Cov
top ic
QU AR
ret v
Ġdel im
Ġdel imit
ĠComp letion
(? <
Group Role
ĠJson Array
ĠJson Value
Ġapi Rejection
Ġtimeout Id
COM BIN
ĠSE CTION
ĠSE EDED
Matcher List
ðŁ Ĳ
resource RegExp
client s
Ġunique Filename
Mock Type
gy Pudding
Ġequal ity
ĠAl berto
Ġer ase
subscribe To
Ġloop s
ĠReference Tracker
ale scing
spdy Version
Ġ[] };<
Ġshorthand Getter
ĠToken Stream
ian Vowel
ĠLog Level
Ġcompiler PublicPath
dec imals
ĠDis play
Ġreal Path
ĠAjv Core
INF LATE
UPP ERCASE
ATCH EXEC
Ġdeep CyclicCopy
sum By
Unicode Flag
Single EntryDependency
Padded LEB
ĠFile Options
ĠFile Result
Ġextra Error
Ġ/^\ //.
Exports Dependency
ĠSameValue Zero
CD ATA
Ġauto Watch
Ġcached Result
Binding Identifiers
Ġmut ate
ĠDeclaration Block
visit ors
ĠOr der
ĠRaw Section
selection End
Random Bytes
&& "
EXT ENSIBLE
Trans ition
(?! (?:
Ġspawn Sync
page Size
ĠData ToEsm
boun ced
ĠProxy Type
Ġ(; ;)
Ġinject ed
Join Observable
na cl
("\ ""
conf irmed
Break s
Ġdynamic Ref
Ġbug gy
isString Literal
Ġcontaining File
79 32928
Padding Bytes
Ġconnect ed
retry When
getLocation FromList
WORD S
Closing Bracket
Ġstub Array
Split ter
auth enticate
Multi plier
Semantic Error
ĠSTR ICT
\/\ *
Ġindic ating
ste in
Ġsmall er
Water marks
ĠAd vanced
Ġ'] '<
ĠChunk Group
ĠChar acters
DR Object
Ġsigned Int
stub Array
stub False
Ġbox ed
ĠblockSize Bytes
ane ous
Ġiframe Utils
Ġterminal Link
atal Error
Ġ'% %')
compact able
uniq s
released Label
Ġbegin ning
Rl bn
Ġ98 76
collect Coverage
ĠIssue Origin
ĠIssue Severity
ĠisHex Prefixed
ĠcombineLatest All
ĠExtract TextPlugin
Ag greg
Ġrebase Config
Ġpick Mem
ĠXHR CorsObject
Ġalphabet IndexMap
CLO SED
Ġ.. ._
ĠcreateIterator Constructor
Play ing
ĠordinaryHas Metadata
vb mV
debounce Time
ĠXhr Driver
ĠSingle EntryDependency
Lazy Wrapper
Ġeffect s
EventPattern Observable
sequence Equal
Ġfig gyPudding
Ġlock up
ĠLazy Result
JsonRpc Provider
ĠBit coin
ĠgetSymbols In
Struct ure
Ġdecoded Tag
Usage Rows
Ġthunk y
Ġinf ra
ĠpathExt Exe
ĠPost CSS
isN il
exhaust Map
entic ation
Ġcollect ed
sFor Labelable
ĠRuntime Error
ĠordinaryGet Metadata
getownproperty descriptor
HOL DER
ĠExclusive Options
kle ur
ĠOP EN
ĠAnymatch Matcher
ĠtransformFromAst Runner
ĠCompare s
ĠTimeoutError Impl
ĠgetSymbol Iterator
ĠgetSymbol Description
Ġcomm as
Pat Last
ĠLA ZY
zzzz zzzz
BLA CKLIST
(/% ([
ĠCharacter Data
aug ht
ĠdefaultIs File
ĠdefaultIs Dir
Ġcover ages
ĠErr no
Equality Comparison
modify URLPrefix
áĢº _
ĠiterableToArrayLimit Loose
ObservableInput Tuple
Will Update
Ġest ablish
wast Parser
Ġ"} ";<
getFunction GrayArgs
Ġprep ared
Validity Tests
REE ZING
Ġlaunch ers
}), \
isOpen OrClose
getNext Task
Stake Params
ĠgetSet Iterator
ĠStrict EqualityComparison
>////////////////// ////////
ORDER ED
Evaluated Expression
Jo hn
TransparentExpr Wrapper
ĠUs ually
Quoted String
launch er
ĠCoverage Summary
Ġlot tery
ĠnumberLiteral FromRaw
randomFill Sync
gregated Results
Fraction Digits
gue z
FIEL DS
Subnet s
Ġindivid ual
Ġwildcard s
Ġ[[] ]<
ĠgetLabel sForLabelable
ĠRod rÃŃ
bigu ous
tre es
Legal Identifier
firstChar Offset
ĠtoPositive Integer
6952 7932928
Beg ins
Hyb rid
urch ase
InFCQUF vQ
ĠMEM OIZED
ĠMAG IC
ĠARI A
ĠdefaultGlob Opts
CallsPer Worker
ĠContinu ous
Ġcollate Patterns
ĠwrapErrorConstructor WithCause
OnExpectation Failure
CHAK RA
udvig sen
Disjoint From
NoMethodSetState Rule
BeforeReference Node
NonWS Type
ianVowel Separator
Aggreg ator
vbmV MaW
ĠRodrÃŃ guez
! :
' ()
) }`);<
) ')()<
* .<
. :<
/ @
= ";<
A irdrop
B roadcast
B onjour
D rive
F ollow
H AND
H istory
T C
T W
V E
W orld
_ ([
` '
` .');<
c us
c anceled
d ie
f ocus
g ree
k cs
l and
m ute
n emonic
s ch
s ymlinks
t od
Ñ ģÑ
Ġ ends
Ġ ),<
Ġ END
Ġ Defer
on error
or chid
st green
ct ime
th on
al an
Ġre use
de tach
se ag
ro uble
qu iring
is MemberExpression
is Numeric
Ġt rouble
an ache
an ymatch
Ġo mitted
Ġs ol
lo om
Ġb en
Ġb uff
Ġb ail
Ġstr ategy
Ġm agic
Ġm usic
um ask
um bs
Ġ" |
Ġ" (?:
to Exponential
get Queue
ext s
Ġis Un
Ġis Fn
Ġis AS
Ġis Docker
() [
() `<
inter ceptor
ĠT TY
ĠT Return
Ġfrom Promise
ĠC apture
key From
ĠS w
est roy
cl uster
set Encoding
Ġde velo
Ġde materialize
par ing
co res
ĠM atcher
Ġi e
Ġh alf
let te
St ale
ĠA D
ĠP arent
Ġget Default
Ġget Url
Ġget OrCreate
ĠR ES
li ve
Ġe poch
Ġcom paring
Ġ/ =
ĠRe fer
ĠRe gistry
Ġnumber ify
pre pare
Ġdefault Config
ĠO peration
ĠD an
ĠD estroy
SE CRE
Ġpre vents
Ġwith draw
ĠH ome
no thing
ant ics
parse Range
Call Site
helper Annot
pos itions
Data Path
Sync WriteStream
mon t
AT URE
AT US
Ġprocess or
ID igit
Ġal ive
Ġal ice
assert ion
Ġtoken Module
Ġ4 29
null Stream
SS O
fore stgreen
Ġdo Not
Or Name
0000 000
ref Count
10 59
(/ (
(/ _([
RE F
raw Pos
ĠRes olved
fo ot
event Type
parser Options
]( ?!
Ġcompare Pre
Ġcompare Main
Ġcl amp
Ġcl oning
release Pubkey
Line Terminator
Callback Observable
Ġwrap ping
": [
ĠPro filing
current Index
OL Y
(` /
ger blue
Block Hash
Ġcopy Within
ĠFunction Fragment
Generator Function
compare Pre
compare Main
ĠEx ternal
browser Sync
den rod
regexp Str
xA C
]+ )?
report s
Que st
Ġ'- '.
Ġ'\\ $
Form s
Ġlevel s
CI IDigit
lay er
Ġcustom izations
Ġskip Until
Ġload ers
ĠURL Impl
ĠGener ic
ĠSe arch
man ager
Ġlocal Storage
ĠAdd itional
Ġhex String
ĠisArray Buffer
SH OW
Ignore Pattern
EX IST
Red irect
non ce
Ġbind NodeCallback
17 26
clear Timeout
Ġreg ion
Ġreg ard
ĠBig Uint
Wallet Provider
Ġresponse s
ĠAp pend
select Color
Ġpreserve Timestamps
subscribe ToArray
Host s
ĠSh aredArrayBuffer
light seag
Ġzip Static
await AsyncGenerator
={ })
ĠDis abled
SY SVAR
ĠServer Type
Ġenable Override
Ġ(/^ \/\//.
Fe ed
tmp dir
Trailing Comments
Release s
className TDZError
Ġenabled Cache
Ġauto Close
([] )<
ĠSH OULD
hint s
lap ping
SC O
Behavior Subject
Ġnamespaces Cache
95 1
Ġdelay When
49 67
Ġpe ek
ĠCo lored
SIG TERM
Ġtake Last
Graph ics
Cancel Token
ĠPath s
auth enticated
Uri Component
*? .
('.') }`<
Ġroom s
Ġreco veryParam
ĠHtml WebpackPlugin
access Sync
Ġ'] ')
ĠJsonRpc Middleware
METHOD S
crim son
Top ic
black list
gop her
Show UploadMusic
('_ '),<
Ġshebang Regex
NodeCallback Observable
ĠisHex Digit
High light
YY YY
ĠSelect s
Ġ'` ');<
Ġplaylist Id
shebang Regex
ĠAnd re
game Id
Pause d
Ġexhaust Map
Ġ655 35
Ġgu ess
ĠPO SITION
(/\\ ([
ĠInv okes
Ġapplic able
Ġapplic ations
(){ },
cell s
dark orchid
Ñĥ Ð¼
Ġ`/ `
ĠInspector s
ĠgetWord Index
1234 5
gol denrod
Outgoing Message
contract s
rd web
arb age
ĠOutput s
ĠPort ed
Mouse Event
Tw os
WOR K
Ġoccure d
ĠEncod ing
DEP TH
*\|\ |\
ĠFire bug
Ġear li
HID DEN
dod gerblue
ÑģÑ Ĥ
ĠisAS CIIDigit
SECRE T
helperAnnot ateAsPure
Ġ429 4967
lightseag reen
Ġ4294967 29
! --
" ')<
$ ');<
$ ({
% =
* (
/ ),
0 40
0 37
1 34
4 32
4 65
7 65
= \"
> =
> {
A udio
C M
C allee
C ampaign
C apture
C aption
D ATE
F lat
F inish
F IND
F rames
F atalError
H o
H ose
I gnores
J EST
L ocs
L ayer
M is
N esting
N atural
N eeded
P ragma
P olicy
P SEUDO
S B
S o
S An
S pawn
V HJ
W ell
W sp
W HITESPACE
Y Error
Z h
Z ml
Z SI
Z ERO
Z nJvb
\ <
] ")
` ).
` ));<
` ",<
a Bound
b m
b ut
c ml
c ooked
d ad
d Identifier
d ryRun
e j
e in
f atal
f riendly
f ingerprint
h ib
h aste
h orizontal
i u
i je
i Zml
k had
m illiseconds
n wsapi
p ako
r f
r in
s afari
s ZSI
t lds
x ED
x bf
x QkFB
} ?
~ ]))
Ġ Index
Ġ Expression
Ġ ValueOf
Ġ queues
Ļ ¥
re tri
re present
re order
on d
on k
on Start
on Success
in ance
ar ra
ar ge
Ġre c
Ġre m
Ġre Trim
Ġre Evaluate
Ġre Interpolate
de ad
de queue
de serialize
de leted
en ate
en alty
un able
Ġf in
Ġf ramer
is Set
is Async
is concat
is CSS
is regexp
is Strict
is Internal
is Cancel
is Escaped
Ġc ust
ex tr
Ġ( +
Ġt ables
an on
an ji
str ap
ing Buffer
ing URLRecord
od ian
Ġp tr
Ġp ull
Ġp ower
Ġp rinter
pt ype
pt Objects
am b
ed ge
ed Comments
ed Modules
Ġs print
Ġs af
Ġs nippet
per iod
Ġfunction OrValue
Ġm ismatch
ic arra
to object
to index
to integer
to propertykey
value ToString
ver den
Re writer
Re cipient
Pro posals
ap os
ap pa
ap plicator
ad s
get Name
get Decoder
get Balance
Ġ0 10101
pro tected
pro vided
Ġd wa
', {
Ġis Scope
Ġis Import
Ġis UrlRequest
op code
inter sected
ĠT A
ĠT wo
Ar chtype
Ġto Int
Ġto ArrayBuffer
Ġcon solid
ĠC lean
ĠC ached
ĠC atal
ĠS ize
ĠS nakeCase
ĠS UPPORTED
default Config
cl ic
cl ip
Error Params
Ġvalue Range
De compressor
nt qry
Ġ! ~
Ġ` :
Ġ` --
Ġ` /*
Ġnew Fn
Ġnew Min
Ġ[ ['
Ġde tach
Property Error
Ġst din
Ġfor k
Type AsUsed
Ġun matched
Ġun closed
string Length
Ġi pad
end Col
Ġg rowly
St ub
Ġas cending
ĠA LI
String Array
ĠB ug
ĠB ASE
ĠL N
ĠL ab
ĠL imit
ĠL CH
Ġnode Iterator
Ġnode Fetch
us ify
object Spread
Module AST
array Like
Con v
Ġsource Path
ĠP L
ĠP air
Ġget Text
Ġget Foo
Ġget Stats
Ġget AttributeValue
Ġget Outer
Ġget NAF
Ġkey Index
Ġkey press
Ġ2 20
li k
To Next
__ ,
ĠG lob
ĠG RE
ĠG roup
ĠG reg
("./ _
ĠN ested
Ġr row
Ġv m
ly ContainsHTTP
Ġ/ \/
Ġ/ [^\
Ġnumber IsFinite
Ġnot ifier
unc ork
ĠF eros
ĠF encingTeam
ĠF SEVENT
ĠF icarra
Ġon es
Ġon finish
has instance
has Behind
Ġthrow NotFound
ec es
ec ause
URL ToPath
ĠW ATCHEXEC
ca led
sh rink
add All
add RegexToken
init Error
test Code
test Helpers
next State
ĠE pp
Class Name
create TypedArrayConstructor
Options Plugin
read ers
read Int
Path Options
Path Ext
Ġassert Version
dir ty
Ġobject TypeProperty
Ġwh itespaces
tern et
cur acy
cur Byte
Un escaped
ĠH ot
\\ )
Ġtest File
Element Utils
Ġcreate Html
Ġcreate TypedArrayConstructor
one Of
url String
ac ing
data Size
Range Covs
Im luZGV
ang ling
Ġy l
Ġlicense s
ant iates
vi able
[] .__
Ġsh uffled
En ded
placeholder Whitelist
11 3
throw ing
sec ret
ĠIn formation
only Positive
Ġentry point
replace Map
parent Rule
Set Data
ĠCon trol
Ġno Ansi
Ġcan Reorder
Ġresolve Callback
Ġresolve ModuleName
Ġparent Keyword
Ġparent Json
Ġlength s
An imated
From ModuleAST
Ġsub Arr
Ġfs m
Source Location
Ġstat es
Id Selector
min imist
With Stack
With Format
With LocalName
With NoTests
new Name
new Node
new Min
ĠString s
ĠPromise Array
pack er
match ing
open Sync
Ġargs WithFormat
Ġnext Dir
Ġnext Line
Event Names
null able
write Offset
write Queue
Token Cursor
apply Mixins
func s
Ġlog Methods
Color Name
Ġroot Schema
Ġadd rs
Ġadd Unit
Ġadd CustomMessage
Ġadd MetaSchema
ĠSymbol s
Ġchar ge
[' .
Ġread JSON
Length Array
For Key
For bidden
As Hex
Config Item
ĠReturn Type
(/ \/
Pre pareStackTrace
Ġarr ify
RE ACT
Tag s
Ġend Col
Promise Value
raw SpaceAfter
raw SpaceBefore
ĠRes ponder
SI X
stat Async
author ity
Cache Update
=" '
child Node
event ually
trim end
trim start
Ġshould n
Ġ[' '];<
ou khad
Declaration Set
Keys Only
Ġchild s
Ġchild Scope
Base Reporter
max Workers
should Skip
Ġmin imist
Ġcompare RangeCovs
ĠK ai
ĠK ebabCase
Ġ16 0
Start A
sol ut
Ġprop Value
ĠSVG StringList
Ġfirst Child
Dir name
][ ^
][ [\\
last Node
last Token
ĠJSON Type
Ġlast Value
Callback Options
Ġrule OptionsMapperFactory
stringify Property
Ġonly Positive
Sh ared
escape RegExp
Ġ/^ @
Ġexpected Error
End point
Ġformat s
000 8
Request Shortener
Ġwork spaces
Ġenv s
ĠModule Context
ĠRegExp Prototype
Wh at
ified Foo
Ġmake Dom
ific ant
Item Dependency
JSON Type
Ġcopy Sync
content Writer
Ġreplace Close
then able
'] });<
Ġstatic Bind
Ġstack Descriptor
Ġpackage Filter
CH UNK
Ġrgb I
Ġwrapper ForImpl
redu cer
Not Regex
Spec ifiers
]+ $/,
main Template
main Fields
Ġstyle Sheet
Ġregex es
Ġregex Not
merge able
Ġoriginal Before
Ġoriginal Position
Ġper Line
annot ation
Target Keys
Target Iterable
Ġ'- ?',
VER SE
AB ET
And Conf
Add Attributes
update With
sha pe
Child Node
ĠWeb Worker
Ġ7 0
ĠCode Node
ĠCode Gen
Ġpkg Up
15 9
Ġscope s
Ġcustom Merge
Ġskip While
net stat
Ġinitial State
Ġglob bed
Min utesPerHour
Ġapply Mixins
Ġswitch All
Ġcharacter Length
ĠAsync ifiedFoo
man der
UT ION
romis ified
ready statechange
ĠBase Config
ĠBase Comment
ĠBase Funcs
ĠCreate MethodProperty
ĠCreate IterResultObject
}} "
dot Prop
ĠDe precated
Document Position
ating State
Ġold Node
Ġold Offset
app Args
document Element
original Path
original Url
Ignore Plugin
Ġ'' [
decode Int
Ġsupports Binary
Ġbyte ToHex
parsed URL
raz dw
Input FileSystem
Ġinter sected
Ġsearch String
Ġzero es
non existent
Ġiterable s
run ner
Ġma j
100 3
50 9
Ġbit field
Ġjson Ptr
mut ations
CON N
old Values
Over ridden
Ġlocale s
Ġensure Value
ĠFOR M
Ġtemplate Tokens
[])[] [];<
Ġref Count
ĠSchema Cxt
Proxy Options
Ġupdate Href
36 5
Report ers
Ġman age
Implemented Version
Lines Unified
ĠTest Result
numeric Literal
Ġproxy quire
Ġproxy Options
serialize Integer
Ġpossible ConstructorReturn
me asure
ĠComp ilation
CA CHE
isValid Identifier
Ġworker Id
Ġgenerated Code
Modifier Init
COM P
Ext ends
round Tri
Package Tree
ĠList ener
ĠExp lorer
.* +?
ZX hwb
Second sPerMinute
bn Rlbn
ĠAl ways
}\ `
PA CES
Ġconnection State
ĠNot FoundError
ĠDocument Fragment
Ġshorthand Name
media Text
Missing Module
Missing Warning
Media Types
ital ized
Hour sPerDay
Ġusage Data
ĠReadable AsyncKit
Ġupper case
ĠDis able
Ġflatten s
Ġmissing Coverage
unique Items
ĠOn ce
toBe Truthy
Ġdeep Equal
ys ical
Ġsend ing
Ġslice d
Chain ing
Ġmodify URLPrefix
Ġregexp Tag
ĠLe arn
Err s
ĠAs pect
CR Y
Setter Navigate
Ġmark TypeAsUsed
termin ator
FS Path
[\\ ^$
Ġ/^\ [
ĠWh at
){ "
># <
Table Data
ĠDefault ConstraintValidation
TypeScript Setup
48 8
Main Thread
chain ing
Eval Origin
Comma Wsp
selection Start
ĠInternal Encoder
Ġplaceholder Pattern
Ġhwb H
-.... -####
-.... ........<
Separator s
Ġwatch ed
dispatch Flag
ĠLo op
ĠLoc ate
matches Pattern
ĠAjax Observable
Ġreadable Stream
ĠAb oukhad
ASCII Whitespace
Ġmaybe RealpathSync
ĠCo a
Post CSS
Ġmer ging
dynamic Anchor
Ġcompress ible
ĠClient Request
spy On
ĠTyped Array
hmac Strength
Ġobtain ing
ĠMy CustomLogger
ĠUnicode Escape
Character Data
Sec ret
Ġschedule d
called Once
ĠReader Options
ĠCol umn
Ġsec ure
Ġoptim ization
iJ xQkFB
memo ization
]() #;?
ĠâĢ ľ
oll up
ĠAd ded
ĠAd vanceStringIndex
ĠReplace ment
Ġknow s
Shorthand s
XXXX XXXX
Ġ"_ "
DR ESS
Decor ator
mime Types
ToResult ingURLRecord
Jest Version
ĠAnchor Deserialize
Feature Plugin
ĠScript s
-....-.... ........<
|" /
Optional MemberExpression
PH ABET
regenerator Runtime
ĠSubscriptionLog gable
ĠStyle s
Ġpretty Bytes
HTTP Whitespace
hand shake
Inline Snapshot
Ġ{... {
ĠERROR S
ĠHarmony ImportDependency
Ag ain
Ġmodular ize
Ġnaf Points
calls ites
ĠcodePoint At
Der iv
ĠregExp Object
ĠgetS uggestion
Thing One
Ġol du
ĠBe fore
Hot UpdateChunk
Ġfraction al
utimes Millis
Ġcomplet ely
ĠJo i
Extglob s
dependent Required
ĠBit Set
)* )?\\
ĠHmac DRBG
tb WF
Ġcomposite Decl
MiO iJxQkFB
TEST ING
getToken After
Nv bnRlbn
ĠDirectory Locations
Low est
9999 9999
RES OURCE
Indic es
ĠgetF riendlyURL
REQU IRE
Streaming Receiver
Requests Plugin
Include Dependency
ForOf Statement
Ġpragma Util
Ġ./ `<
Ġtested Type
lsi ZXhwb
ĠEventSource Receiver
Patch es
enumer ate
assoc iated
xb d
Annot ated
Ġxml ns
FILEN AME
ĠNewThing Two
real time
*+? .
Previous Sibling
SP AN
Ġed ge
ĠIframe Transport
DevToolModule TemplatePlugin
[/\\ ]/;<
reco gn
reco veryParam
Ġ........ -....-....
Prefer red
ancest or
iagnost ic
ĠIcon vLite
ĠthrowIf C
Hyperlink ElementUtils
bom Aware
Ġrecur se
Ġreplac ing
vers Arr
AXObjects Map
ĠDecoder Buffer
Delimiter Case
ĠDB Wrapper
Ġuv u
Tmp file
Ġviable NextSibling
}(?: ;\\
('ðŁ¦Ħ ',
ĠBorder Radius
Ġcar ry
May be
ĠDELE TE
})*)? [\\
locationObject SetterNavigate
Ġmimic Fn
=>< ~]))
NEST ING
peer Dependencies
Propagation Flag
ĠFE ED
Ġelap sed
QiO lsiZXhwb
ĠPLA CE
mapFileComment Regex
ĠUP LOAD
CaseInsensitive Match
Ġoverri den
samevalue zero
cmN lc
ĠCompiled Query
+. -]*
xu Il
('../.. ')<
Ġ/^-? (
Ġroll up
COMBIN ATOR
Ġearli er
Mis sed
SAn Li
ZnJvb SAnLi
hib it
ije h
iZml sZSI
isconcat spreadable
extr aneous
Ġsprint f
ĠCatal do
ĠBug sLocation
lyContainsHTTP TokenCodePoints
ĠFeros s
ĠEpp stein
Unescaped Html
ĠparentJson Ptr
Animated String
ĠaddCustomMessage Listener
][[\\ ]()#;?
AndConf irmTransaction
ĠAsyncifiedFoo Getter
razdw atrzy
measure Padding
ĠDefaultConstraintValidation Impl
ĠAboukhad ijeh
tbWF MaXN
MiOiJxQkFB b
NvbnRlbn QiOlsiZXhwb
][[\\]()#;? ]*(?:(?:
( ;
( `<
) `<
+ ,
, __
- [
. '));<
/ '
2 70
6 00
8 27
9 00
; }
= (
? '<
C y
C ycle
C CAK
E AR
E quals
F R
G G
G radient
M K
M ON
N ULL
] );
] */
c ma
c ertificate
f resh
f ragments
g ies
h ey
i I
p ayer
q s
s ibling
v in
v or
v an
z d
Ã ¤
Ø ¨
Þ ¦
Ġ Arr
Ġ urix
Ġ{ ?
Ġre dis
Ġre moving
de structuring
at ar
ro ke
ro du
Ġf alsy
is First
is CallExpression
is Initialized
is Spdy
ex ist
Ġ( `
quire r
pe m
Ġt ld
Ġ' ï
Ġ' **
Ġp a
Ġp unycode
et ag
ed er
Ġs leep
ol ated
ate gies
Ġm is
ic o
to ggle
pl ies
pl ant
get Month
Ġw raps
In crement
Object Method
(" \\
Ġis AccessorDescriptor
Ġis Numeric
() ],<
ĠT f
ĠT er
ĠT om
ĠT arget
ew icz
Ġfrom Buffer
ĠC ampaign
ĠS A
ĠS P
ĠS ame
ĠS ession
ff old
set Default
ub e
Ġ` (
Ġ` ,
Ġ` __
Ġstring Value
Ġun pad
ĠM emory
Ġi eee
end Of
)) /
int s
Ex ceeded
ĠA lex
ĠB ur
ĠB racket
array ish
ĠP a
ĠP ay
ĠP AR
ĠP ipe
Ġget ters
Ġkey Size
Ġkey board
To N
To ast
To Str
Ġe th
ĠG ame
oun ts
UR N
Ġv is
Ġv oting
Ġcom binator
ĠRe gex
Ġnot ifications
ĠF ail
IT TER
Ġon Socket
Ġon Close
Ġcode point
ca ffold
sh l
test net
ĠE ffect
Class Value
create Cipheriv
create Decipheriv
Ġpre ference
Ġwith LatestFrom
tern ary
Un iversal
log in
IN TER
OR MAN
Ġbase DataPath
from SecretKey
parse url
ES Modules
Ġfa vor
11 4
dis card
replace d
Ġindex ed
Ġno glob
Ġno NewArrows
web worker
From File
Ġsub set
Ġsub scriptions
min ute
Ġstart ed
Ġstart With
write Json
Ġout len
Ġadd Comment
Ġadd EventListener
(/ .
fill Range
RE AS
raw l
Ġwe ird
Ġap pended
Ġbuffer Time
child Path
Ġle ap
bo ve
av oid
PR O
PR ES
PR IV
sl ices
Ġ(_ .
remove From
roy alty
ĠPro du
80 7
Block ing
Ġwas n
Ġpackage Iterator
we i
ĠIm mutable
Run ning
Bytes Coder
KE CCAK
Ġact iv
Account Info
34 3
ĠRequire Resolve
hex String
Invalid State
compat ibility
CI ATED
Ġso on
Ġglob ally
Ġ'" '<
Ġ'" ':
MA C
Ro yalty
Ġ'< ':
ĠBase Contract
ĠDe v
Program Error
SH ARED
Exists Sync
(/^ (?:
(/^ (\
ERROR S
Ġinter pre
Ġinter active
Ġqu antity
Ġpub key
()` ](
part y
âĢ ¦
TR Y
Ġpublish Replay
Ġref resh
wrapAsync Generator
ĠCall er
ĠTh ey
COM MA
ĠFor ward
66 0
Ġim ages
proxy Req
Ġhost ReportError
35 7
Ġimplement ing
Rpc Error
irc le
Ġ'& ';<
Ġslice Buffer
ĠLe ft
Del ta
Ġprodu ces
Ġ'(' )
Ġtop ic
Ġwallet s
tmp file
CD N
lch ownSync
Ġinstall ation
Ġ'> ',<
ĠStart ing
Ġlower Case
Ġcap acity
ĠWritable Stream
ĠTime Interval
Ġblack list
rel ated
Ġpe g
ĠcreateHash Function
(/[ ,
sen ce
Ġ'-- ',
\\( .
ĠMax BufferError
Stop ped
isAbsolute Url
Ġdoc uments
Ġalign Right
ĠonF inished
Ph ase
Produ ction
PL ATFORM
hour s
ĠMut ex
ĠDot s
ĠExtract s
Ġsample Time
Ġ.. .<
spe ed
COD ING
direct ives
serial izer
ĠSer ial
LIN ES
Rad io
Ġ'.. ',
ĠUtil ities
ĠSp otify
ĠSp anningCell
El se
wordlist s
Ġmock ery
ĠisASCII Alpha
Connector Event
Dif ferent
temporal Ref
Product s
serv ative
Compress or
ĠAbort Signal
ĠTimestamp Provider
CONNECT ING
Ġintent ionally
ĠUrl JsonRpcProvider
Ġ~~ (
ĠcreateAsync Middleware
ĠBl ake
fl are
ĠIncre ment
(": ")
nom ial
ĠesModule Interop
ĠLib rary
ĠHEL PERS
Ġjo b
Drive Letter
Ġben ef
SSO CIATED
Ġ429496729 5
827 999
Ġtld r
PRIV ATE
# *
& ]/
' /
( =?
) ({
) }}
) \/
) ([_
* "
* ([\
* (?:\.\
+ |\
+ '\
+ *?.
. `,<
/ ').
; ,'
> ";<
> `.<
A Y
A pos
A FF
B D
B and
B etween
B IG
B ool
B ITS
C c
C as
C OR
C LOCK
C ertificate
D ll
D aysInYear
E ager
E OF
E arly
F LOW
F inished
F ocus
F SEvents
G ATE
G luZ
G UNZIP
G LOBSTAR
H EX
H SL
I ES
I SS
I psum
J ar
J ayson
J tZX
L D
L Stat
L INT
M ar
M ODE
N ATIVE
N mb
N FK
O per
O VER
P END
P Transport
P rimitives
R T
S BOX
T Message
V ote
W HO
W Vy
X OR
Y ml
Y Uxpc
[ <
[ @
] =
] /<
] ./;<
^ Â°
_ "
` Â´
a ix
a stral
b right
b ash
b igInt
c path
c ors
c opied
d h
d ict
e E
f it
f alsy
g h
h end
h bn
h ino
i qu
j td
k i
k in
l m
l abs
l cov
l arge
m ing
m ixins
p n
p am
p oke
p ie
p ressed
p ste
p ieceIndex
r atio
s un
s lint
s ister
s uspend
t ip
t YUxpc
u Z
v h
v olume
x PI
z Zm
} [
} >;<
} };<
} }`
° psum
² ÑĭÐ¹
· Ð¾Ð
Ã ĥ
Ä °psum
ĉ ĠĠĠĠĠ
ĉ ĠĠĠĠĠĠĠĠĠĠĠĠĠĠĠĠĠĠĠĠĠĠĠ
Ġ ir
Ġ Arg
Ġ Ver
Ġ raz
Ġ QUOTE
Ġ ArrowFunctionExpression
Ġ jobs
re export
re arg
re movable
on Frame
on Close
on Window
on Render
on CustomMessage
-- -
in Range
in ferredName
st ool
le vensht
al lo
Ġre ally
Ġre build
Ġre usify
de ref
de vice
de tection
de burr
at ob
---- -
Ġf ss
Ġf lip
Ġf rames
is Selector
is Comment
is Attribute
is Non
is Deep
is BN
is ASCII
is Complete
is Quantifier
is Combinator
is FullwidthCodePoint
is RGB
is PrefixOf
is Active
is IterateeCall
is Optimized
is Parenthesised
is FIFO
is QuotedString
is MainThread
Ġc st
Ġc opts
Ġ( .)<
Ġ} ')<
Ġ} `.<
(' ').
./ '[
Ġt l
Ġ' ([
Ġ' .');<
Ġth read
an el
an alytics
it ise
Ġn PaddingBytes
str a
ing Error
ul let
Ġp IE
Ġo Keys
Ġs ift
Ġs ister
Ġs yntacticPlaceholders
ch ris
Ġif err
Ġb opts
Ġb ullet
Ġfunction ToString
Ġm ist
Ġm ong
ut down
Ġ" =
Ġ" &#
ic project
ic ient
to Iterator
to Comment
to Utf
to IObject
Ġa opts
Ġa xe
Ġin High
Ġin Low
value Index
module FilenameTemplate
') ],<
') ))<
ver ser
Re placer
Pro of
Pro cessor
tr uthy
ad ic
ad vance
get Symbol
get Own
get From
get Keys
get Header
get Public
get Ph
get CustomPropertiesFrom
get ParserServices
get HashDigest
get Pe
get SectionForNode
get MoneyForAccount
Ġw in
In List
In correct
In Cwd
In LeapYear
Object Keys
Ġtr uthy
Ġd ict
Ġd ump
Ġd atabase
id ay
(" --
Ġis Module
Ġis Async
Ġis TS
Ġis Plain
Ġis Package
Ġis Comma
Ġis IntegralNumber
Ġis Thenable
Ġis AbsolutePath
Ġis RelativePath
Ġis Disabled
Ġis RGB
Ġis IterateeCall
Ġis SamePropertyDescriptor
() [\]{
ĠT ot
ĠT Options
ĠT AB
ĠT EST
Ġto Range
Ġto UpperCase
Ġcon vent
Ġcon ven
Ġfrom Directory
Ġfrom Parts
Ġfrom Species
Ġfrom ByteArray
Ġtrue Func
Ġ+ (
ĠC R
ĠC rypto
ĠC md
ĠC FB
ĠC ross
ĠC ALL
ĠS IL
ĠS ieg
default Bit
ot onic
import Kind
import EnvironmentVariablesFrom
Ġvalue ToString
Array IteratorPrototype
set Rule
set ToArray
De legate
De legated
Ġ! ($
Ġ` _
Ġ` _`
Ġ1 100
Ġnew Max
Ġtype Check
Ġtype Mappings
Ġ[ --
ps ilon
Ġde manded
Property Keys
ation Role
Ġl inter
Ġl length
Ġl rgb
Ġl ayout
he u
he el
Type Identifier
Type CastExpression
Ġun subscribe
Ġun icorn
Ġun encoded
string Size
co w
co lour
ĠM ixed
ĠM illiseconds
ĠM agic
ĠM ISMATCH
Ġi x
Ġpro cesses
end Byte
Ġh module
Ġh oles
Ġh omepage
Ġg amma
uff in
int Time
00 21
00 61
Ġres ources
Ex ps
ĠA ri
node Impl
node Modules
String Iterator
String ToE
Ġ- (
ĠB LOCK
ĠB enchmark
ĠL OW
Ġnode B
Ġnode Types
object Property
for bid
array Slice
Con currency
Ġpath Array
Ġpath Part
ĠP oly
ĠP olyfill
ĠP UB
ĠP uz
Ġget Key
Ġget Pattern
Ġget Location
Ġget Encoding
Ġget Full
Ġget OwnMetadata
Ġget Inner
Ġget Priority
Ġget Room
Ġget OwnMetadataKeys
Ġget Attrib
Ġget LiteralPropValue
Ġget ParserServices
Ġget HashDigest
Ġget NumberOfLines
Ġget FuncName
ag o
Ġkey Deriv
ĠR et
ĠR PC
Ġ2 7
Ġ2 8
To Task
To Display
To Segments
ma intain
ĠI IFE
ĠI WalletConnect
and ir
Ġe quivalent
ĠG ZIP
error Obj
Ġr index
map Limit
ly Set
Ġ/ ,
call Count
Ġnumber End
Ġnumber ToString
Ġse ll
iter ations
Ġelse Branch
pre dicates
obj HasOwnProperty
ĠF s
ĠF allback
ĠF IX
ĠF ramer
Ġon close
Ġon Cancel
Ġon Failure
Ġcall The
ĠO B
ĠO pt
ĠO ptimize
ream ble
has is
ĠD ll
ĠD IM
SE CTION
SE MB
SE COND
Ġset ToString
ss ri
test String
test Str
next Node
ĠE valuated
ĠE quivalent
create Options
Ġ{} ).
Ġ{} ))<
ify Send
read Offset
Ġassert ion
Ġobject Assign
Ġhas OwnMetadata
Ġhas Digits
Ġhas DeprecationWarnings
Ġpre set
Ġpre act
Ġpre cachePlugins
Code Coverage
comp lement
source Index
entry Stack
Ġuse UnicodeFlag
Un finished
Un clamped
ĠArray Observable
Ġparse Number
Ġparse Runner
Ġparse IPv
IN TERNAL
Ġtest Node
Element Selector
Ġcreate Wrap
Ġcreate Cached
Ġcreate Round
Ġcreate AccountNumber
Ġcreate Inverter
Function Covs
count Nines
OR ITY
Ġbase Con
Ġbase Create
Ġbase IndexOf
Ġbase Random
Ġbase Sum
Ġbase Trim
Ġbase Pick
Ġbase Lodash
ax object
Ġarray Filter
from String
from Parts
Ġfunc ToString
Ġfunc Proto
Ġy opts
parse int
At Line
At tached
class List
class Method
[] >(<
push ed
Ġat Bit
Call Instruction
helper Environment
Ch romium
pos Tracker
File Dir
File Receiver
List en
List Size
placeholder Pattern
Ġglobal Scope
]. [
ENT INE
throw If
sub Implicit
sub dirs
ary Role
Se ed
ĠIn line
ĠIn ject
Ġx l
Ġx n
Ġx opts
26 9
ep pste
ep icproject
replace What
parent List
mon gol
Ġindex er
Pl atform
move Cursor
Is Directory
Ġresolve Keyword
Ġprocess Cov
Ġclass List
base For
base Slice
base Random
base Flatten
start Node
Time FromYear
From Descriptor
From Url
Ġsub mitted
color Str
Each Series
)( `<
Ġfs cale
Ġfs LStat
Source Dependency
Source Content
property Key
PrototypeOf ArrayIteratorPrototype
min By
min Version
With Null
With Safe
With Fallback
By Tag
By First
new Selector
new Obj
64 0
ĠString Prompt
list ing
list Map
assert Identifier
col s
col lapse
Ġargs OrArgArray
trib s
LE FT
LE ADING
Ġnext Decl
null ish
Ġtarget Index
process ing
Ġmatch Type
Ġmatch Native
Ġmatch Graph
Ġstart Token
Ġstart Col
Ġstart Copy
Role Elements
config ur
fore ign
foo BAR
Ġlist Weekdays
Token Count
strict Ranges
apply Default
apply Each
All Declaration
Ġout High
Ġout Low
func Res
Ġlog Missing
ler t
Ġpos sibly
Ġadd Parent
Ġadd Border
Or Function
Or Empty
Url Response
jest Matcher
jest Mock
jest Runtime
context RegExp
Ġread Int
Ġread line
Ġread Stream
ational Role
Ġtry Call
Ġtry Catcher
For Type
For InStatement
As pects
(/ \\.
link ed
link Sync
RE SET
RE JECT
Tag Object
Ġdefine Length
Ġdefine Metadata
ĠRes olver
SI GR
Ġmax HiddenLevel
range Statement
Iterator Value
Iterator Step
Ġerr back
ĠJ asmine
ĠJ slint
ĠIs StringPrefix
ask n
do Send
Sub Array
Get Iterator
ĠNode Impl
Keys Type
Test Path
Integer ElementType
async Function
Ġj ump
Ġj td
concat Limit
concat enate
20 6
Ġasync Error
max By
max Chunk
Ġid le
ĠRule Group
filter Limit
should Throw
Ġ${ (
Ġline Start
Ġline Offsets
Ġ16 01
Start B
Start ed
Start Index
Ġcurrent Idx
Ġcurrent HiddenLevel
Dependency Reference
cache able
cache Has
ĠSVG Number
Regex Marker
plugin Name
Th u
Scope d
>/* ~
}) +
}) `
find Suggestion
ĠJSON Error
Ġlast Index
Ġlast Comment
Ġlast Section
Ġ'[ --
Ġbuf Pool
SourceMap DevTool
Ġexport Declaration
Ġwrap Arrays
Ġwrap py
Ġpromise Resolve
Sh ip
deep merge
bg Bright
escape Brackets
Ġ/^ \\
Ġinit Clone
ĠPro p
ĠV ital
Ġfind PackageData
OL S
Request ed
Ġms FromTime
ĠNumber Bitwise
ĠModule Export
ĠModule FilenameHelpers
$/ ,<
ĠY args
Ġhash ing
Ġhash Clear
Ġhash Delete
box Role
Ġoutput Map
Ġoutput Code
Ġoutput Off
Selector RegExp
Block Ends
Ġremove Trailing
Args Right
Ġrequest AnimationFrame
Ġmake Cache
Ġmake WeakCache
Var Map
bit Index
Item FromDescriptor
wrapper Chain
wrapper Lodash
Ġcopy Symbols
ĠFunction Declaration
Generator Obj
Ġsymbol Tag
'] =
CE IV
bin cn
TS QUAR
compare DocumentPosition
izer Error
Ġescape RegExp
Return Statement
console Func
ĠHTML Constructor
Date Format
Date ValueOf
Date UTC
Ġ!! ~
defaults Deep
Text Node
Ġsign bit
Not Connected
Spec ified
Spec Exception
Identifier Name
Identifier OrA
mod ern
SA CTION
block size
]+ '<
]+ )\
inspect Source
Create Class
Create DataPropertyOrThrow
chunk Id
expected Error
some Limit
some Library
BigInt ElementType
AS SEMB
ĠRequire ExactlyOne
ĠRequire Ensure
And Trailing
And MergeDeep
Ġ'\\ "'
local Modules
Chunk TemplatePlugin
update Selector
Right While
Ġad apted
15 40
15 807
cb f
Ġencode StringToE
'. ',
Private Property
ĠSource AndMap
ĠNew Expression
Export NamedDeclaration
check Type
Ġglob Ignores
Al so
]: [/\\
Ġiterator Close
Ġchunk Group
Import Declaration
Ġapply Default
Has Species
ĠReact DebugCurrentFrame
ĠReact Shared
25 8
ĠAsync IteratorPrototype
Mod ern
emo jis
ĠCSS select
amel ize
Ġplugin Passes
Ġser ially
Ġonce With
Ġusing Iterator
each Limit
Core JS
pad TimeComponent
Handler Interface
Ġtransform Result
Ġtransform FileSync
Ġtransform Runner
search From
ĠUn supported
Day WithinYear
Ġsafe Buffer
Ġsafe ToString
Ġscript Covs
]] ],
Ġhandle Filter
task Options
Ġparams Nodes
NA M
Rest Spread
ĠIterator Result
component Of
Ġhex len
ĠDe ep
ĠDe precation
Ġthen Stack
Ġ'') ;
Ġsplit String
Ġdot s
bul let
Ġrs Symbol
Ġrs Modifier
Ġrs Seq
Non Number
Ġraw Version
original Value
normalize Opts
active Filters
(/^ '|'
EX CA
Ġter nary
UN ORDERED
Ġfield Types
Ġstrip Spaces
Raw Formatter
Root Config
áĢ ¼
áĢ Ģ
áĢ Ħ
áĢ Ĳ
static Require
Option Role
Ġinter med
ĠRE VERSE
Null able
walk Rules
Ġpass Pairs
Close Event
Out dated
Worker Thread
every Limit
custom Properties
STR ICT
ĠBigInt Bitwise
CON T
Header Role
Header Dependency
old Name
ĠAST Utils
Ġensure String
âĢ ¢
ĠisValid Escape
ĠFOR CE
Left Shift
tim ed
Encoding Type
clear Memoized
ctx Handler
typescript lang
Ġclear Interval
Byte code
User Objects
IG RlZmF
Ġfallback To
Bit Length
variable Name
Flow Fix
Ġq Length
DOM Node
DOM Iterables
Ġansi Code
catch Entry
ensure Hook
Update Callback
Ġsection Name
Ġmatches Range
40 4
## #
program Path
isFunction Declaration
Agent Callback
Ġenvironment Variables
Nodes Into
lines AndColumnsComputed
Ġren amed
Neg ate
PRE ACT
my module
ĠRed u
Tick s
ArrayLike Object
Ġextract Properties
Ġextract edValue
(! !
Browser Type
Ġim ulh
cp p
gu ide
attribute Deprecated
proxy Of
ks Row
Ġfull Name
Ġpreserve Comments
Ġpreserve Order
byte code
Ġabsolute Imports
builder s
Ġcoerce To
meta Map
ĠWrit es
Ġ'! ';<
cre ating
species Constructor
Html Element
Ġ', ',
Ġinternal ObjectKeys
Media Query
Media QueryList
ynchron ize
ster isk
Ġ({ }
yY W
sym ToStringTag
lookup Type
lookup Value
lookup NonWSType
ĠMin utes
ĠMin ipass
Bar Role
Ġ~ ($
Rpc Handler
mask ing
mask ed
spawn Sync
absolute Runtime
Indexed Pairs
Ġ/\ $
Http Error
Ġ'& #
ĠServer T
Wrap ToString
Wrap Details
Ġ`. `
Ġregexp Exec
ĠLe apManager
FFFF F
DEF INE
DEF LATE
Ġ'? ',<
ĠFile PackageData
Ġws Closed
Ġprevious Line
Ġcollection Strong
Handle s
Ġextra ctor
Ġextra Lines
Whitespace Chars
ĠSecond s
Ġ19 01
Ġ19 69
ĠMake Date
NON E
NOT ATION
float Time
+/ ,
auto Encryption
Sp ies
Union Type
Ġreduce Right
Ġeq Str
Ġexplicit Params
Ġfinally Entry
ĠLE ADING
shared memory
Interactive Mode
|\\ {}()
preserve Timestamps
Leading Zero
Leading AndTrailing
visitor Keys
cd c
cs sesc
missing Plugin
Ġ/> ',
Ġ/> `,<
Within Day
ĠStart StuffOff
Ġactive XDocument
must Call
Ġconstruct Yaml
ĠInternal Options
cmp Str
('# '
maybe Promise
maybe Add
flush ed
Priority Node
ĠTime FromYear
ĠTime Clip
ĠTime WithinDay
Have Configurable
Ġctor Name
Ġwatch man
ĠFormat tingElementList
shorthand Getter
shorthand Setter
Ġexit ed
detect Limit
Ġident ified
ĠPer form
ĠEMPTY STRING
CTOR Y
rs NonAstral
wasm Gen
cached Source
Ġtre ated
emoji Cache
10000 000
conf ident
Diff Options
ĠESLint Utils
Ġtake While
Ġdynamic Anchor
Ġdist inct
pull All
Ġstar Star
cup board
ĠTransform File
Ġmatched Tests
ĠRequest Shortener
79 480
Ġlater LogMissing
Ġcaller Name
yb WVy
Ġorig PrepareStackTrace
Lookup Locations
{} [\]
quote Role
Hmac SHA
EB RACKET
Ġinline Request
Ġ'; ',
YAML Seq
Regexp FeaturesPlugin
Push Newline
Ġdate Tag
Generic TypeAnnotation
ĠImport Declaration
Ġmedia Query
Ġdisplay Name
Timer Handle
ĠPath Type
character data
Ġalign ment
FIL L
OPER ATORS
Ġtransaction s
BY TES
Me an
locate Options
isF inished
calc Before
Ġowner Document
groupBy ToMap
signal Handlers
upper First
access ors
oll ar
Ġmask ed
ĠMerge Strategy
record s
Ġascii Size
Ġascii ToArray
ĠbaseGet AllKeys
Calls ite
Preset Chain
spread Array
ĠJsonRpc Validation
Rgb a
Ġhue ToRgb
Produ cers
ĠCl oned
Decor ation
ĠVariable Declaration
mime Type
}- ${
isE ven
Ġ'?' "<
Generated Code
Click ed
Ġtrimmed EndIndex
Pa inter
Simple Windows
Ġmost ly
Signal Handler
ObjectType Property
Ġ'\' '
encoded Buffer
Show ConfigPath
TO OLS
Ġ*~ <
ĠarrayMethod HasSpecies
Ġmerged Stream
GRE GATE
Ġweek day
ĠCommon Client
SYMBOL S
tweet nacl
Workbox Plugin
mean By
Week Day
Iss ues
('" '
ĠGrid Row
ĠStyle Array
ĠtransformFile Async
ĠtransformFile Runner
metr ics
need Cas
hand book
ĠMut able
Num bered
getter For
ARG UMENT
xd g
[...]
