{"<s>":0,"<pad>":1,"</s>":2,"<unk>":3,"<mask>":4,"!":5,"\"":6,"#":7,"$":8,"%":9,"&":10,"'":11,"(":12,")":13,"*":14,"+":15,",":16,"-":17,".":18,"/":19,"0":20,"1":21,"2":22,"3":23,"4":24,"5":25,"6":26,"7":27,"8":28,"9":29,":":30,";":31,"<":32,"=":33,">":34,"?":35,"@":36,"A":37,"B":38,"C":39,"D":40,"E":41,"F":42,"G":43,"H":44,"I":45,"J":46,"K":47,"L":48,"M":49,"N":50,"O":51,"P":52,"Q":53,"R":54,"S":55,"T":56,"U":57,"V":58,"W":59,"X":60,"Y":61,"Z":62,"[":63,"\\":64,"]":65,"^":66,"_":67,"`":68,"a":69,"b":70,"c":71,"d":72,"e":73,"f":74,"g":75,"h":76,"i":77,"j":78,"k":79,"l":80,"m":81,"n":82,"o":83,"p":84,"q":85,"r":86,"s":87,"t":88,"u":89,"v":90,"w":91,"x":92,"y":93,"z":94,"{":95,"|":96,"}":97,"~":98,"¡":99,"¢":100,"£":101,"¤":102,"¥":103,"¦":104,"§":105,"¨":106,"©":107,"ª":108,"«":109,"¬":110,"®":111,"¯":112,"°":113,"±":114,"²":115,"³":116,"´":117,"µ":118,"¶":119,"·":120,"¸":121,"¹":122,"º":123,"»":124,"¼":125,"½":126,"¾":127,"¿":128,"À":129,"Á":130,"Â":131,"Ã":132,"Ä":133,"Å":134,"Æ":135,"Ç":136,"È":137,"É":138,"Ê":139,"Ë":140,"Ì":141,"Í":142,"Î":143,"Ï":144,"Ð":145,"Ñ":146,"Ò":147,"Ó":148,"Ô":149,"Õ":150,"Ö":151,"×":152,"Ø":153,"Ù":154,"Ú":155,"Û":156,"Ü":157,"Ý":158,"Þ":159,"ß":160,"à":161,"á":162,"â":163,"ã":164,"ä":165,"å":166,"æ":167,"ç":168,"è":169,"é":170,"ê":171,"ë":172,"ì":173,"í":174,"î":175,"ï":176,"ð":177,"ñ":178,"ò":179,"ó":180,"ô":181,"õ":182,"ö":183,"÷":184,"ø":185,"ù":186,"ú":187,"û":188,"ü":189,"ý":190,"þ":191,"ÿ":192,"Ā":193,"ā":194,"Ă":195,"ă":196,"Ą":197,"ą":198,"Ć":199,"ć":200,"Ĉ":201,"ĉ":202,"Ċ":203,"ċ":204,"Č":205,"č":206,"Ď":207,"ď":208,"Đ":209,"đ":210,"Ē":211,"ē":212,"Ĕ":213,"ĕ":214,"Ė":215,"ė":216,"Ę":217,"ę":218,"Ě":219,"ě":220,"Ĝ":221,"ĝ":222,"Ğ":223,"ğ":224,"Ġ":225,"ġ":226,"Ģ":227,"ģ":228,"Ĥ":229,"ĥ":230,"Ħ":231,"ħ":232,"Ĩ":233,"ĩ":234,"Ī":235,"ī":236,"Ĭ":237,"ĭ":238,"Į":239,"į":240,"İ":241,"ı":242,"Ĳ":243,"ĳ":244,"Ĵ":245,"ĵ":246,"Ķ":247,"ķ":248,"ĸ":249,"Ĺ":250,"ĺ":251,"Ļ":252,"ļ":253,"Ľ":254,"ľ":255,"Ŀ":256,"ŀ":257,"Ł":258,"ł":259,"Ń":260,"ĠĠ":261,"re":262,";<":263,"Ġ=":264,"ĠĠĠĠ":265,"on":266,"er":267,"--":268,"in":269,"or":270,"><":271,"st":272,"ĠĠĠ":273,"ar":274,"le":275,"Ġ{":276,"ct":277,"th":278,");<":279,"al":280,"Ġre":281,"de":282,"ion":283,"se":284,"Ġ{<":285,"at":286,"----":287,"ro":288,"en":289,"un":290,"Ġf":291,"qu":292,"is":293,"Ġc":294,"ex":295,"ur":296,"Ġ(":297,"Ġ}":298,"ire":299,"var":300,"('":301,"quire":302,"ort":303,"pe":304,"./":305,"port":306,"Ġt":307,"es":308,"Ġ'":309,"ction":310,"Ġth":311,"Ġ*":312,"an":313,"unction":314,"Ġrequire":315,"ype":316,"it":317,"Ġn":318,"tur":319,"turn":320,"str":321,"ing":322,"ĠĠĠĠĠĠĠ":323,"if":324,"ue":325,"--------":326,"ul":327,"od":328,"//":329,"export":330,"');<":331,"ce":332,"Ġp":333,"bj":334,"Ġo":335,"pt":336,"as":337,"ĠĠĠĠĠ":338,"ule":339,"am":340,"Ġreturn":341,"../":342,"onst":343,"ent":344,"et":345,"ode":346,"==":347,"ra":348,",<":349,"Ġ}<":350,"odule":351,">}":352,"ed":353,"Ġ_":354,"Ġs":355,"val":356,"ect":357,"def":358,"ch":359,"ter":360,"exports":361,"im":362,")<":363,"Ġif":364,"lo":365,"Ġb":366,"per":367,"bject":368,"il":369,"**":370,"ol":371,"ate":372,"Ġstr":373,"Ġfunction":374,"ult":375,"Ġm":376,"ab":377,"um":378,"Ġthis":379,"type":380,"ut":381,"Ġ\"":382,"rom":383,"ic":384,"om":385,"to":386,"ri":387,"Ġa":388,"Ġin":389,"value":390,"const":391,"module":392,"function":393,"')":394,"able":395,"ver":396,"ions":397,"Re":398,".<":399,"';<":400,"----------------":401,"Pro":402,"tr":403,"ap":404,"use":405,"ault":406,"ray":407,"ey":408,"ser":409,"ad":410,"Ġvar":411,"Ġthe":412,"pl":413,"ath":414,"('../":415,"ck":416,"ror":417,"Ġ===":418,"get":419,"/<":420,"Ġ0":421,"Ġw":422,"el":423,"ext":424,"In":425,"('./":426,"ig":427,"ame":428,"pro":429,"Object":430,"Ġtr":431,"Ġd":432,"id":433,"',":434,"ht":435,"(\"":436,"ptions":437,"Ġis":438,"ict":439,">//":440,"all":441,"()":442,"defin":443,"op":444,"inter":445,"ĠT":446,"pert":447,">}<":448,"Ġ|":449,"ge":450,"ew":451,"Ġ@":452,"ĠĠĠĠĠĠĠĠĠĠĠ":453,"Ar":454,"Ġto":455,"Ġstrict":456,"/**":457,"Ġ&":458,"Ġ*/<":459,"Ġcon":460,"Ġfrom":461,"Ġtrue":462,"Ġ+":463,"ĠC":464,"em":465,"of":466,"key":467,"ĠS":468,"len":469,"default":470,"our":471,"est":472,"cl":473,"ve":474,"perty":475,"ot":476,"Ġconst":477,"Er":478,"Ġ&&":479,"import":480,"Error":481,"Ġvalue":482,"ĉĉ":483,"._":484,"js":485,"ff":486,"ber":487,"Array":488,"set":489,"ource":490,"ile":491,"De":492,"/**<":493,"ace":494,"Ġ=>":495,"gth":496,"ub":497,"are":498,"this":499,"ment":500,"con":501,"ase":502,"Ġan":503,"nt":504,"ata":505,"Ġ!":506,"Ġ`":507,"Ġ//":508,"ctor":509,"Ġ1":510,"Ġnew":511,"totype":512,"ir":513,"Ġtype":514,"\";<":515,"length":516,"Ġ[":517,"umber":518,"ass":519,"ps":520,"Ġde":521,"Property":522,"\");<":523,"ation":524,"nc":525,"par":526,"arg":527,"Ġstring":528,"ack":529,"require":530,"Ġst":531,"cri":532,"Ġl":533,"Ġfor":534,"ess":535,"Ġ||":536,"he":537,"Type":538,">};<":539,"row":540,"ator":541,"res":542,"return":543,"Ġun":544,"tring":545,"];<":546,"ull":547,"string":548,"oo":549,"}<":550,"alse":551,"co":552,"ĠM":553,"com":554,"Ġ:":555,"intern":556,"htt":557,"Ġi":558,"Ġpro":559,"end":560,"ith":561,"Ġh":562,"Ġof":563,"ist":564,"util":565,"Ġ?":566,"Ġg":567,"dex":568,"uff":569,"))":570,"let":571,"St":572,"int":573,"als":574,"Ġ<":575,"Ġfalse":576,"00":577,"Ġ!==":578,"Ġ$":579,"define":580,"ĠĠĠĠĠĠĠĠ":581,"://":582,"atch":583,"prototype":584,"Ġres":585,"cript":586,"Ex":587,"Ġas":588,"uffer":589,"ĠA":590,"Ġobj":591,"node":592,"Def":593,"String":594,"ym":595,"Ġoptions":596,"Ġ-":597,"Ġ()":598,"ĠB":599,"')<":600,"ense":601,"--------------------------------":602,"icense":603,"age":604,"reate":605,"defined":606,"sion":607,"Map":608,"Ġit":609,"ĠL":610,"\")":611,"Ġnode":612,"up":613,"ug":614,"us":615,"ind":616,"object":617,"for":618,"('../../":619,"bol":620,"Module":621,"array":622,"();<":623,"iz":624,"der":625,"ach":626,"ymbol":627,"ync":628,"wn":629,"Con":630,"Ġ});<":631,"lob":632,"ument":633,"https":634,"Ġsource":635,"Require":636,"Ġpath":637,"ĠP":638,"sert":639,"Val":640,"lement":641,"internals":642,"Ġget":643,"Ġnull":644,"****":645,"stru":646,"Ġbe":647,"ag":648,"'<":649,"os":650,"modules":651,"Ġkey":652,"ĠR":653,"\",":654,"Ġ2":655,"pts":656,"li":657,"Ġ(!":658,"ange":659,"To":660,"EN":661,"Default":662,"__":663,"ins":664,"name":665,"Ġarg":666,"ma":667,"ER":668,"ĠI":669,"path":670,"and":671,"ine":672,"art":673,"Ġe":674,"lass":675,"ĠG":676,"oun":677,"vent":678,"interop":679,"(\"./":680,"Ġ};<":681,").":682,"?:":683,"error":684,"text":685,"interopRequire":686,"ise":687,"ry":688,"defineProperty":689,"UR":690,"fig":691,"ĠN":692,"typeof":693,"place":694,"Key":695,"Ġdata":696,"Ġr":697,"Ġv":698,"map":699,"ener":700,"oc":701,"qual":702,"ly":703,"Ġcom":704,"ĠObject":705,"structor":706,"eth":707,"else":708,"Ġlo":709,"Ġex":710,"ore":711,"param":712,"esModule":713,"ken":714,"olor":715,"interopRequireDefault":716,"cess":717,"Ġ/":718,"call":719,"ize":720,"ĠRe":721,"ign":722,"Of":723,"ime":724,"Ġnumber":725,"Ġundefined":726,"',<":727,"ak":728,"Ġnot":729,"unc":730,"Ġse":731,"bser":732,"ive":733,"iter":734,"vert":735,"Ġpar":736,"Ġelse":737,"rap":738,"utils":739,"Ġhttps":740,"..":741,"Ġor":742,"lobal":743,"pre":744,"Ġ*<":745,"err":746,"rig":747,"Ġand":748,"romise":749,"Ġdefault":750,"ĠĠĠĠĠĠĠĠĠ":751,"obj":752,"options":753,"ĠF":754,"IT":755,"Ġon":756,"Ġcall":757,"bserv":758,"ers":759,"ĠO":760,">});<":761,"ild":762,"Value":763,"bservable":764,"ream":765,"put":766,"act":767,"ethod":768,"right":769,"code":770,"Ġen":771,"rit":772,"Ġch":773,"alk":774,"Ġtypeof":775,"has":776,"clare":777,"Ġ>":778,"ix":779,"Ġval":780,"ĠD":781,"arent":782,"SE":783,"ies":784,"Ġthrow":785,"ec":786,"ance":787,"opy":788,"Ġset":789,"ast":790,"back":791,"/*":792,"Ġcode":793,"lean":794,"ĠU":795,"):":796,"ans":797,"').":798,"ĠType":799,"criptor":800,"ON":801,"ound":802,"essage":803,"version":804,"Ġ'../":805,"Ġfile":806,"fe":807,"URL":808,"ĠW":809,"unt":810,"olve":811,"ca":812,"org":813,"trins":814,"trinsic":815,"ĠĠĠĠĠĠĠĠĠĠĠĠĠĠĠ":816,"ow":817,"sh":818,"add":819,"Name":820,"ss":821,"eb":822,">/**<":823,"ay":824,"('./_":825,"init":826,"index":827,"test":828,"oolean":829,"Int":830,"Ġname":831,"Ġmodule":832,"ole":833,"uments":834,"Exp":835,"next":836,"oid":837,"ames":838,"Ġlet":839,"====":840,"Ġthat":841,"ĠE":842,"ip":843,"Class":844,"*/<":845,"ust":846,"create":847,"Ġ{}":848,"out":849,"JS":850,"Ġby":851,"pect":852,"'),<":853,"ctory":854,"form":855,"Options":856,"Node":857,"Symbol":858,"low":859,"ify":860,"read":861,"ping":862,"Path":863,"Ġresult":864,"Ġassert":865,"ifi":866,"dir":867,"ache":868,"Ġobject":869,"ĠGet":870,"Ġhas":871,"arget":872,"Ġpre":873,"Ġwith":874,"ord":875,"),":876,"Code":877,"Ġwh":878,"comp":879,"ll":880,"source":881,"01":882,"core":883,"dent":884,"tern":885,"Ġexports":886,"Ġvoid":887,"yle":888,"entry":889,"cur":890,"Ġopts":891,"({":892,"Ġ})<":893,"elper":894,"Ġuse":895,"Ġext":896,"Un":897,"ure":898,"Own":899,"ib":900,"ush":901,"pace":902,"ill":903,"log":904,"Prototype":905,"eg":906,"Com":907,"********":908,"));<":909,"ial":910,"Ġ},<":911,"Ġ'./":912,"file":913,"ĠH":914,"\\\\":915,"equal":916,"ĠArray":917,"uper":918,"Ġparse":919,"IN":920,"Ġtest":921,"no":922,"chem":923,"Ġcomp":924,"stance":925,"umer":926,"Ġes":927,"Element":928,"ated":929,"riv":930,"Ġcreate":931,"'));<":932,"ren":933,"one":934,"IC":935,"license":936,"Function":937,"pen":938,"jo":939,"url":940,"++":941,"ĠThe":942,"ac":943,"ork":944,"des":945,"count":946,"ues":947,"rivate":948,"ta":949,"]<":950,"opyright":951,"pec":952,"OR":953,"Ġbase":954,"${":955,"data":956,"\",<":957,"ax":958,"types":959,"Ġarray":960,"Ġ3":961,"Intrinsic":962,"from":963,"ugin":964,"lint":965,"face":966,"older":967,"Range":968,"declare":969,"Im":970,"mo":971,"Buffer":972,"ĠGetIntrinsic":973,"],":974,"rc":975,"Mapping":976,"Number":977,"heck":978,"TypeError":979,"Ġ\"__":980,"Ġconvert":981,"ĠError":982,"chema":983,"Des":984,"Ġfunc":985,"iv":986,"Ġdes":987,"ang":988,"ded":989,"bind":990,"ost":991,"arr":992,".__":993,"Ġy":994,"ĠCopyright":995,"Ġlicense":996,"upport":997,"line":998,"Index":999,"Res":1000,"ition":1001,"ant":1002,"':":1003,"ke":1004,"Ġarguments":1005,"uld":1006,"parse":1007,"ould":1008,"At":1009,"(_":1010,"MappingURL":1011,"vi":1012,"class":1013,"[]":1014,"gex":1015,"writ":1016,"join":1017,"----------------------------------------------------------------":1018,"push":1019,");":1020,"Ġat":1021,"holder":1022,"ecma":1023,"------------------------------------------------------------------------":1024,"Ġsh":1025,"ĠsourceMappingURL":1026,"OwnProperty":1027,"his":1028,"sync":1029,"Call":1030,"over":1031,"dd":1032,"helper":1033,"ubl":1034,"ply":1035,"lf":1036,"vel":1037,"bug":1038,"its":1039,"ES":1040,"Ch":1041,"root":1042,">//#":1043,"``":1044,"number":1045,"En":1046,"/#":1047,"Observable":1048,"ree":1049,"----------------------------------------------------------------------------":1050,"pos":1051,"abel":1052,"File":1053,"lice":1054,"Ġerror":1055,"List":1056,"fix":1057,"ends":1058,"ash":1059,"Ġmethod":1060,"Ġfa":1061,"([":1062,"State":1063,"red":1064,"placeholder":1065,"Ġglobal":1066,"\"));<":1067,"Ġ/**<":1068,"valid":1069,"].":1070,"11":1071,"ENT":1072,"quest":1073,"lib":1074,"throw":1075,"ithub":1076,"sub":1077,"(<":1078,"github":1079,"ary":1080,"uth":1081,"lock":1082,"Descriptor":1083,"dis":1084,"sec":1085,"ject":1086,"()<":1087,"her":1088,"ose":1089,"Ġ},":1090,"--<":1091,"ĠTypeError":1092,"attern":1093,"ils":1094,"ĠCh":1095,"Se":1096,"ight":1097,"ther":1098,"Ġ{};<":1099,"ĠIn":1100,"ative":1101,"Ġx":1102,"irst":1103,"http":1104,"Data":1105,"rent":1106,"perator":1107,"ifier":1108,"Ġconfig":1109,"sions":1110,"Sync":1111,"ual":1112,"only":1113,"Arg":1114,"ST":1115,"ĠBuffer":1116,"ity":1117,"`<":1118,"iterator":1119,"ĉĉĉ":1120,"perties":1121,"26":1122,"]);<":1123,"ep":1124,"imit":1125,"Ġentry":1126,"css":1127,"ute":1128,"replace":1129,"cket":1130,"AR":1131,"------------------------------------------------------------------------------<":1132,"parent":1133,"ĠMIT":1134,"\"<":1135,"ression":1136,"cope":1137,"rapper":1138,"Set":1139,"word":1140,"Par":1141,"mon":1142,"imp":1143,"tes":1144,"ption":1145,"(\"../":1146,"Ġextends":1147,"Ġindex":1148,"ĠCon":1149,"que":1150,"AT":1151,"Pl":1152,"Ġcontext":1153,"global":1154,"Ġfound":1155,"terface":1156,"Ġno":1157,"Ġcan":1158,"ublic":1159,"clar":1160,"move":1161,"Ġsuper":1162,"opts":1163,"Equal":1164,"ilter":1165,"Ġcallback":1166,"amp":1167,"ICEN":1168,"Iter":1169,"Ġany":1170,"ICENSE":1171,"Is":1172,"clu":1173,"Ġresolve":1174,"Ġprocess":1175,"Ġparent":1176,"lect":1177,"uthor":1178,"Ġlength":1179,"char":1180,"be":1181,"undefined":1182,"262":1183,"...":1184,"ID":1185,"slice":1186,"Ġ[];<":1187,"denc":1188,"pendenc":1189,"not":1190,"ook":1191,"VG":1192,"ved":1193,"cape":1194,"json":1195,"Ġclass":1196,"Ut":1197,"32":1198,"gExp":1199,"sole":1200,"ansform":1201,"An":1202,"lose":1203,"base":1204,"Ġcase":1205,"irectory":1206,"web":1207,"start":1208,"Time":1209,"cription":1210,"Len":1211,"led":1212,"ĠTo":1213,"ĠLicense":1214,"style":1215,"ĠLICENSE":1216,"From":1217,"Ġsub":1218,"lector":1219,"returns":1220,"color":1221,"fs":1222,"gener":1223,"orm":1224,"buffer":1225,"Ġconstructor":1226,"head":1227,"Each":1228,")(":1229,"unk":1230,"Ġinstance":1231,"ffset":1232,":<":1233,"Ġfs":1234,"Source":1235,"property":1236,"resolve":1237,"args":1238,"Ġ+=":1239,"env":1240,"Ġstat":1241,"Ġbu":1242,"tri":1243,"Ġ,":1244,"umerable":1245,"ĠJS":1246,"ink":1247,"PrototypeOf":1248,"OD":1249,"mit":1250,"Ġal":1251,"Id":1252,"],<":1253,"min":1254,"With":1255,"ww":1256,"By":1257,"tent":1258,"Ġboolean":1259,"addRange":1260,"Ġversion":1261,"Ġutils":1262,"16":1263,"========":1264,"new":1265,"cod":1266,"toString":1267,"empl":1268,"eger":1269,"Ġevent":1270,"64":1271,"ĠUse":1272,"[\"":1273,"ĠString":1274,"pon":1275,"ĠPromise":1276,">//------------------------------------------------------------------------------<":1277,"])":1278,"pack":1279,"ain":1280,"constructor":1281,"list":1282,"rowser":1283,"++)":1284,"implement":1285,"assert":1286,"Ver":1287,"('%":1288,"disable":1289,"pected":1290,"match":1291,"try":1292,"Ġtoken":1293,"ular":1294,"Ġ4":1295,"open":1296,"Ġstate":1297,"Ġeslint":1298,"keys":1299,"col":1300,"ML":1301,"ner":1302,"ible":1303,"Ġargs":1304,"src":1305,"ake":1306,"level":1307,"scri":1308,"Ġ.":1309,"loc":1310,"helpers":1311,"trib":1312,"ard":1313,"emplate":1314,"convert":1315,"token":1316,"LE":1317,"Ġinterface":1318,"Ġare":1319,"Ġcolor":1320,"Ġnext":1321,"Ġ201":1322,"ocs":1323,"Event":1324,"null":1325,"Ġtarget":1326,"babel":1327,"process":1328,"ĠChalk":1329,"Ġmatch":1330,"plit":1331,"Ġstart":1332,"`.<":1333,"SS":1334,"ml":1335,"Props":1336,"etad":1337,"ments":1338,"cat":1339,"Ġcur":1340,"write":1341,"etadata":1342,"lag":1343,"Impl":1344,"ok":1345,"amespace":1346,"Role":1347,"Tr":1348,"Case":1349,"lease":1350,"OM":1351,"config":1352,"Ġunder":1353,"FI":1354,"\"]":1355,"RA":1356,"fore":1357,"Ġ\"./":1358,"ike":1359,"Ġpl":1360,"foo":1361,"pty":1362,"Ġlist":1363,"Token":1364,"/*<":1365,"rl":1366,"strict":1367,"apply":1368,"All":1369,"stream":1370,"ĠThis":1371,"iable":1372,"date":1373,"claration":1374,"Ġout":1375,"Ġmust":1376,"func":1377,"message":1378,"Ġlog":1379,"ait":1380,"Ġdeclare":1381,"ĠObservable":1382,"Ġdo":1383,"Color":1384,"ler":1385,"Ġhttp":1386,"Ġkeys":1387,"PE":1388,"ched":1389,"Result":1390,">;<":1391,"%');<":1392,"Ġroot":1393,"Ġpos":1394,"fn":1395,"Ġsupport":1396,"Ġself":1397,"ery":1398,"te":1399,"Ġiter":1400,"ave":1401,"ts":1402,"(?:":1403,"ocket":1404,"afe":1405,"ite":1406,"Ġfn":1407,"Ġvalid":1408,"Ġadd":1409,"ĠSymbol":1410,"ĠMath":1411,"reak":1412,"Valid":1413,"ped":1414,"emit":1415,"Ġcheck":1416,"impl":1417,"indow":1418,"ample":1419,"Plugin":1420,"vid":1421,"Ġmessage":1422,"ount":1423,"rence":1424,"Ġurl":1425,"Expression":1426,"Rule":1427,"Ġchar":1428,"arn":1429,"****************":1430,"Stream":1431,"ft":1432,"gr":1433,"};<":1434,"Ġstream":1435,"39":1436,"dentifier":1437,"ference":1438,"Or":1439,"['":1440,"io":1441,"Url":1442,"Ġcatch":1443,"jest":1444,"(\"@":1445,"context":1446,"Ġ==":1447,"Ġread":1448,"assign":1449,"ational":1450,"si":1451,"input":1452,"forEach":1453,"Ġ'../../":1454,"Length":1455,"Ġtry":1456,"0000":1457,"ocument":1458,"LO":1459,"nown":1460,"});<":1461,"ref":1462,"symbol":1463,"queue":1464,"For":1465,"As":1466,"Config":1467,"10":1468,">*/<":1469,"international":1470,"ĠReturn":1471,"TML":1472,"isArray":1473,"private":1474,"(/":1475,"().":1476,"Definit":1477,"ader":1478,"eak":1479,"Ġspec":1480,"bu":1481,"boolean":1482,"chalk":1483,"fill":1484,"ates":1485,"oint":1486,"Ġproperty":1487,"iteral":1488,"target":1489,"56":1490,"ne":1491,"rule":1492,"iel":1493,"Pre":1494,"Ġarr":1495,"link":1496,"RE":1497,"ong":1498,"ress":1499,"wait":1500,"vider":1501,"Tag":1502,"Ġend":1503,"Ġ>=":1504,"inal":1505,"ĠĠĠĠĠĠĠĠĠĠĠĠĠĠĠĠĠĠĠ":1506,"Promise":1507,"raw":1508,"erge":1509,"ield":1510,"Ġitem":1511,"ail":1512,"Ġu":1513,"irt":1514,"Ġdefine":1515,"ĠAll":1516,"umn":1517,"ĠRes":1518,">\"":1519,"'t":1520,"Ġcb":1521,"SI":1522,"proto":1523,"irtual":1524,"versions":1525,"strictEqual":1526,"rame":1527,"({<":1528,"[];<":1529,"Ġwe":1530,"work":1531,"true":1532,"gb":1533,"item":1534,"ustom":1535,"readonly":1536,"stat":1537,"TY":1538,"{<":1539,"Ġap":1540,"result":1541,"rypt":1542,"gram":1543,"Ġmax":1544,"author":1545,"Ġac":1546,"Ġbuffer":1547,"chedul":1548,"range":1549,"Ġinstanceof":1550,"Le":1551,"odel":1552,"eta":1553,"Ġwrit":1554,"cheduler":1555,"ĠCom":1556,"/_":1557,"Cache":1558,"race":1559,"Iterator":1560,"ignore":1561,"Ġne":1562,"post":1563,"urable":1564,"Dependenc":1565,"Loc":1566,"ten":1567,"Ġerr":1568,"cale":1569,"=\"":1570,"ish":1571,"angular":1572,"),<":1573,"Constructor":1574,"\")<":1575,"ĠJ":1576,"Ġmap":1577,"GE":1578,"child":1579,"charCode":1580,"und":1581,"Ġvalues":1582,"sc":1583,"ĠIs":1584,"FF":1585,"licenses":1586,"Like":1587,"esnext":1588,"fo":1589,"fter":1590,"event":1591,"lete":1592,"Ġwhile":1593,"Ġdescriptor":1594,"Ġexp":1595,"herits":1596,"implementation":1597,"ms":1598,"ask":1599,"trim":1600,"ia":1601,"Ġconsole":1602,"Ac":1603,"Method":1604,"tc":1605,"Context":1606,"ĠsuperClass":1607,"tem":1608,"do":1609,"ormal":1610,"Ġdebug":1611,"tain":1612,"split":1613,"Sub":1614,"intrinsic":1615,"ENTI":1616,"ally":1617,"Ġab":1618,"ilen":1619,"Ġdir":1620,"parser":1621,"FIER":1622,"Get":1623,"api":1624,"((":1625,"ENTIFIER":1626,"Utils":1627,"asse":1628,"react":1629,"LC":1630,"ĠNode":1631,"Ġlen":1632,"operator":1633,"html":1634,"Ġshould":1635,"by":1636,"Ġ['":1637,"ou":1638,"Declaration":1639,"gle":1640,"counts":1641,"IDENTIFIER":1642,"coding":1643,"aN":1644,"('../../../":1645,"Keys":1646,"iven":1647,"sing":1648,"Ġprivate":1649,"Ġle":1650,"alled":1651,"Test":1652,"indexOf":1653,"Ġ};":1654,"ED":1655,"Ġ+<":1656,"false":1657,"internal":1658,"mat":1659,"Ġbreak":1660,"Ġinput":1661,"ell":1662,"Ġchild":1663,"Async":1664,"ĠĠĠĠĠĠĠĠĠĠĠĠĠĠĠĠ":1665,"ants":1666,"untime":1667,"Integer":1668,"bo":1669,"async":1670,"Properties":1671,"Ġgiven":1672,"tra":1673,"Ġj":1674,"Names":1675,"kip":1676,"opensource":1677,"regex":1678,"inary":1679,"concat":1680,"20":1681,"Base":1682,"RegExp":1683,"Ġasync":1684,"pa":1685,"erved":1686,"state":1687,"scriber":1688,"method":1689,"isit":1690,"))<":1691,"Ġparser":1692,"cond":1693,"```<":1694,"xy":1695,"ody":1696,"Ġ);<":1697,"max":1698,"ĠReturns":1699,"Ġ5":1700,"charCodeAt":1701,"Ġid":1702,"ights":1703,"Ġdis":1704,"Ġdirectory":1705,"](":1706,"Definition":1707,"view":1708,"gor":1709,"Ġ((":1710,"Ġz":1711,"ĠRule":1712,"ĠRights":1713,"Ġrange":1714,"ĠReserved":1715,"ĠBN":1716,"query":1717,"filter":1718,"Ġall":1719,"should":1720,"ilename":1721,"Ġ${":1722,"ines":1723,"\").":1724,"Ġloc":1725,">/**":1726,"ph":1727,"Ġcache":1728,"Ġup":1729,"iled":1730,"plic":1731,"Ġmin":1732,">'":1733,"Ġmod":1734,"Schema":1735,"Ġline":1736,"Ġcompare":1737,"wd":1738,"sible":1739,"ift":1740,"Ġfactory":1741,"oogle":1742,"Unbind":1743,"ĠentryUnbind":1744,"CSS":1745,"Ġ<=":1746,"cept":1747,"Ġsrc":1748,"Ġ||<":1749,"gro":1750,"ĠK":1751,"'s":1752,"Ġcol":1753,"Ġ16":1754,"Start":1755,"Ġoffset":1756,"Bound":1757,"Message":1758,"MIT":1759,"This":1760,"ee":1761,"Ġcurrent":1762,"sol":1763,"Ġ{}<":1764,"overn":1765,"Ġprop":1766,"getOwnProperty":1767,"idth":1768,"arch":1769,"self":1770,"postcss":1771,"ries":1772,"ackage":1773,"hasOwnProperty":1774,"istr":1775,"Dependency":1776,"av":1777,"cache":1778,"ĠSVG":1779,"andler":1780,"Ġ'\\":1781,"Lo":1782,"Ġfirst":1783,"ages":1784,"PR":1785,"Ġcl":1786,"SVG":1787,"Regex":1788,"Ġgovern":1789,"plugin":1790,"size":1791,"Ġutil":1792,"Ġown":1793,"inherits":1794,"Up":1795,"ome":1796,"son":1797,"lection":1798,"tag":1799,"chor":1800,"ember":1801,"iver":1802,"nodes":1803,"Ġprefix":1804,"own":1805,"OSE":1806,"ces":1807,"Stat":1808,"Ġwhen":1809,"Th":1810,"ations":1811,"Size":1812,"Ġ10":1813,"12":1814,"Dir":1815,"Ġgener":1816,"load":1817,"Ġ/*":1818,"sl":1819,"eslint":1820,"lat":1821,"promise":1822,"Ġ&&<":1823,"common":1824,"ĉĉĉĉ":1825,"Ġ(_":1826,"writable":1827,"Version":1828,"][":1829,"close":1830,"ich":1831,"ODE":1832,"Scope":1833,"():":1834,"Pos":1835,"tin":1836,"last":1837,">/*":1838,"Per":1839,"Ġ8":1840,"spec":1841,"201":1842,"})":1843,"exp":1844,"Transform":1845,"remove":1846,"release":1847,"ĠGoogle":1848,"Keyword":1849,"LA":1850,"off":1851,"ists":1852,"ĠLLC":1853,"Enc":1854,"overview":1855,"Ġgoverned":1856,"find":1857,"Ġ\"@":1858,"Ġk":1859,"iginal":1860,"AL":1861,"Char":1862,"www":1863,"tribute":1864,"Gener":1865,"struct":1866,"ĠJSON":1867,"mand":1868,"wrap":1869,"fileoverview":1870,"amd":1871,"(),":1872,"Ġlast":1873,"Line":1874,"arguments":1875,"Ġ'[":1876,"Callback":1877,"docs":1878,"rypto":1879,"Ġem":1880,"Ġwill":1881,"ialize":1882,"Match":1883,"ccur":1884,"kg":1885,"verse":1886,"Ġ>>":1887,"dom":1888,"Ġrule":1889,"Ġ\"../":1890,"Ġbuf":1891,"Ġenumerable":1892,"URE":1893,"sent":1894,"Check":1895,"SourceMap":1896,"Ġawait":1897,"Ġexport":1898,"Ġwrap":1899,"Ġelement":1900,"ynt":1901,"lex":1902,"Ġpromise":1903,"AX":1904,"Ref":1905,"stringify":1906,"rimit":1907,"Ġonly":1908,"ark":1909,"Ġother":1910,"Sh":1911,"Ġloose":1912,">$":1913,"prop":1914,"du":1915,"tt":1916,"deep":1917,"loor":1918,"ĠSVGProps":1919,"Ġret":1920,"roy":1921,"MP":1922,"OT":1923,"Math":1924,"pac":1925,"Ġ/><":1926,"bg":1927,"escape":1928,"Ġ'';<":1929,"ponent":1930,"pend":1931,"ings":1932,"Ġ/^":1933,"Ġoccur":1934,"}`":1935,"ero":1936,"igInt":1937,"prec":1938,"\":":1939,"On":1940,"Bright":1941,"Style":1942,"dirname":1943,"yntax":1944,"finit":1945,"kdir":1946,"Ġinit":1947,"NaN":1948,"ĠSt":1949,"ick":1950,"ice":1951,"ead":1952,"olver":1953,"ĠPro":1954,"256":1955,"current":1956,"Parser":1957,"ĠV":1958,"Ġexpected":1959,"Offset":1960,"mpty":1961,"wh":1962,"Ġtime":1963,"Ġschema":1964,"andle":1965,"End":1966,"Script":1967,"The":1968,"Be":1969,"Ġfind":1970,"'),":1971,"Ġformat":1972,"ams":1973,"clude":1974,"erver":1975,"time":1976,"Ġprev":1977,"OL":1978,"ĠsubClass":1979,"ias":1980,"cludes":1981,"Assert":1982,"000":1983,"rimitive":1984,"raph":1985,"allet":1986,"example":1987,"ĠSet":1988,"Request":1989,"LOOSE":1990,"ansi":1991,"Template":1992,">///":1993,"Ġused":1994,"Ġms":1995,"(`":1996,"Ġwork":1997,"ĠEvent":1998,"ote":1999,"debug":2000,"ĠAn":2001,"Ġits":2002,"ĠUint":2003,"UM":2004,"Ġ6":2005,"Ġ!=":2006,"allow":2007,"ormalize":2008,"Ġenv":2009,"Ġfailed":2010,"super":2011,"Ġnon":2012,"ĠNumber":2013,"ĠInc":2014,"=>":2015,"rag":2016,"BU":2017,"bar":2018,"ĠModule":2019,"ponse":2020,"ION":2021,"pattern":2022,"================":2023,"ToArray":2024,"format":2025,"Emit":2026,"$/":2027,"finity":2028,"DE":2029,"Ġweb":2030,"Ġdocs":2031,"ĠRegExp":2032,"utf":2033,"Ġ__":2034,"cord":2035,"md":2036,"Ġtext":2037,"ĠY":2038,"known":2039,"Ġ[<":2040,"Ġus":2041,"support":2042,"Ġro":2043,"Ġhash":2044,"':<":2045,"card":2046,"any":2047,"ger":2048,"onent":2049,"Ġproto":2050,"Ġbrowser":2051,"sv":2052,"AN":2053,"rint":2054,"Ġhave":2055,"box":2056,"instance":2057,"Ġoutput":2058,"80":2059,"az":2060,"Ġconfigurable":2061,"actory":2062,"Ġpattern":2063,"ower":2064,"iler":2065,"ING":2066,"Selector":2067,"Ġinst":2068,"Block":2069,"Wh":2070,"ugins":2071,"tribut":2072,")[]":2073,"tinue":2074,"oly":2075,"ear":2076,"Ġremove":2077,"Ġrun":2078,"ceiver":2079,"Limit":2080,"SD":2081,">)":2082,"interface":2083,"Metadata":2084,"ified":2085,"Args":2086,"ĠJSX":2087,"apt":2088,"public":2089,"Ġtypes":2090,"parator":2091,"ToString":2092,"Ġimport":2093,"Fn":2094,"props":2095,"wit":2096,"callback":2097,"Ġone":2098,"Col":2099,"Qu":2100,"Ġrequest":2101,"Ġmake":2102,"Assertion":2103,"Ġprops":2104,"Var":2105,"runtime":2106,"dest":2107,"ific":2108,"bit":2109,"Item":2110,"glob":2111,"sure":2112,"Wrapper":2113,"Ġwhich":2114,"Ġint":2115,"wrapper":2116,"Ġ(<":2117,"locale":2118,"},":2119,"book":2120,"JSON":2121,"rules":2122,"CT":2123,"entries":2124,"propos":2125,"Ġcharact":2126,"UL":2127,"renc":2128,"ced":2129,"Ġdone":2130,"ĠMap":2131,"HTML":2132,"andom":2133,"Ġlicensed":2134,"Ġcopy":2135,"TER":2136,"());<":2137,"IS":2138,"Prop":2139,"ume":2140,"ĠFunction":2141,"implSymbol":2142,"offset":2143,"Ġtree":2144,"content":2145,"virtual":2146,"Ġreplace":2147,"Ġnamespace":2148,"witch":2149,"ildcard":2150,"Obj":2151,"ors":2152,"lem":2153,"abled":2154,"generated":2155,"Empty":2156,"odash":2157,"Generator":2158,"Ġsymbol":2159,"Ġbytes":2160,"Pattern":2161,"med":2162,"generate":2163,"Ġmeta":2164,"Ġencoding":2165,"Level":2166,"safe":2167,"emVer":2168,"Lower":2169,"sign":2170,"then":2171,"())":2172,"Ġstop":2173,"paces":2174,"Ġhead":2175,"Ġreject":2176,"sem":2177,"Flag":2178,"ĠĠĠĠĠĠ":2179,"']":2180,"Ġstatic":2181,"Init":2182,"TH":2183,"Ġ...":2184,"ous":2185,"values":2186,"Ġbefore":2187,"Ġ'@":2188,"OP":2189,"ized":2190,"Wildcard":2191,"olyfill":2192,"case":2193,"Ġignore":2194,"Ġoption":2195,"Web":2196,"Ġcalled":2197,"very":2198,"ĠSub":2199,"Cl":2200,"setPrototypeOf":2201,"Ġyou":2202,"Entry":2203,"umeric":2204,"air":2205,"Ap":2206,"Literal":2207,"num":2208,"Ġstack":2209,"OU":2210,"ingle":2211,"CE":2212,"Bu":2213,"bin":2214,"Typed":2215,"lear":2216,"anner":2217,"ternal":2218,"cwd":2219,"Ġbasedir":2220,"ures":2221,"stack":2222,"Ġwas":2223,"asses":2224,"Count":2225,"Ġover":2226,"Util":2227,"Ġpackage":2228,"Ġsize":2229,"TS":2230,"other":2231,"Ġproperties":2232,"compare":2233,"Ġparsed":2234,"extra":2235,"CH":2236,"sor":2237,"izer":2238,"Ġallow":2239,"Transformer":2240,"ik":2241,"Ġ'/":2242,"Ġargument":2243,"hash":2244,"Model":2245,"TE":2246,"Ġescape":2247,"ays":2248,"tainer":2249,"Co":2250,"Return":2251,"acebook":2252,"descriptor":2253,"uration":2254,"console":2255,"ĠHTML":2256,"description":2257,"nap":2258,"ĠEx":2259,"globalObject":2260,"we":2261,"ĠFacebook":2262,"Ġrgb":2263,"ĠSemVer":2264,"Ġcolors":2265,"ĠUsed":2266,"schema":2267,"lient":2268,"shift":2269,"LowerCase":2270,"ended":2271,"Ġprovi":2272,"side":2273,"Ġimplementation":2274,"fer":2275,"Ġ'__":2276,"Provider":2277,"Ġbut":2278,"Ġ%":2279,"Ġblock":2280,"inite":2281,"namespace":2282,"Ġpart":2283,"ĠRange":2284,">(":2285,"browser":2286,"req":2287,"exec":2288,"Date":2289,"first":2290,"Ġ!!":2291,"\"),":2292,"mp":2293,"oment":2294,"Ġwindow":2295,"Ġwritable":2296,"nection":2297,"proposal":2298,"Socket":2299,"Use":2300,"ert":2301,"')('":2302,"argument":2303,"essages":2304,"Ġqueue":2305,"Ġ=<":2306,"cribe":2307,"RAN":2308,"element":2309,"jv":2310,"Callable":2311,"solute":2312,"Ġpublic":2313,"Ġcontent":2314,"ception":2315,"Ġwrapper":2316,"request":2317,"coder":2318,"den":2319,"defaults":2320,"TYPE":2321,"Text":2322,"sp":2323,"Component":2324,"loat":2325,"Exten":2326,"eakMap":2327,"ME":2328,"Ġjs":2329,"\");":2330,"ĠDate":2331,"itional":2332,"redu":2333,"Finite":2334,"Ġdid":2335,"PropertyKey":2336,"regexp":2337,"Ġsign":2338,"Emitter":2339,"ld":2340,"xA":2341,"ategor":2342,"here":2343,"Not":2344,"ĠIm":2345,"ategory":2346,"toLowerCase":2347,"ĠMAX":2348,"nect":2349,"racket":2350,"Spec":2351,"present":2352,"ifiers":2353,"Ġrel":2354,"Ġvariable":2355,"Types":2356,"Identifier":2357,"Run":2358,"Ġclose":2359,"selector":2360,"project":2361,"Listener":2362,"action":2363,"Ġdoes":2364,"ĠĠĠĠĠĠĠĠĠĠĠĠĠ":2365,"locales":2366,"Ġwithout":2367,"ground":2368,"mod":2369,"Ġdest":2370,"gn":2371,"ilt":2372,"force":2373,"Ġdescription":2374,"Point":2375,"done":2376,"Ġast":2377,"ipe":2378,"pm":2379,"ĠIf":2380,"Ġreport":2381,"ollow":2382,"gistr":2383,"alle":2384,"Iterable":2385,"SA":2386,"block":2387,"ODO":2388,"'))":2389,"ĠcallBound":2390,">})<":2391,"lodash":2392,"plan":2393,"Inter":2394,"ĠTY":2395,"Bytes":2396,"buf":2397,"=\"@":2398,"observable":2399,"xt":2400,"orre":2401,"IL":2402,"cessor":2403,"Scheduler":2404,"typedef":2405,"ĠAN":2406,"bytes":2407,"FE":2408,"]+":2409,"Comp":2410,"scanner":2411,"ĠSee":2412,"prefix":2413,"Ġfiles":2414,"ĠConstructor":2415,"yst":2416,"ha":2417,"Symbols":2418,"orrect":2419,"Proto":2420,"math":2421,"Frame":2422,"ause":2423,"main":2424,"Json":2425,"Ġstyle":2426,"ns":2427,"reduce":2428,"Ġregex":2429,"Comment":2430,"Variable":2431,"Ġcontinue":2432,"KE":2433,"Ġact":2434,"lags":2435,"Ġ#":2436,"report":2437,"isitor":2438,"merge":2439,"Ġ\\":2440,"001":2441,"Ġmore":2442,"typed":2443,"Ġconversions":2444,"ĠES":2445,">$({":2446,"Ġaff":2447,"ĠPar":2448,"Ġprovided":2449,"ĠIter":2450,"Ġoriginal":2451,"ĠTODO":2452,"ĠĠĠĠĠĠĠĠĠĠĠĠĠĠĠĠĠĠĠĠĠĠĠ":2453,"Work":2454,"Boolean":2455,"ulo":2456,"prev":2457,"Ġfix":2458,"comm":2459,"Hash":2460,"Ġsu":2461,"enumerable":2462,"Ġanchor":2463,"Ġ(!(":2464,"Subscriber":2465,"Native":2466,"////":2467,"inspect":2468,"********************************":2469,"ware":2470,"tape":2471,"Ġbuild":2472,"Encod":2473,"gistry":2474,"ĠLicensed":2475,"Create":2476,"Ġper":2477,"Ġ*/":2478,"Ġ>>>":2479,"yn":2480,"Str":2481,"NUM":2482,"chunk":2483,"Ġnodes":2484,"Ġuser":2485,"Ġcount":2486,"Ġafter":2487,"Ġopen":2488,"ĠTYPE":2489,"*/":2490,"nd":2491,"Factory":2492,"Que":2493,"apter":2494,"gen":2495,"patch":2496,"ilder":2497,"Ġdig":2498,"Timeout":2499,"Ġneed":2500,"ystem":2501,"Ġchalk":2502,"iss":2503,"itions":2504,"(__":2505,"iates":2506,"Cons":2507,"ERIC":2508,"ffff":2509,"body":2510,"ASE":2511,"Ġemit":2512,"issing":2513,"expected":2514,"annot":2515,"adable":2516,"semver":2517,"Target":2518,"ĠtoString":2519,"Ġ'-":2520,"Space":2521,"VER":2522,"Ġright":2523,"readable":2524,"ide":2525,"wo":2526,"children":2527,").<":2528,"ugh":2529,"ansport":2530,"subClass":2531,"Account":2532,"some":2533,"Stack":2534,"curry":2535,"AB":2536,"`,":2537,"Log":2538,"BigInt":2539,"Ġdesc":2540,"scription":2541,"Ġmessages":2542,"AS":2543,"rgb":2544,"ĠDefinition":2545,"ites":2546,"validate":2547,"34":2548,"ELE":2549,"ful":2550,"(\"../../":2551,"ĠRequire":2552,"peat":2553,"pendencies":2554,"Ġ:<":2555,"tract":2556,"Directory":2557,"Virtual":2558,"ferenc":2559,"And":2560,"hex":2561,"Ġ9":2562,"Ġ'\\\\":2563,"Ġ{})":2564,"!<":2565,"reen":2566,"unbind":2567,"Ġfollow":2568,"rx":2569,"First":2570,"Ġreq":2571,"local":2572,"commended":2573,"Add":2574,"Chunk":2575,")?":2576,"Author":2577,"Es":2578,"filename":2579,"ĠentryVirtual":2580,"Queue":2581,">/*<":2582,"warn":2583,"includes":2584,"sort":2585,"Ġfilter":2586,"icode":2587,"update":2588,"usive":2589,"ERICIDENTIFIER":2590,"24":2591,"isNaN":2592,"notation":2593,"getOwnPropertyDescriptor":2594,"(()":2595,"Form":2596,"ached":2597,"sha":2598,"Ġwrite":2599,"NODE":2600,"clusive":2601,"Ġ`${":2602,"AD":2603,"Year":2604,"Values":2605,"Ġchildren":2606,"TypedArray":2607,"asic":2608,"Primitive":2609,"php":2610,"'],<":2611,"Ġback":2612,"Child":2613,"iew":2614,"skip":2615,"encode":2616,"iterable":2617,"wik":2618,"pers":2619,"iliates":2620,"Ġaffiliates":2621,"ling":2622,"Ġdef":2623,"Right":2624,"comment":2625,"aw":2626,"transform":2627,"PropertyDescriptor":2628,"ĠWeb":2629,"]*":2630,"Invalid":2631,"ublish":2632,"destroy":2633,"wiki":2634,"PI":2635,"flat":2636,"Ġempty":2637,"dout":2638,"peration":2639,"the":2640,"precated":2641,"Ġ--":2642,"Ġinto":2643,"yler":2644,"serve":2645,"elpers":2646,"Ġ7":2647,"Ġad":2648,"Ġ++":2649,"NUMERICIDENTIFIER":2650,"Ġlevel":2651,"ptim":2652,"Ġexpect":2653,"tains":2654,"])<":2655,"socket":2656,"chlink":2657,"package":2658,"chlinkert":2659,"Ġquery":2660,"used":2661,"ĠCode":2662,"compat":2663,"Hex":2664,"floor":2665,"host":2666,"Ġpkg":2667,"alloc":2668,"Ġtok":2669,"Ġcolumn":2670,"Ġ)<":2671,"roup":2672,"iff":2673,"stop":2674,"15":2675,"cb":2676,"scope":2677,"order":2678,"itle":2679,"Ġencode":2680,"throws":2681,"Mode":2682,"ted":2683,"Ġrecommended":2684,"ĠCheck":2685,"ĠanObject":2686,"ĠPublic":2687,"Ġ\"../../":2688,"'.":2689,"eter":2690,"che":2691,"Reflect":2692,">```<":2693,"ubject":2694,"Ġ[]<":2695,"hether":2696,"events":2697,"ique":2698,"isFinite":2699,"ERR":2700,"params":2701,"Ġcategory":2702,"Ġtra":2703,"SION":2704,"Ġprogram":2705,"MPOR":2706,"\\.":2707,"Ġ('":2708,"Ġscope":2709,"allback":2710,"Private":2711,"play":2712,"\".":2713,"($":2714,"CI":2715,"gate":2716,"lay":2717,"bias":2718,"ĠSource":2719,"Ġdecl":2720,"Ġcustom":2721,"Ġnum":2722,"ĠNew":2723,"Ġgenerate":2724,">,":2725,"Ġskip":2726,"Export":2727,"styles":2728,"Prefix":2729,"ud":2730,"Ġnames":2731,"oose":2732,"Location":2733,"Ġtag":2734,"Ġmult":2735,"Ġuncurry":2736,"check":2737,"ĠuncurryThis":2738,"ron":2739,"sok":2740,"ence":2741,"oppers":2742,"Ġbeen":2743,"ĠglobalObject":2744,"ĠTobias":2745,"ĠKoppers":2746,"SVGElement":2747,"sokra":2748,"pc":2749,"Ġdecode":2750,"Ġco":2751,"imum":2752,"Ġstrings":2753,"Ġexec":2754,"Ġdocument":2755,"thing":2756,"ferences":2757,"Next":2758,"copy":2759,"template":2760,"Ġso":2761,"Debug":2762,"npm":2763,"wg":2764,"etch":2765,"Last":2766,"Part":2767,"net":2768,"left":2769,"mkdir":2770,"rough":2771,"Ġinvalid":2772,"ĠTr":2773,"\\\\.":2774,"Ġinitial":2775,"Ġglob":2776,"moment":2777,"\"),<":2778,"plicit":2779,"Ġclone":2780,"Al":2781,"Global":2782,"Loose":2783,"Ġ)":2784,"ĠisObject":2785,"oft":2786,"before":2787,"Opts":2788,"]:":2789,"Ġ<<":2790,"gnore":2791,"Uint":2792,"(-":2793,"metadata":2794,"Annotation":2795,"Min":2796,"ons":2797,"Ġ')":2798,"Operator":2799,"errors":2800,"abs":2801,"dentifiers":2802,"lack":2803,"Ġwalk":2804,"ock":2805,"Ġsingle":2806,"Ġ32":2807,"Ġiterator":2808,"'];<":2809,"AST":2810,"`;<":2811,"mult":2812,"info":2813,"classCall":2814,"classCallCheck":2815,"Ġchunk":2816,"corejs":2817,"MPORTS":2818,"Import":2819,"ooks":2820,"webpack":2821,"fa":2822,"Ġthan":2823,"Content":2824,"ĠArrayPrototype":2825,"Ġiterate":2826,"rior":2827,"herit":2828,"Ġlistener":2829,"Ġapply":2830,"Ġdep":2831,"Ġselector":2832,"Has":2833,"Ġ'\"":2834,"Ġmode":2835,"')();<":2836,"Ġmethods":2837,"ART":2838,"Head":2839,"Ġstringify":2840,"SVGSVGElement":2841,"fail":2842,"ipher":2843,"Attribute":2844,"space":2845,"Ġswitch":2846,"Ġload":2847,"Const":2848,"LEN":2849,"MA":2850,"ature":2851,"ĠIS":2852,"Ġmay":2853,"configurable":2854,"tributes":2855,"ana":2856,"ĠReact":2857,"1111":2858,"Query":2859,"30":2860,"PURE":2861,"cepts":2862,"Instance":2863,"ethers":2864,"iron":2865,"collection":2866,"ĠprivateData":2867,"Ġcharacter":2868,"25":2869,"99":2870,"Known":2871,"LI":2872,"ater":2873,"ĠAsync":2874,"ĠPURE":2875,"Static":2876,"GTH":2877,"Mod":2878,"Ro":2879,"user":2880,"Ġmerge":2881,"Dis":2882,"constants":2883,"ellKnown":2884,"Cov":2885,"tect":2886,"gorith":2887,"ERELE":2888,"adding":2889,"ellKnownSymbol":2890,"ERELEASE":2891,"ĉĠĠĠ":2892,"stract":2893,"Ġbg":2894,"ElementImpl":2895,"ĠURL":2896,"IMPORTS":2897,"ups":2898,">):":2899,"Width":2900,"ĠX":2901,"emo":2902,"clone":2903,"View":2904,"ĠCSS":2905,"resolver":2906,"substr":2907,"worker":2908,"superClass":2909,"ĠGener":2910,"Filter":2911,"amel":2912,"position":2913,"Ġplugin":2914,".');<":2915,"KEY":2916,"names":2917,"regenerate":2918,"tro":2919,"Ġsame":2920,"uto":2921,"ĠSe":2922,"Ġvalidate":2923,"|\\":2924,"Ġleft":2925,"Ġhere":2926,"icit":2927,"`);<":2928,"decl":2929,"Ġrequired":2930,"Ġser":2931,"Ġfunctions":2932,"Statement":2933,"*-":2934,"Ġreadonly":2935,"Dig":2936,"man":2937,"orth":2938,"ensions":2939,"Registry":2940,"conversions":2941,"Ġonce":2942,"wise":2943,"atform":2944,"isObject":2945,"uri":2946,"ilation":2947,"properties":2948,"Ġusing":2949,"-<":2950,"encoding":2951,"Ġ'<":2952,"Ġ-*-":2953,"dentity":2954,"Cannot":2955,"If":2956,"RI":2957,"each":2958,"Ġnative":2959,"generator":2960,"Throw":2961,"orthand":2962,"Core":2963,"void":2964,"Ġreferences":2965,"ĠOperator":2966,"ĠWeakMap":2967,"Ġexpression":2968,"pad":2969,"ĠOptions":2970,"Handler":2971,"late":2972,"Ġsupported":2973,"UT":2974,"Func":2975,"eros":2976,"Ġts":2977,"Ġ\"\";<":2978,"Ġcomment":2979,"createToken":2980,"delete":2981,"writableState":2982,"romis":2983,"/*!<":2984,"print":2985,"Ġpoint":2986,"Ġinner":2987,"Ġtokens":2988,"UInt":2989,"Ġtransform":2990,">//=>":2991,"ĠEn":2992,"Column":2993,"Writ":2994,"[\\":2995,"Ġreference":2996,"search":2997,"Ġdelete":2998,"ready":2999,"account":3000,"Cur":3001,"Ġmodel":3002,"Infinity":3003,"Exception":3004,"uct":3005,"Stri":3006,"LENGTH":3007,"pop":3008,"Params":3009,"ution":3010,"ĠBase":3011,"column":3012,"Ġlocal":3013,"tal":3014,"atwg":3015,"Tra":3016,"];":3017,"Ġfree":3018,"ĠUn":3019,"SAFE":3020,"Ġmkdir":3021,"gest":3022,"istrib":3023,"PRERELEASE":3024,"::":3025,"Day":3026,"Ġsafe":3027,"Ġ[\"":3028,"rxjs":3029,"hasFlag":3030,"compile":3031,"arning":3032,"RANGE":3033,"weak":3034,"indent":3035,"ract":3036,"Ġmetadata":3037,"ĠCreate":3038,"ironment":3039,"inish":3040,"Ġscript":3041,"Enumerable":3042,"falseOptions":3043,"Escape":3044,"Format":3045,"reference":3046,"ĠparseInt":3047,"]]":3048,"ĠValid":3049,"quence":3050,"('\\":3051,"Ġwhether":3052,"Ġforced":3053,"Ġhandle":3054,"Field":3055,"FromTime":3056,"(${":3057,"task":3058,"}}":3059,"ĠAdd":3060,"interopRequireWildcard":3061,"Comments":3062,"Ab":3063,"Ġparams":3064,"strip":3065,"Ġposition":3066,"reflect":3067,"pair":3068,"ji":3069,"ven":3070,"headers":3071,"dic":3072,"Ġreturns":3073,"NA":3074,"dle":3075,"with":3076,"Rest":3077,"ĠIterator":3078,"member":3079,"Ġtim":3080,"iling":3081,"classes":3082,"component":3083,"argv":3084,"Ġhex":3085,"Ġerrors":3086,"implemented":3087,"ĠRequirements":3088,"Syntax":3089,"]})":3090,"dot":3091,"Ġ(...":3092,"Define":3093,"Ġcommon":3094,"(['":3095,"scribe":3096,"FA":3097,"Ġobjects":3098,")/":3099,"Ġcorrect":3100,"Ġinv":3101,"2015":3102,")[];<":3103,"ĠDe":3104,"receiver":3105,"Ġthen":3106,"ading":3107,"Custom":3108,"Ġ'')":3109,"Program":3110,"actual":3111,"Ġfilename":3112,"loader":3113,"angu":3114,"dist":3115,"Ġfloor":3116,"Ġlines":3117,"Ġexample":3118,"cause":3119,"mode":3120,"ĉĠĠĠĠĠĠĠĠĠĠĠ":3121,"iddle":3122,"supported":3123,"itespace":3124,"\":<":3125,"]{":3126,"`)<":3127,"BE":3128,"Ġassign":3129,"Ġ'.":3130,"Ġsplit":3131,"Ġ100":3132,"Expected":3133,"Ġcommand":3134,"output":3135,"ient":3136,"udo":3137,"rompt":3138,"Ġdot":3139,"rows":3140,"ixin":3141,"Document":3142,"Tim":3143,"jor":3144,"pipe":3145,"seudo":3146,"Ġcons":3147,"bul":3148,"GEX":3149,"msg":3150,"rid":3151,"No":3152,"\\/":3153,"window":3154,"irect":3155,"Ġnormalize":3156,"Ġunknown":3157,"Ġrs":3158,"ĠDo":3159,"ATOR":3160,"){<":3161,"]/":3162,"},<":3163,"ating":3164,"Ġ'_":3165,"Ġpaths":3166,"Before":3167,"yz":3168,"Ġold":3169,"Argument":3170,"romisify":3171,"elem":3172,"Ġbody":3173,"app":3174,"idl":3175,"ĠisArray":3176,"Ġ2014":3177,"ailable":3178,"Man":3179,"Non":3180,"Ġ^":3181,"Ġdependencies":3182,"SH":3183,"lue":3184,"Ġraw":3185,"server":3186,"Ġlimit":3187,"Ġparam":3188,"document":3189,"gent":3190,"original":3191,"Ġcss":3192,"asm":3193,"idden":3194,"Ansi":3195,"00000000":3196,"issues":3197,"gorithm":3198,"Ignore":3199,"Ġ]":3200,"Ġ})":3201,"Exists":3202,"ILD":3203,"normalize":3204,"xx":3205,"pli":3206,"integer":3207,"active":3208,"allee":3209,"ameValue":3210,"pread":3211,".\");<":3212,"PES":3213,"mark":3214,"enc":3215,"ctorRegistry":3216,"docsUrl":3217,"ĠANY":3218,"Strict":3219,"(...":3220,"Ġ[],<":3221,"ives":3222,"VERSION":3223,"Pair":3224,"random":3225,"zill":3226,"Ġar":3227,"ĠLong":3228,"callable":3229,"(/^":3230,"deepEqual":3231,"Ġmsg":3232,"ERROR":3233,"ctorRegistrySymbol":3234,"zilla":3235,"anbul":3236,"riority":3237,"ride":3238,"anges":3239,"cor":3240,"Ġ''":3241,"ither":3242,"ĠRef":3243,"EX":3244,"ways":3245,"FileSync":3246,"He":3247,"win":3248,"ĠthisArg":3249,"Ġ[{<":3250,"Ġidentifier":3251,"Ġgraph":3252,"Ġinteger":3253,"ince":3254,"Ġter":3255,"Ġ'');<":3256,"icro":3257,"vious":3258,"200":3259,"UN":3260,"iate":3261,"Ġfield":3262,"loose":3263,"ble":3264,"drag":3265,"ton":3266,"decode":3267,"Ġstrip":3268,"build":3269,"Float":3270,"Raw":3271,"oke":3272,"ĠDE":3273,"Ġsupports":3274,"tty":3275,"55":3276,":\"":3277,"amed":3278,"status":3279,"Ġmodulo":3280,"literal":3281,"inner":3282,"inally":3283,"Ġneg":3284,"ĠBSD":3285,"Ġbyte":3286,"Tester":3287,"napdrag":3288,"Ġcoer":3289,"napdragon":3290,"Ġcre":3291,"Ġsp":3292,"plugins":3293,"('../');<":3294,"ources":3295,"Param":3296,"pub":3297,"Ġserver":3298,"aren":3299,"ĠConfig":3300,"Constants":3301,"Root":3302,"after":3303,"Record":3304,"parsed":3305,"ie":3306,"point":3307,"rim":3308,"áĢ":3309,"extend":3310,"Lib":3311,"]}":3312,"enter":3313,"raz":3314,"estamp":3315,"uggest":3316,"struction":3317,"-----------------------------------------------------------------------------<":3318,"ward":3319,"exit":3320,"Ġconcat":3321,"Ġyour":3322,"Ġconfiguration":3323,"Ġemitter":3324,"tings":3325,"orage":3326,"capt":3327,"static":3328,".._":3329,"COL":3330,"Support":3331,"og":3332,"ural":3333,"Input":3334,"Ġlike":3335,"defineProperties":3336,"Ġeither":3337,"GER":3338,"Option":3339,"Red":3340,"Ġrepresent":3341,"Modules":3342,"Ġinter":3343,"igh":3344,"Ġsearch":3345,"Ġparsers":3346,"Ġcond":3347,"Ġdefaults":3348,"ITH":3349,"flags":3350,"ĠVersion":3351,"imple":3352,"KeywordDefinition":3353,"ĠEventEmitter":3354,"================================":3355,"Ġsymbols":3356,"PAR":3357,"Ġqu":3358,"Ġred":3359,"ility":3360,"Ġfails":3361,"Ġzero":3362,"XRANGE":3363,"repeat":3364,"oned":3365,"ĠRE":3366,"Ġparts":3367,"Open":3368,"Ġtrim":3369,"acy":3370,"Ġactual":3371,"non":3372,"jsx":3373,"Expect":3374,"Ġiterable":3375,"Bind":3376,"Null":3377,"run":3378,"Ġpub":3379,"Ġsort":3380,"Ġsocket":3381,"Ġma":3382,"Ġmember":3383,"ĠFound":3384,"tail":3385,"pawn":3386,"TEGER":3387,"div":3388,"dinary":3389,"walk":3390,"Ġtwo":3391,"ices":3392,"Ġins":3393,"END":3394,"ValueParser":3395,"ĠZ":3396,"Ġdefin":3397,"Ġpass":3398,"Ġpost":3399,"ternals":3400,"colors":3401,"100":3402,"Parent":3403,"width":3404,"Ġass":3405,"alc":3406,"eters":3407,"Ġstruct":3408,"Ġloader":3409,"ĠArrayBuffer":3410,"'],":3411,"50":3412,">__":3413,"PT":3414,"ical":3415,"Ġcontains":3416,"atcher":3417,"Ġenc":3418,"ansaction":3419,"BUG":3420,"anguage":3421,"Close":3422,"Out":3423,"ymlink":3424,"callBound":3425,"initial":3426,"({},":3427,"Parse":3428,"Worker":3429,"Consumer":3430,"same":3431,"Ġbit":3432,"ared":3433,"assed":3434,"lative":3435,"heet":3436,"lash":3437,"Ġcore":3438,"++;<":3439,"every":3440,"ove":3441,"pkg":3442,"uter":3443,"Unsafe":3444,"Ġcomponent":3445,"ĠFoundation":3446,"ng":3447,"ĠIN":3448,"Ġsecond":3449,"INTEGER":3450,"Server":3451,"custom":3452,"reg":3453,"edia":3454,"Only":3455,"iddleware":3456,"flow":3457,"now":3458,"ason":3459,"olved":3460,"ĠWe":3461,"Ġresults":3462,"structure":3463,"ĠmsPer":3464,"(\\":3465,"etwe":3466,"ĠID":3467,"STR":3468,"etween":3469,"can":3470,"âĶ":3471,"Ġjson":3472,"ĠAPI":3473,"ĠBigInt":3474,"shot":3475,"mac":3476,"parseInt":3477,"Ġnever":3478,"ci":3479,"mut":3480,"wb":3481,"('@":3482,"idx":3483,"agent":3484,"Ġargv":3485,"19":3486,"plement":3487,"ux":3488,"getPrototypeOf":3489,"Info":3490,"ĠPre":3491,"Styles":3492,"Sign":3493,"_.":3494,">}(":3495,"Response":3496,"napshot":3497,"ities":3498,"()`":3499,"part":3500,"Ġdescribe":3501,"slash":3502,"14":3503,"CON":3504,"NS":3505,"letion":3506,"derr":3507,"Ġkeyword":3508,"ayload":3509,"protocol":3510,"}`;<":3511,"Ġflat":3512,"Ġbind":3513,"Rules":3514,"ragment":3515,"ethersproject":3516,"Header":3517,"lush":3518,"old":3519,"produ":3520,"methods":3521,"itive":3522,"Ġ12":3523,"Ġeach":3524,"ĠDOM":3525,"Undefined":3526,"Ġ2015":3527,"okup":3528,"getRequire":3529,"keyword":3530,"Ġitems":3531,"solana":3532,"Ġinstead":3533,"ĠReflect":3534,"38":3535,"Over":3536,"ont":3537,"Ġ->":3538,"Ġlocale":3539,"Implement":3540,"items":3541,"uid":3542,"Ġspace":3543,"ĠAST":3544,"Ġbecause":3545,"Ġensure":3546,"baz":3547,"directory":3548,"sal":3549,"âĢ":3550,"Ġ/**":3551,"invalid":3552,"ĠisValid":3553,"ĠBu":3554,"ĠFOR":3555,"describe":3556,"ze":3557,"ancel":3558,"ĠAny":3559,"Clause":3560,"Ġpair":3561,"ending":3562,"fromModel":3563,"group":3564,"crypto":3565,"ui":3566,"onth":3567,"')(":3568,"Ġcontribut":3569,"Ġhandler":3570,"Arguments":3571,"Colors":3572,"dy":3573,"alpath":3574,"Interface":3575,"Ġnoop":3576,"Tests":3577,"Ġidx":3578,"Extensible":3579,"TR":3580,"Ġimpl":3581,"ESC":3582,"Left":3583,"ĠJon":3584,"whatwg":3585,"tim":3586,"wallet":3587,"Ġ{*":3588,"plice":3589,"Ġorder":3590,"Ġsha":3591,"Ġemo":3592,"uggestion":3593,"ually":3594,"ses":3595,"Ġbo":3596,"DataDescriptor":3597,"Encoding":3598,"Glob":3599,"('.":3600,"Container":3601,"Ġxyz":3602,"WildcardCache":3603,"getRequireWildcardCache":3604,"Subject":3605,"possible":3606,"ĠChecks":3607,"17":3608,"reject":3609,"Ġpassed":3610,"valu":3611,"uplex":3612,"Ġjust":3613,"icon":3614,"monJS":3615,"getOwnPropertyNames":3616,"[_":3617,"clear":3618,"pb":3619,"ctx":3620,"Ġ\"'":3621,"Ġprovider":3622,"ConstructorReturn":3623,"[^":3624,"Ġ});":3625,"Ġinfo":3626,"noop":3627,"typescript":3628,"ĠInfinity":3629,"webidl":3630,"Ġcharacters":3631,"fails":3632,"full":3633,"Ġ64":3634,"Ġclear":3635,"Ġtemplate":3636,"Ġpublish":3637,"etc":3638,")));<":3639,"clarations":3640,"workbox":3641,"BUILD":3642,"29":3643,"MENT":3644,"jax":3645,"Ġreg":3646,"cy":3647,"Byte":3648,"Tree":3649,"ulate":3650,"[])[]":3651,"indows":3652,"capture":3653,"Ġcontributors":3654,"Lint":3655,"PLA":3656,"blob":3657,"amic":3658,"Ġthere":3659,"platform":3660,"JSX":3661,"compiler":3662,"charAt":3663,"LAG":3664,"ynamic":3665,"New":3666,"Super":3667,"User":3668,"objects":3669,"supports":3670,"]';<":3671,"tml":3672,"alance":3673,"Ġexists":3674,"prerelease":3675,"Env":3676,"ĠastUtils":3677,"trol":3678,"isible":3679,"Ġcrypto":3680,"Ġclient":3681,"sets":3682,"cluded":3683,"REGEX":3684,"WellKnownSymbol":3685,"Ġ------------------------------------------------------------------------------<":3686,"ĠMo":3687,"....":3688,"pending":3689,"field":3690,"ty":3691,"include":3692,"ĠOR":3693,"shim":3694,"Ġfollowing":3695,"IG":3696,"xff":3697,"enabled":3698,"isEmpty":3699,"Ġmain":3700,"big":3701,"Ġfallback":3702,"raf":3703,"');":3704,"ables":3705,"ager":3706,"ixed":3707,"Accessor":3708,"orn":3709,"Ġ':":3710,"Ġ**":3711,"Desc":3712,"ResultTransformer":3713,"ĠStream":3714,"ĠParser":3715,"insert":3716,"Ġref":3717,"ĠSchema":3718,"Ġcursor":3719,"Bit":3720,"FLAG":3721,"stdout":3722,"variable":3723,"inheritsLoose":3724,"Action":3725,"ann":3726,"Proxy":3727,"Ġform":3728,"ĠBy":3729,"URI":3730,"ĠNaN":3731,"ĠWork":3732,"Ġupdate":3733,"SyntaxError":3734,"Ġ(/":3735,"ely":3736,"Decoder":3737,"IsPropertyKey":3738,"Upper":3739,"wrapAsync":3740,"Digit":3741,"possibleConstructorReturn":3742,"Polyfill":3743,"Ġflag":3744,"iple":3745,"Ġ{*}":3746,"']<":3747,"Ġsome":3748,"Ġdon":3749,"++<":3750,"ĠConvert":3751,"Position":3752,"Ġheaders":3753,"PAT":3754,"Ġport":3755,"ĠBig":3756,"ification":3757,"36":3758,"Flow":3759,"PP":3760,"hr":3761,"Ġq":3762,"unshift":3763,"ptimize":3764,"Ġinspect":3765,")\\":3766,"identifier":3767,"Report":3768,"empty":3769,"filepath":3770,"21":3771,"DOM":3772,"section":3773,"urro":3774,"Ġman":3775,"Ġav":3776,"(),<":3777,"ITY":3778,"tokenizer":3779,"Safe":3780,"Trace":3781,"tok":3782,"Ġhasn":3783,"listener":3784,"Ġspecified":3785,"Ġ##":3786,"Ġ```":3787,"overage":3788,"(/\\":3789,"ting":3790,"Ġver":3791,"Ġme":3792,"Ġ20":3793,"Ġseg":3794,"Ġplace":3795,"COLOR":3796,"Implemented":3797,"]))":3798,"bed":3799,"exists":3800,"Apply":3801,"Lines":3802,"One":3803,"doc":3804,"ellow":3805,"uble":3806,"bserver":3807,"Items":3808,"FAUL":3809,"Ġ-----------------------------------------------------------------------------<":3810,"ics":3811,"conversion":3812,"ived":3813,"Ġwrapped":3814,"dig":3815,"roups":3816,"Reference":3817,"paris":3818,"ATE":3819,"Client":3820,"oice":3821,"//=>":3822,"Ġstatus":3823,"\"];<":3824,"After":3825,"Namespace":3826,"lers":3827,"Ġbetween":3828,"ĠCall":3829,"mediate":3830,"Ġheader":3831,"neg":3832,"utton":3833,"Ġhsl":3834,"go":3835,"once":3836,"erc":3837,"ĠTest":3838,"Ġansi":3839,"Ġ2018":3840,"ĠdocsUrl":3841,"allocUnsafe":3842,"CK":3843,"ged":3844,"reeze":3845,"Ġlogger":3846,"ryptoJS":3847,"Ġbackground":3848,"XRANGEIDENTIFIER":3849,"Hook":3850,"Ser":3851,"af":3852,"catch":3853,"TypeAnnotation":3854,"ister":3855,"ssign":3856,"chedule":3857,"ĠcharCode":3858,"readableState":3859,"ND":3860,"ajv":3861,"ensure":3862,"plac":3863,"Ġgen":3864,"Ġ256":3865,"parsers":3866,"Update":3867,"Ġdigits":3868,"amelCase":3869,"Slice":3870,"sd":3871,"ĠRead":3872,"TI":3873,"Wallet":3874,"Ġwant":3875,"ĠAc":3876,"ĠNOT":3877,"jestUtil":3878,"publicKey":3879,"Ġrelative":3880,"numeric":3881,"atures":3882,"Ġpack":3883,"Ġliteral":3884,")))":3885,"Ġresponse":3886,"Ġsection":3887,"Ġmatches":3888,"Ġmapping":3889,"icros":3890,"]',<":3891,"anchor":3892,"Ġword":3893,"XX":3894,"rary":3895,"zip":3896,"esc":3897,"ization":3898,"render":3899,"suggestion":3900,"tle":3901,"Ġbinary":3902,"ĠIt":3903,"(?:\\\\.":3904,">,<":3905,"ws":3906,"sed":3907,"adow":3908,"Ġwidth":3909,"();":3910,"Ġproxy":3911,"CharCode":3912,"ters":3913,"ilers":3914,"Internal":3915,"Ġexist":3916,"urrogate":3917,";(":3918,"script":3919,"top":3920,"Ġsee":3921,"icrosoft":3922,"QU":3923,"callee":3924,"tap":3925,"ret":3926,"declaration":3927,"ĠSchlinkert":3928,"substring":3929,"osed":3930,"ĠIsPropertyKey":3931,"Ġelements":3932,"slist":3933,"Ġ_.":3934,"Ġdel":3935,"andlers":3936,"White":3937,">@":3938,"Ent":3939,"bly":3940,"ascript":3941,"races":3942,"Read":3943,"ESS":3944,"([^":3945,"[])[])[];<":3946,"-\\":3947,"40":3948,"flex":3949,"handle":3950,"kind":3951,"syntax":3952,"store":3953,"Ġscheduler":3954,"provider":3955,"ressions":3956,")).":3957,"////////":3958,"ĠimplSymbol":3959,"Ġfoo":3960,"serialize":3961,"pute":3962,"Paths":3963,"desc":3964,"Plain":3965,"##":3966,"binary":3967,"frame":3968,"identity":3969,"jons":3970,"toArray":3971,"program":3972,"ubble":3973,"Ġpossible":3974,"Ġ*/)":3975,"512":3976,"hsl":3977,"me":3978,"Ġprototype":3979,"ĠĠĠĠĠĠĠĠĠĠĠĠĠĠĠĠĠĠ":3980,"Ali":3981,"Identifiers":3982,"splice":3983,"command":3984,"Convert":3985,"anged":3986,"Section":3987,"ĠComp":3988,"(?":3989,"58":3990,"CA":3991,"Group":3992,"ĠTh":3993,"files":3994,"Ġplugins":3995,"Dependencies":3996,"ĠOperatorFunction":3997,"well":3998,"ory":3999,"Elements":4000,"moved":4001,"IndexOf":4002,"jonschlinkert":4003,"Bits":4004,"BSD":4005,"TT":4006,"gacy":4007,"label":4008,"rop":4009,"isFunction":4010,"Ġtask":4011,"Ġconcept":4012,"Ġ[],":4013,"also":4014,"ĠAp":4015,"Ġattribute":4016,"ĠJson":4017,"Ġrole":4018,"isValid":4019,"ĠRemove":4020,"Ġapi":4021,"operators":4022,"Ġworker":4023,"IONS":4024,"ĠSubscription":4025,"ĠMozilla":4026,"hue":4027,"Ġalso":4028,"Ġconstants":4029,"ffect":4030,"Ġgenerated":4031,"Ġtimeout":4032,"Modifier":4033,"Agent":4034,"COM":4035,"Zero":4036,"border":4037,"lu":4038,"dev":4039,"functions":4040,"pedia":4041,"Ġcloned":4042,"Ġenvironment":4043,"FAULT":4044,"pow":4045,"riter":4046,"uc":4047,"Ġpad":4048,"etwork":4049,"ĠRecord":4050,"cursor":4051,"IND":4052,"avig":4053,"Ġ'{":4054,"Ġoperation":4055,"rain":4056,"ĠNote":4057,"TERM":4058,"Ġvariables":4059,"wikipedia":4060,"\"))":4061,"OG":4062,"Word":4063,"break":4064,"ool":4065,"rer":4066,"dep":4067,"ĠSE":4068,"Ġ`_.":4069,"ĠBoolean":4070,"ĠSubscriber":4071,"Ġsuite":4072,"Absolute":4073,"gre":4074,"uplic":4075,"Ġthey":4076,"Ext":4077,"INE":4078,"RangeError":4079,"diff":4080,"ek":4081,"round":4082,"icol":4083,"bold":4084,"ĠFor":4085,"ĠBufferList":4086,"CSSOM":4087,"Matcher":4088,"ĠImplicit":4089,"Ġdoesn":4090,"havi":4091,"Sort":4092,"VAL":4093,"ĠdefineProperty":4094,"Ġflags":4095,"Nodes":4096,"ĠconstructorArgs":4097,"Ġrelated":4098,"destroyed":4099,"lines":4100,"ðŁ":4101,"stanbul":4102,"ision":4103,"isPrototypeOf":4104,"connect":4105,"Ġoccurred":4106,"ULL":4107,"LibVariable":4108,"Ġ}],<":4109,"Ġpush":4110,"Ġrandom":4111,"tempt":4112,"Address":4113,"#__":4114,"option":4115,"roll":4116,"Ġprint":4117,"ĠIss":4118,"START":4119,"ĠCodeKeywordDefinition":4120,"ĠImplicitLibVariable":4121,">);<":4122,"Ġren":4123,"Ġbracket":4124,"igin":4125,"Ġattributes":4126,"TYPES":4127,"raceful":4128,"OUT":4129,"Assign":4130,"Found":4131,"Package":4132,"tree":4133,"Ġ],<":4134,"ntil":4135,"resource":4136,"Ġgroup":4137,"ĠImplicitLibVariableOptions":4138,"ension":4139,"losing":4140,"construct":4141,"Ġ200":4142,"Ġsem":4143,"pendency":4144,"Max":4145,"Merge":4146,"xD":4147,"styler":4148,"Ġ'',":4149,"adapter":4150,"client":4151,"Errors":4152,"Ġlab":4153,"([\"":4154,"writeUInt":4155,"raws":4156,"allel":4157,"Ġemoji":4158,"/.":4159,"31":4160,"inst":4161,"Ġpolyfill":4162,"Ġunique":4163,"Ġmodules":4164,"Ġextend":4165,"Ġaddress":4166,"Ġaccount":4167,"azy":4168,"License":4169,"Neg":4170,"PRE":4171,"bine":4172,"my":4173,"deprecated":4174,"attr":4175,"Ġ!(":4176,"Ġdetect":4177,"PLAIN":4178,"eded":4179,"ĠRed":4180,"puted":4181,"curs":4182,"PluginUtils":4183,"66":4184,"Link":4185,"Tick":4186,"finish":4187,"ĉĠĠĠĠĠĠĠ":4188,"Process":4189,"ĠScope":4190,"ArrayLike":4191,"Ġele":4192,"Ġevery":4193,"Ġlow":4194,"Ġextract":4195,"dataError":4196,"Attr":4197,"Order":4198,"signed":4199,"Encoder":4200,"28":4201,"qr":4202,"React":4203,"Ġdom":4204,"Ġ2012":4205,"Ġabs":4206,"TERN":4207,"AccessorDescriptor":4208,"placer":4209,"18":4210,"IV":4211,"Ġdefined":4212,"ulator":4213,"Ġspecial":4214,"Ġspecific":4215,"tags":4216,"while":4217,"Ġwebpack":4218,"Ġstyles":4219,"ercible":4220,"graph":4221,"enable":4222,"ĠIE":4223,"iterate":4224,"IsArray":4225,"weet":4226,"havior":4227,"(!":4228,"Htt":4229,"ĠList":4230,"Concepts":4231,"acter":4232,"Ġsetup":4233,"CodePoint":4234,"ĠSourceMap":4235,"icolon":4236,"Mock":4237,"Pad":4238,"handler":4239,"ĠExp":4240,"less":4241,"('/":4242,"Ġnumeric":4243,"Ġoperator":4244,"Resolve":4245,"RAM":4246,"Ġoptional":4247,"Browser":4248,"Orig":4249,"gy":4250,"required":4251,"Ġequal":4252,"interopDefault":4253,"ĠEX":4254,"plication":4255,"agenta":4256,"Ġavailable":4257,"Ġ=><":4258,"Ġ''<":4259,"Ġpromisify":4260,"ĠisPrototypeOf":4261,"ĠCON":4262,"Ġdeprecated":4263,"Methods":4264,"Subscription":4265,"dicate":4266,"NAME":4267,"ĠBytes":4268,".*":4269,"ZX":4270,"aa":4271,"Ġim":4272,"Ġcwd":4273,"Ġ}).":4274,"irection":4275,"tails":4276,"avascript":4277,"cii":4278,"Member":4279,"cp":4280,"gu":4281,"ĠInt":4282,"Ġframe":4283,"Ġinternals":4284,"Ġstdout":4285,"resh":4286,"andard":4287,"ĠTypeScript":4288,"Without":4289,"xyz":4290,"Cxt":4291,"Full":4292,"dio":4293,"hooks":4294,"inline":4295,"urry":4296,"Ġslash":4297,"utes":4298,"Ġaction":4299,"ĠMode":4300,"Ġistanbul":4301,"uncurry":4302,"Ġenum":4303,"Second":4304,"OUND":4305,"Writable":4306,"bn":4307,"attribute":4308,"abc":4309,"ĠAl":4310,"andid":4311,"ĠHelpers":4312,"helperPluginUtils":4313,"WebSocket":4314,"modulo":4315,"Visitor":4316,"Ġ];<":4317,"edit":4318,"Ġ\"\\":4319,"proxy":4320,"ĠCre":4321,"ĠforEach":4322,"Mapper":4323,"ĠesValue":4324,"iversal":4325,"SourceMapConsumer":4326,"US":4327,"fr":4328,"}\\":4329,"ableArray":4330,"Ġhost":4331,"mail":4332,"createDebug":4333,"Ġfollowed":4334,"Until":4335,"title":4336,"Ġer":4337,"Ġredu":4338,"ello":4339,"ĠTSE":4340,"ĉĉĉĉĉ":4341,"gensync":4342,"bracket":4343,"cal":4344,"select":4345,"ĠText":4346,"ctories":4347,"ERC":4348,"paths":4349,"compilation":4350,"ORS":4351,"89":4352,"Helpers":4353,"Mark":4354,"ks":4355,"ĠKeyword":4356,"extensions":4357,"ĠHash":4358,"Ġ2011":4359,"*/)":4360,"ASTNode":4361,"scheduler":4362,"Ġfull":4363,"Ġbits":4364,"umableArray":4365,"toCons":4366,"ENO":4367,"address":4368,"Ġpreserve":4369,"subscribe":4370,"byte":4371,"Ġdispatch":4372,"toConsumableArray":4373,"Site":4374,"Warning":4375,"brace":4376,"cent":4377,"gine":4378,"container":4379,"ENV":4380,"Ġplural":4381,"Ġabsolute":4382,"ĠrelatedConcepts":4383,"MES":4384,"MAX":4385,"PA":4386,"graceful":4387,"publish":4388,"ves":4389,"})<":4390,"Ġ'$":4391,"Ġconnection":4392,"Ġloop":4393,"ĠReference":4394,"Ġ{},":4395,"traverse":4396,"(`${":4397,"Ġmkdirp":4398,"FOR":4399,"Host":4400,"Weak":4401,"ale":4402,"opt":4403,"stable":4404,"imal":4405,"illed":4406,"Ġcontain":4407,"Decl":4408,"PropertyOr":4409,"ocab":4410,"ATION":4411,"ĠToNumber":4412,"RAP":4413,"builder":4414,"Ġcoerce":4415,"PropertyOrThrow":4416,"freeze":4417,"ied":4418,"meta":4419,"elp":4420,"ĠSh":4421,"ĠgetPrototypeOf":4422,"Ġnumbers":4423,"ĠWrit":4424,"Ġarrays":4425,"fromCharCode":4426,"ĠPublicKey":4427,"Ġmodels":4428,"Ġcorrectly":4429,"ĠBigNumber":4430,")$/":4431,"70":4432,"AML":4433,"`.":4434,"cipher":4435,"Ġ'!":4436,"Ġinherits":4437,"Ġwarn":4438,"ĠWRAP":4439,"expression":4440,"ĠHTMLElementImpl":4441,"Jz":4442,"Ġnow":4443,"cker":4444,"Search":4445,"\"](":4446,"Ġadditional":4447,"ferred":4448,"ENOENT":4449,"cre":4450,"ĠtoInteger":4451,"ĠSign":4452,"Ġresolver":4453,"ĠIdentifier":4454,"ĠNot":4455,"ĠDocument":4456,"mater":4457,"wrapped":4458,"Ġrules":4459,"timeout":4460,"spdy":4461,"Ad":4462,"Public":4463,"fd":4464,"second":4465,"unused":4466,"rides":4467,"ĠisFunction":4468,"velo":4469,"ArrayBuffer":4470,"Ġ`\\":4471,"species":4472,"Html":4473,"gress":4474,"ability":4475,"icorn":4476,"Deep":4477,"Ġ[]":4478,"Ġlong":4479,"Ġshorthand":4480,"Ġfail":4481,"expand":4482,"Ġallowed":4483,">];<":4484,"Ġentries":4485,"Receiver":4486,"like":4487,"ĠsetTimeout":4488,"EventInit":4489,"media":4490,"35":4491,"light":4492,"expect":4493,"Ġos":4494,"ĠaCallable":4495,"cons":4496,"ĠgetOwnProperty":4497,"disallow":4498,"tokenStart":4499,"Prerelease":4500,"Ġzeros":4501,"maining":4502,"istribut":4503,"Foo":4504,"uite":4505,"watch":4506,"see":4507,"ĠToken":4508,"Ġzip":4509,"rency":4510,"Missing":4511,"pass":4512,"isBuffer":4513,"Ġ',":4514,"river":4515,"ĠScheduler":4516,"Ġ[].":4517,"ators":4518,"scop":4519,"Ġdirname":4520,"ExpectError":4521,"65":4522,"await":4523,"nan":4524,"Ġjoin":4525,"atic":4526,"Ġbig":4527,"Ġinternal":4528,"Ġcomparis":4529,"Command":4530,"keep":4531,"oftware":4532,"Ġserialize":4533,"';":4534,"DIT":4535,"IP":4536,"zA":4537,"cha":4538,"Ġextensions":4539,"EST":4540,"Local":4541,"getOwnPropertySymbols":4542,"PRERELEASEIDENTIFIER":4543,"Ġstructure":4544,"iconv":4545,"Entries":4546,"={":4547,"Media":4548,"ian":4549,"always":4550,"Ġrelease":4551,"ital":4552,"ittle":4553,"Ġtrans":4554,"EventEmitter":4555,"memberOf":4556,"Hour":4557,"Snapshot":4558,"Ġdeclaration":4559,"Ġvisit":4560,"ĠArraySet":4561,"joi":4562,"IsEnumerable":4563,"Ġalready":4564,"ĠParse":4565,"Ġmultiple":4566,"scopables":4567,"etect":4568,"Ġinside":4569,"istent":4570,"ĠLog":4571,"oles":4572,"Short":4573,"NUMERICIDENTIFIERLOOSE":4574,"RIPT":4575,"Manager":4576,"ITHOUT":4577,"âĶĢ":4578,"UpperCase":4579,"BN":4580,"`,<":4581,"por":4582,"visible":4583,"esValue":4584,"chron":4585,"append":4586,"ĠuseState":4587,"Ġcompiler":4588,"Implicit":4589,"ĠYou":4590,"ynchron":4591,"OGRAM":4592,"xB":4593,"ster":4594,"dec":4595,"ily":4596,"ArrayPrototype":4597,"__*/":4598,"ibling":4599,"ARRAN":4600,"160":4601,"Ġusage":4602,"binator":4603,"Ġdestroy":4604,"ViewCore":4605,"production":4606,"\"]);<":4607,"='":4608,"ered":4609,"native":4610,"yc":4611,"Ġoper":4612,"Ġcomments":4613,"ĠReadable":4614,"Immediate":4615,"Ġupper":4616,"Initial":4617,"StackTrace":4618,"loaderContext":4619,"Supported":4620,"']);<":4621,"<'":4622,"Sem":4623,"WeakMap":4624,"optimize":4625,"Ġ({":4626,"Ġinclude":4627,"ĠClass":4628,"ĠDis":4629,"Ġtests":4630,"ĠArrayBufferViewCore":4631,"FB":4632,"Holder":4633,"Meta":4634,"Sheet":4635,"fetch":4636,"yan":4637,"Ġversions":4638,"Ġ(++":4639,"Ġopt":4640,"served":4641,"ĠColor":4642,"OwnMetadata":4643,"Headers":4644,"ox":4645,"Ġreal":4646,"ross":4647,"())<":4648,"Step":4649,"PROGRAM":4650,"DEBUG":4651,"CTION":4652,"LU":4653,"factory":4654,"yY":4655,"ĠAjv":4656,"Connect":4657,"ĠWITHOUT":4658,"Ġbuilder":4659,"Ġ/*#__":4660,"cum":4661,"sym":4662,"voke":4663,"Ġyield":4664,"Transport":4665,"owner":4666,"Ġbrowsers":4667,"uD":4668,"atest":4669,"'))<":4670,"Indent":4671,"arens":4672,"Ġstyler":4673,"ĠĠĠĠĠĠĠĠĠĠĠĠ":4674,"Ġ-=":4675,"INF":4676,"cheme":4677,"Ġstats":4678,"ffffffff":4679,"OK":4680,"OW":4681,"SY":4682,"Ġ;<":4683,"Ġimplement":4684,"Ġuri":4685,"ceived":4686,"Ġvisitor":4687,"charset":4688,"scribed":4689,"ABLE":4690,"ĠCreates":4691,":',":4692,"correct":4693,"lookup":4694,"Ġcalls":4695,"OptionsMapper":4696,"iltIn":4697,"Ġflatten":4698,"TA":4699,"UPP":4700,"Watcher":4701,"jac":4702,"('');<":4703,"rad":4704,"Ġmissing":4705,"Ġstep":4706,"make":4707,"ĠRelease":4708,"ĠJSONSchema":4709,"Interop":4710,"****************************************************************":4711,"(\"../../../":4712,"Ġadapter":4713,"jacent":4714,"CryptoJS":4715,"fest":4716,"ĠKey":4717,"inherit":4718,"unique":4719,"Ġoff":4720,"loy":4721,"Ġdif":4722,"Ġiss":4723,"ĠMin":4724,"ĠUt":4725,"Ġmajor":4726,"ĠBytesLike":4727,"77":4728,"Bar":4729,"model":4730,"develo":4731,"ump":4732,"')).":4733,"ATCH":4734,"Extensions":4735,"Ġconditions":4736,"13":4737,"filled":4738,"quals":4739,"exception":4740,"definition":4741,"Ġstore":4742,"Ġlib":4743,"Ġhsv":4744,"Ġexclusive":4745,"ĠOn":4746,"Resolver":4747,"cursive":4748,"Mult":4749,"df":4750,"px":4751,"uint":4752,"Ġ~":4753,">},":4754,"toBe":4755,"Ġdeep":4756,"Cond":4757,"descriptors":4758,"%',":4759,"ylist":4760,"Ġ{{":4761,"Inside":4762,"response":4763,"ĠsourceCode":4764,"ĠtimeConstants":4765,"\"],":4766,".\"<":4767,"60":4768,"Rpc":4769,"Ġreplacer":4770,"Ġelem":4771,"ĠDay":4772,"Ġtesting":4773,"header":4774,"Ġprotocol":4775,"Patterns":4776,"Alias":4777,"table":4778,"Ġ}));<":4779,"Ġtitle":4780,"ĠCODE":4781,"ĠnewObj":4782,"ĠStringPrototype":4783,"Ġlogic":4784,"ANSI":4785,"Components":4786,"?\\":4787,"Fragment":4788,"Ter":4789,"mask":4790,"sum":4791,"switch":4792,"spawn":4793,"ina":4794,">})":4795,"Ġsystem":4796,"andled":4797,"addir":4798,"processor":4799,"Webpack":4800,"ĠImpl":4801,"ĠValidation":4802,"Ġpostcss":4803,"FT":4804,"Off":4805,"Paren":4806,"SameValue":4807,"eps":4808,"mis":4809,"pth":4810,"Ġclean":4811,"Ġcalc":4812,"Ġ(\"":4813,"raft":4814,"absolute":4815,"Readable":4816,"Ġdetails":4817,"Indexed":4818,"Ġshift":4819,"Ġiteratee":4820,"Latest":4821,"Spread":4822,"]|":4823,"tom":4824,"Ġthese":4825,"Ġ[[":4826,"Ġ/\\":4827,"Unicode":4828,"Ġcurr":4829,"statSync":4830,"Access":4831,"mkdirs":4832,"MD":4833,"UB":4834,"polyfill":4835,"png":4836,"spaces":4837,"xC":4838,"(\"'":4839,"Ġtotal":4840,"Ġforge":4841,"nextTick":4842,"RAY":4843,"Listeners":4844,"forceColor":4845,"Ġtraverse":4846,"Http":4847,"ynchronous":4848,"'re":4849,"Runtime":4850,"ys":4851,"}:":4852,"Ġctx":4853,"toUpperCase":4854,"irc":4855,"mapping":4856,"Ġsend":4857,"readFileSync":4858,"Ġuseful":4859,"logger":4860,"Ġshort":4861,"uL":4862,"Ġutf":4863,"Ġ'&":4864,"Ġthrough":4865,"Ġsat":4866,"imation":4867,"transport":4868,"ObjectCo":4869,"ĠisCallable":4870,"ĠServer":4871,")),":4872,"ĠWindows":4873,"Ġcompilers":4874,"replacement":4875,"Ġapp":4876,"Getter":4877,"Ġdisallow":4878,"IterableToArray":4879,"ĠIterable":4880,"lackBright":4881,"collections":4882,"supportedIterableToArray":4883,"ylistic":4884,"ObjectCoercible":4885,"Single":4886,"Surrogate":4887,"Wrap":4888,"}.":4889,"Ġslice":4890,"ested":4891,"Ġ`.":4892,"Ġ`(?:":4893,"Ġ24":4894,"preadable":4895,"App":4896,"Fa":4897,"sWith":4898,"ĠDefinit":4899,"send":4900,"valueOf":4901,"Ġwhere":4902,"Ġenable":4903,"fee":4904,"ayout":4905,"Ġabstract":4906,"DefinePropertyOrThrow":4907,"Ġassume":4908,"23":4909,"bs":4910,"Ġthem":4911,"Ġdirect":4912,"currency":4913,"Ġaccepts":4914,")]<":4915,"/><":4916,"800":4917,"bang":4918,"yph":4919,"sep":4920,"Ġpadding":4921,"Ġ\"%":4922,"serum":4923,"ĠMon":4924,"filePath":4925,"Chain":4926,"ĠComponent":4927,"ĠIsArray":4928,"Ġmodify":4929,"Ġpromises":4930,"ĠfindUp":4931,"Ġregexp":4932,"Formatter":4933,"Ġdefinitions":4934,"ymlinks":4935,"ESCRIPT":4936,"yphen":4937,"Ġent":4938,"iment":4939,"Ġincludes":4940,"ĠLe":4941,"ĠDeter":4942,"ĠWrap":4943,"INT":4944,"Ġcallbacks":4945,"ĠExport":4946,"Ġ(/^":4947,"Del":4948,"Middleware":4949,"mbly":4950,"ingElement":4951,"Ġ15":4952,"Stylistic":4953,"ised":4954,"ValueOf":4955,"Ġ{});<":4956,"ĠhasOwn":4957,"Plugins":4958,"never":4959,"FFFF":4960,"assembly":4961,"DEF":4962,"elements":4963,"hai":4964,"workerId":4965,"ĠIssues":4966,"Padded":4967,"Ct":4968,"Dest":4969,"Task":4970,"Zeros":4971,"snapdragon":4972,"tv":4973,"vars":4974,"Err":4975,"ender":4976,"ĠAs":4977,"ĠPR":4978,"ĠForm":4979,"Ġattr":4980,"Changed":4981,"Validation":4982,"Api":4983,"flatten":4984,"Ġboth":4985,"Body":4986,"Coverage":4987,"mer":4988,"mall":4989,"--)":4990,"Ġcould":4991,"Ġ'?":4992,"===":4993,"Ġmoment":4994,"ĠTemplate":4995,"Ġ`(${":4996,"Ġ14":4997,"Ġlink":4998,"hebang":4999,"Ġprodu":5000,"Ġselect":5001,"Parallel":5002,"Ġ'../../../":5003,"bgB":5004,"BuiltIn":5005,"11111111":5006,"ĠCSSOM":5007,"Write":5008,"components":5009,"Ġtermin":5010,"Origin":5011,"FORCE":5012,"ĠDefinitions":5013,"ESCRIPTORS":5014,"CR":5015,"Holes":5016,"cmd":5017,"Ġrepeat":5018,"useColors":5019,"Ġ1000":5020,"Ġgre":5021,"ĠFile":5022,"ITER":5023,"ĠDetect":5024,"ĠErrorObject":5025,"Setter":5026,"Ġ\\`":5027,"ĠTrue":5028,"plier":5029,"IR":5030,"Row":5031,"ihai":5032,"po":5033,"dependencies":5034,"periment":5035,"Ġmark":5036,"Ġws":5037,"Connection":5038,"Ġordinary":5039,"Ġcompletion":5040,"([<":5041,"webassembly":5042,"Ġmaximum":5043,"Ġreplacement":5044,"Ġneeds":5045,"ZE":5046,"cap":5047,"Ġ'('":5048,"Ġ'(?:":5049,"///":5050,"Ġreturned":5051,"Ġspaces":5052,"imatch":5053,"total":5054,"application":5055,"Ġlittle":5056,"Ġforce":5057,"ĠGN":5058,"/*,":5059,"Ġcompile":5060,"ĠChri":5061,"Ġmulti":5062,"digest":5063,"Fe":5064,"ĉĠ":5065,"Ġhtml":5066,"Ġtop":5067,"Ġsync":5068,"Ġgroups":5069,"ĠPos":5070,"master":5071,"ĠNODE":5072,"Ġprevious":5073,"STree":5074,"Ġcollection":5075,"precation":5076,"Ġ60":5077,"perimental":5078,"CED":5079,"Fix":5080,"pol":5081,"termin":5082,"Ġwallet":5083,"extends":5084,"\")}":5085,"hasOwn":5086,"Ġlocation":5087,"ava":5088,"OperatorFunction":5089,"Ġtslint":5090,"Effect":5091,"Handle":5092,"aim":5093,"kit":5094,"long":5095,"xe":5096,"inh":5097,"seg":5098,"trans":5099,"ĠtoObject":5100,"Ġextra":5101,"Ġ'./_":5102,"Ġbased":5103,"ĠComparator":5104,"}`);<":5105,"When":5106,"ĠGeneral":5107,"Best":5108,"tures":5109,"relative":5110,"Ġ($":5111,"Ġdec":5112,"Ġ{},<":5113,"ĠcreateDebug":5114,"Ġnothing":5115,"buffers":5116,"propertyIsEnumerable":5117,"(?:\\":5118,"escaped":5119,"Ġdigit":5120,"ractices":5121,"ĠDEFAULT":5122,"STRING":5123,"37":5124,"hi":5125,"zI":5126,"zero":5127,"inon":5128,"arm":5129,"offee":5130,"Ġsequence":5131,"vice":5132,"Any":5133,"msPer":5134,"MPTY":5135,"TypedArrayMethod":5136,"TTP":5137,"Bracket":5138,"Basic":5139,"FS":5140,"Filename":5141,"LINE":5142,"cut":5143,"ning":5144,"tmp":5145,"esser":5146,"rome":5147,"Ġindent":5148,"ĠTag":5149,"ĠLesser":5150,"may":5151,"major":5152,"Ġwithin":5153,"Ġbuilt":5154,"Once":5155,"Whitespace":5156,"Trailing":5157,"ĠGNU":5158,"Cipher":5159,"Prompt":5160,"[\\\\":5161,"inct":5162,"Ġremoved":5163,"role":5164,"Ġbubble":5165,"Release":5166,"Ġ[...":5167,"Ġstderr":5168,"Strings":5169,"ToNumber":5170,"reads":5171,"ĠhasOwnProperty":5172,"toStringTag":5173,"Ġaccept":5174,"Encode":5175,"Ġ/^\\":5176,"ĠrgbG":5177,"Exports":5178,"Partial":5179,"Window":5180,"je":5181,"Ġ]<":5182,"reverse":5183,"orld":5184,"Ġ\"/":5185,"connection":5186,"Ġresolved":5187,"iterals":5188,"className":5189,"Ġanything":5190,"Ġ2019":5191,"ĠSecond":5192,"install":5193,")}":5194,"font":5195,"oType":5196,"Ġsince":5197,"ĠSameValue":5198,"Ġ19":5199,"ĠMake":5200,"Ġgo":5201,"Ġenabled":5202,"aces":5203,"tokens":5204,"symbols":5205,"ForImpl":5206,"layout":5207,"ĠBuild":5208,"ApplyDescriptor":5209,"ĠTSESTree":5210,"ĠMonoType":5211,"ĠMonoTypeOperatorFunction":5212,"Binary":5213,"CD":5214,"NON":5215,"NOT":5216,"PO":5217,"float":5218,"hus":5219,"Ġgot":5220,"ĠPractices":5221,"Ġappend":5222,"ĠReadonly":5223,"TIES":5224,"ĠReleased":5225,"+/":5226,"47":5227,"Catch":5228,"aW":5229,"auto":5230,"pure":5231,"aria":5232,"Ġreason":5233,"unicorn":5234,"Ġ');<":5235,"esting":5236,"Ġiv":5237,"ĠPl":5238,"Ġcodes":5239,"ĠContext":5240,"location":5241,"Build":5242,"Interval":5243,"ImplicitRole":5244,"Operation":5245,"Sp":5246,"mine":5247,"zz":5248,"orhus":5249,"unit":5250,"ired":5251,"Ġtransport":5252,"nodeType":5253,"Union":5254,"Ġsubscriber":5255,"}`)<":5256,"bigint":5257,"WhiteSpace":5258,"Ġreduce":5259,"Port":5260,"sources":5261,"Ġel":5262,"Ġ'*":5263,"Ġpatch":5264,"Ġsyntax":5265,"Ġ\"-":5266,"Ġwait":5267,"ird":5268,"ĠWh":5269,"INVERSION":5270,"ĠToString":5271,"Ġplus":5272,"2017":5273,"ĠReferenceError":5274,"bl":5275,"mui":5276,"ving":5277,"Ġfill":5278,"Ġauto":5279,"Replace":5280,"plain":5281,"ĠpathExists":5282,"Ġeq":5283,"Ġexplicit":5284,"ĠReport":5285,"ĠDesc":5286,"FD":5287,"Look":5288,"NE":5289,"UE":5290,"clean":5291,"final":5292,"iq":5293,"javascript":5294,"limit":5295,"realpath":5296,"Ġreceiver":5297,"rott":5298,"Ġfinally":5299,"ulary":5300,"toModel":5301,"Ġauthor":5302,">//<":5303,"()`.<":5304,"ĠTor":5305,"ases":5306,"Ġidentity":5307,"ĠBrowser":5308,"ĠLE":5309,"ller":5310,"ĠresolveException":5311,"Builder":5312,"Ġescaped":5313,"ĠrgbB":5314,"Ġcreated":5315,"ocabulary":5316,"]).":5317,"Ġflush":5318,"getProperty":5319,"Ġwell":5320,"resorhus":5321,"Exec":5322,"indresorhus":5323,"Ġruntime":5324,"ARRAY":5325,"Ġdouble":5326,"Ġabout":5327,"ĠProgram":5328,"svg":5329,"multi":5330,"UTF":5331,"material":5332,"OKEN":5333,">;(":5334,"System":5335,"hwb":5336,"tl":5337,"}\"":5338,"isExtensible":5339,"(',":5340,"ifest":5341,"Ġpipe":5342,"Reject":5343,"Instruction":5344,"ubkey":5345,"Ġnewline":5346,"argin":5347,"akes":5348,"ĠobjectProto":5349,"Ġlocate":5350,"Destroy":5351,"rottle":5352,"=}":5353,">{<":5354,"EC":5355,"FC":5356,"GR":5357,"lch":5358,"lab":5359,"Ġcached":5360,"Ġ}),":5361,"Ġpop":5362,"aml":5363,"ĠCOM":5364,"Ġ[]);<":5365,"parated":5366,"Ġlabel":5367,"Ġwhitespace":5368,"SourceCode":5369,"ĠCommonJS":5370,"ormalized":5371,"patterns":5372,"Ġinstall":5373,"selectors":5374,"includePrerelease":5375,"Ġdispatched":5376,"Pass":5377,"Same":5378,"Slow":5379,"uk":5380,"uuid":5381,"rem":5382,"step":5383,"storage":5384,"ances":5385,"icast":5386,"Ġwarning":5387,"ackground":5388,"Ġlanguage":5389,"features":5390,"Files":5391,"unknown":5392,"expm":5393,"ĠProvider":5394,"TemplateTag":5395,"AND":5396,"ANT":5397,"Ġdepth":5398,"ĠAnySchema":5399,"Ġimplicit":5400,"GH":5401,"HR":5402,"iction":5403,"ials":5404,"rpc":5405,"irectories":5406,"Ġdependency":5407,"002":5408,"shared":5409,"subscribed":5410,"Sequence":5411,"Ġcannot":5412,"Ġstatement":5413,"pacing":5414,"CII":5415,"MemberExpression":5416,"){":5417,"Symlinks":5418,"[${":5419,"camelCase":5420,"ĠValue":5421,"ĠwellKnownSymbol":5422,"Inherit":5423,"endObject":5424,"usr":5425,"ĠName":5426,"Ġseparator":5427,"CommonJS":5428,"IsDataDescriptor":5429,"ĠObservableInput":5430,"trimResultTransformer":5431,"WellKnownSymbolModule":5432,"lude":5433,"([]":5434,">#":5435,"GB":5436,"GV":5437,"PER":5438,"Table":5439,"hot":5440,"ness":5441,"oin":5442,"pare":5443,"yp":5444,"Ġpayload":5445,"continue":5446,"coer":5447,"ĠHo":5448,"])/":5449,"Ġinvoke":5450,"ĠloaderContext":5451,"Ġrender":5452,"ĠWrapped":5453,"eq":5454,"ging":5455,"gmail":5456,"hello":5457,"pseudo":5458,"}|":5459,"abstract":5460,"Relative":5461,"ĠSH":5462,"ArrayTransformer":5463,"ĠMessage":5464,"codePoint":5465,"ibl":5466,"posable":5467,"Ġclassof":5468,"LOG":5469,"ForWrapper":5470,"Ġdisabled":5471,"StyleSheet":5472,"Interactive":5473,"PARENT":5474,"OpeningElement":5475,"suite":5476,"|\\\\":5477,"Ġflex":5478,"isInteger":5479,"Ġhigh":5480,"ĠĠĠĠĠĠĠĠĠĠ":5481,"prevent":5482,"preserve":5483,"sourceMap":5484,"startsWith":5485,"LOW":5486,"Leading":5487,"outer":5488,"Ġinstalled":5489,"KEYS":5490,"FieldDescriptor":5491,"Binding":5492,"ĠFORCED":5493,"AM":5494,"ĠctorRegistrySymbol":5495,"stderr":5496,"endArray":5497,"sourceString":5498,"************":5499,"ĠcompareIdentifiers":5500,"Loop":5501,"ALL":5502,"Ġselectors":5503,"AttributeNS":5504,"valuate":5505,"****************************************************************************":5506,"webassemblyjs":5507,"db":5508,"Ġfetch":5509,"ategy":5510,"Ġmut":5511,"Ġinsert":5512,"ĠCur":5513,"setup":5514,"Ġdecor":5515,"binding":5516,"$/;<":5517,"ĠANSI":5518,"Ġterms":5519,"cumulator":5520,"avaScript":5521,"basic":5522,"rsv":5523,"|'":5524,"stit":5525,"Ġtmp":5526,"Ġthose":5527,"ulfilled":5528,"Inner":5529,"ĠToInteger":5530,"oked":5531,"Ġlegacy":5532,"ansiStyles":5533,"eachOf":5534,"Current":5535,"Ġtimestamp":5536,"ĠCONDIT":5537,"iblings":5538,"ĠCONDITIONS":5539,"Button":5540,"Do":5541,"Pool":5542,"cast":5543,"since":5544,"uv":5545,"ĠDefault":5546,"oder":5547,"Ġobservable":5548,"ĠSubject":5549,"Setup":5550,"Ġabove":5551,"Chars":5552,"Ġoverride":5553,"Ġsuc":5554,"UTC":5555,"IVE":5556,"PACE":5557,"ĠgetOwnPropertyDescriptor":5558,"Ctor":5559,"hint":5560,"pose":5561,"visitor":5562,"ĠDeclaration":5563,"Ġenter":5564,"enu":5565,"unicode":5566,"Ġ'>":5567,"ĠisW":5568,"Ġidentifiers":5569,"MapTo":5570,"ĠgetBuiltIn":5571,"shadow":5572,"postcssValueParser":5573,"HTMLElement":5574,"Ġdelta":5575,"ĠWrappedWellKnownSymbolModule":5576,"45":5577,"[[":5578,"[],":5579,"cd":5580,"cs":5581,"Ġfast":5582,"Ġbrace":5583,"ĠaSourceMap":5584,"Ġproject":5585,"Ġhyphen":5586,"ĠsourceMap":5587,"Ġranges":5588,"ĠOF":5589,"Unexpected":5590,"chemas":5591,"Functions":5592,"Select":5593,"webkit":5594,"Ġuid":5595,"SIZE":5596,"resolverDir":5597,"Override":5598,"Ġpairs":5599,"Negative":5600,"bineLatest":5601,"ARRANTIES":5602,"Ġissue":5603,"Copy":5604,"missing":5605,"padding":5606,"sindresorhus":5607,"visit":5608,"Ġsimple":5609,"()).":5610,"ĠSafe":5611,"ĠIMP":5612,"0101":5613,"ĠcreateHTML":5614,"ĠendIndex":5615,"Ġpatterns":5616,"Collection":5617,"Minute":5618,"LIED":5619,"Ġdefinition":5620,"ĠIMPLIED":5621,"EAD":5622,"green":5623,"ran":5624,"atives":5625,"('-":5626,"imiter":5627,"Ġeven":5628,"Ġ/>":5629,"ĠparseOptions":5630,"subscriber":5631,"Within":5632,"PATTERN":5633,"ĠAccount":5634,"MESSA":5635,"ĠPosition":5636,"*<":5637,"Wasm":5638,"category":5639,"none":5640,"Ġjest":5641,"declarations":5642,"derer":5643,"Ġtable":5644,"Ġdst":5645,"Ġlch":5646,"ĠBasic":5647,"ĠgetImplicitRole":5648,"alker":5649,"ecc":5650,"ATED":5651,"Ġneeded":5652,"ĠStart":5653,"Selectors":5654,"ĠWebpack":5655,"Algorithm":5656,"Pairs":5657,"ĠApache":5658,"Ġsemver":5659,"\"');<":5660,"42":5661,"IAL":5662,"finally":5663,"gra":5664,"take":5665,"armon":5666,"Ġbound":5667,"Ġ13":5668,"TypeScript":5669,"Ġhint":5670,"pretty":5671,"ferent":5672,"readFile":5673,"[]):":5674,"ĠerrorMessage":5675,"minor":5676,"Ġidl":5677,"ĠEntry":5678,"Ġ```<":5679,"ĠSigner":5680,"armony":5681,"48":5682,"Observer":5683,"Sto":5684,"sect":5685,"Ġcandid":5686,"Ġmemo":5687,"Ġmove":5688,"Ġ\".":5689,"ORT":5690,"[]}":5691,"built":5692,"Status":5693,"Ġactive":5694,"Ġinitialised":5695,"MAINVERSION":5696,"elyTyped":5697,"MESSAGE":5698,"eccak":5699,"75":5700,"Main":5701,"lap":5702,"Ġreceived":5703,"chain":5704,"Ġgt":5705,"ĠĠĠĠĠĠĠĠĠĠĠĠĠĠ":5706,"Ġcombin":5707,"Ġexclude":5708,"ĠsetPrototypeOf":5709,"ĠEmpty":5710,"Ġcompose":5711,"FunctionExpression":5712,"Seq":5713,"parentPath":5714,"Ġalways":5715,"Ġparameter":5716,"optional":5717,"\";":5718,"Eval":5719,"Numeric":5720,"must":5721,"primitive":5722,"Ġreserved":5723,"dered":5724,"Ġfinal":5725,"setProperty":5726,"Ġ[`":5727,"ĠĠĠĠĠĠĠĠĠĠĠĠĠĠĠĠĠ":5728,"ĠgetPolyfill":5729,"ĠNag":5730,"ĠDO":5731,"ĠEmit":5732,"formance":5733,"complete":5734,"ARI":5735,"Validate":5736,"Ġ1024":5737,"Ġotherwise":5738,"Compiler":5739,"nsitive":5740,"inspectOpts":5741,"localName":5742,"troller":5743,"ĠExpose":5744,"#!":5745,"Box":5746,"ele":5747,"sample":5748,"tach":5749,"Ġtheir":5750,"Ġconstruct":5751,"strings":5752,"ĠRx":5753,"ENER":5754,"ĠOr":5755,"SET":5756,"emitter":5757,"condition":5758,"Ġexecut":5759,"Tracker":5760,"FlowIgnore":5761,"XRANGEIDENTIFIERLOOSE":5762,"Holders":5763,"Helper":5764,"SL":5765,"Sibling":5766,"gt":5767,"xml":5768,"uring":5769,"anh":5770,"ima":5771,"illi":5772,"Ġmo":5773,"Ġwould":5774,"Ġunion":5775,"Ġ'../_":5776,"Comma":5777,"[])":5778,"ashima":5779,"library":5780,"OrOffset":5781,"DefinitelyTyped":5782,"Ġdisable":5783,"CheckPrivate":5784,"ĠencodingOrOffset":5785,"Ġlower":5786,"ĠToru":5787,"ĠgetImplicitRoleFor":5788,"ĠNagashima":5789,"CheckPrivateStatic":5790,"FULL":5791,"IMIT":5792,"lin":5793,"rand":5794,"ĠQueue":5795,"attributes":5796,"Ġcap":5797,"Ġcast":5798,"Ġsave":5799,"Ġmonth":5800,"abort":5801,"omatch":5802,"toJSON":5803,"Ġdiv":5804,"ottom":5805,"Ġ</":5806,"ĠRaw":5807,"Ġpresent":5808,"ORD":5809,"Loader":5810,"Ġinstances":5811,"Ġrepresenting":5812,"SC":5813,"Seg":5814,"--;<":5815,"selection":5816,"Ġ}),<":5817,"Ġ}))<":5818,"initialize":5819,"ĠInternal":5820,"matcher":5821,"Ġaccounts":5822,"ĠIsDataDescriptor":5823,"3456":5824,"readyState":5825,"Escapes":5826,"SafeBuffer":5827,"ĠLogger":5828,"stitution":5829,"61":5830,"BC":5831,"Random":5832,"VENT":5833,"cmp":5834,"ios":5835,"wa":5836,"xFF":5837,"|^":5838,"experimental":5839,"('#":5840,"//!":5841,"ols":5842,"uffix":5843,"Ġexact":5844,"tests":5845,"formation":5846,"Utf":5847,"FIX":5848,"grux":5849,"Behavior":5850,"Ġfixable":5851,"Ġdigest":5852,"Parts":5853,"annel":5854,"Ġsegment":5855,"Ġplaceholder":5856,"frames":5857,"ircular":5858,"maybe":5859,"&&":5860,"cxt":5861,"drain":5862,"flush":5863,"promisify":5864,"{{":5865,"sensitive":5866,"Ġfd":5867,"ascal":5868,"emory":5869,"settings":5870,"Ġ11":5871,"Ġhwb":5872,"URP":5873,"ĠNo":5874,"ĠFind":5875,"ĠGets":5876,")(?:":5877,"Ġalias":5878,"ĠComment":5879,"GET":5880,"OPD":5881,"Children":5882,"distance":5883,"Ġparameters":5884,"EXT":5885,"PARATOR":5886,"valuated":5887,"ĠWritable":5888,"ĠresolverDir":5889,"API":5890,"Month":5891,"Priority":5892,"TF":5893,"][\"":5894,"Ġsym":5895,"ĠTH":5896,"ĠTime":5897,"ĠAction":5898,"ĠBlock":5899,"Ġitself":5900,"__/":5901,"ĠContract":5902,"ATA":5903,"Ġchars":5904,"2020":5905,"pha":5906,"precate":5907,"Ġnamespaces":5908,"ycle":5909,"jection":5910,")[":5911,"-....":5912,"95":5913,"BER":5914,"LICENSE":5915,"UID":5916,"bb":5917,"hsv":5918,"ĉĠĠĠĠĠĠĠĠĠĠĠĠĠĠĠ":5919,"reset":5920,"thes":5921,"room":5922,"Ġcapt":5923,"Ġtem":5924,"iltin":5925,"ugl":5926,"Required":5927,"Ġnotice":5928,"Ġchoice":5929,"Separator":5930,"ĠToUint":5931,"FromYear":5932,"Trans":5933,"timeConstants":5934,"Ġ\\'":5935,"Ġrights":5936,"Ġdeploy":5937,"Ġregular":5938,"ĠWorkbox":5939,"(?!":5940,"inlineArrayTransformer":5941,"ITERATOR":5942,"Mut":5943,"OF":5944,"Sc":5945,"mt":5946,"Ġreset":5947,"isf":5948,"isNumber":5949,"utom":5950,"ĠSystem":5951,"Ġcodec":5952,"ĠfilePath":5953,"Stats":5954,"While":5955,"ULAR":5956,"Ġadjacent":5957,"Ġchunks":5958,"Ġtimes":5959,"PlainObject":5960,"22":5961,"Have":5962,"NESS":5963,"faces":5964,"pment":5965,"}${":5966,"Ġctor":5967,"Ġblue":5968,"Ġwatch":5969,"Storage":5970,"ĠNull":5971,"classof":5972,"Iterate":5973,"ookie":5974,"Ġevents":5975,"Ġ.._":5976,"Ġsignature":5977,"xxxx":5978,"ĠBuilt":5979,"ĠFormat":5980,"Ġgreater":5981,"+?":5982,"Js":5983,"Ġour":5984,"verter":5985,"Arrow":5986,"leted":5987,"Ġresol":5988,"ĠPART":5989,"Ġlookup":5990,"Ġorigin":5991,"shorthand":5992,"dispatch":5993,"Results":5994,"tslib":5995,"Locale":5996,"CSSRule":5997,"ToStringTag":5998,"theses":5999,"Ġbrackets":6000,"inctUntil":6001,"utomatic":6002,"09":6003,"\\'":6004,"jpb":6005,"mary":6006,"Ġ):":6007,"ination":6008,"Ġspawn":6009,"Ġblack":6010,"Ġ?<":6011,"nodejs":6012,"ĠLo":6013,"ĠPURP":6014,"osh":6015,"Ġkeyof":6016,"ERCH":6017,"ĠFIT":6018,"Common":6019,"ICULAR":6020,"IsCallable":6021,"doLimit":6022,"ĠRuleTester":6023,"eek":6024,"Emitted":6025,"ĠWebSocket":6026,"uplicates":6027,"WeakSet":6028,"ĠadditionalProperties":6029,"ANTAB":6030,"Iteratee":6031,"ĠPARTICULAR":6032,"ĠPURPOSE":6033,"ERCHANTAB":6034,"ĠFITNESS":6035,"TTY":6036,"ZW":6037,"page":6038,"way":6039,"Ġ])":6040,"del":6041,"unscopables":6042,"Ġsum":6043,"Ġ\"${":6044,"istanbul":6045,"ĠBlob":6046,"ĠLoc":6047,"Ġuses":6048,"0007":6049,"Ġpublished":6050,"ĠTests":6051,"\".<":6052,"'].":6053,"BOUND":6054,"Handlers":6055,"hidden":6056,"universal":6057,"Ġfe":6058,"Ġdup":6059,"Ġdelay":6060,"Ġunsigned":6061,"));":6062,"ĠcallBind":6063,"ĠData":6064,"ĠmoduleId":6065,"ĠasyncGenerator":6066,"ĠcompareBuild":6067,"Ġgenerator":6068,"callbackfn":6069,"blockSize":6070,"flatMap":6071,"]})`":6072,"]}?":6073,"Adapter":6074,"ictionary":6075,"Ġsuccess":6076,"ĠasyncGeneratorStep":6077,"bad":6078,"ium":6079,"Ġnested":6080,"raction":6081,"Concat":6082,"Ġexit":6083,"Ġchain":6084,"matches":6085,"truecolor":6086,"Ġexposed":6087,"WrapperForImpl":6088,"ĠRangeError":6089,"NotFound":6090,"IterableRest":6091,"boun":6092,"days":6093,"met":6094,"oist":6095,"ture":6096,"Ġam":6097,"Ġ]);<":6098,"Ġkeep":6099,"detect":6100,"engine":6101,"under":6102,"amer":6103,"estree":6104,"Ġident":6105,"ĠGlobal":6106,"ounter":6107,"ĠNUM":6108,"ayer":6109,"createClass":6110,"classPrivate":6111,"WithHoles":6112,"tokenType":6113,"doParallel":6114,"ĠProxy":6115,"Ġinvoked":6116,"StrictMode":6117,"STRU":6118,"ĠDOMException":6119,"Ġverify":6120,"ARIA":6121,"#!/":6122,"isfies":6123,"?<":6124,"SV":6125,"blue":6126,"lang":6127,"tiv":6128,"txt":6129,"vance":6130,"rel":6131,"Ġnamed":6132,"change":6133,"typeOf":6134,"Ġautomatic":6135,"lent":6136,"comments":6137,"ĠAjax":6138,"ĠPer":6139,"vents":6140,"ĠcallResult":6141,"ĠEMPTY":6142,"CallExpression":6143,"Descriptors":6144,"ĠInit":6145,"parentNode":6146,"Ġuint":6147,"CTOR":6148,"Workers":6149,"Ġcomponents":6150,"PATH":6151,"Ġexisting":6152,"Ġ2009":6153,"Ġcomparison":6154,"imationFrame":6155,"ĠChristop":6156,"43":6157,"Layout":6158,"Mixin":6159,"rs":6160,"sPer":6161,"wasm":6162,"}/":6163,"Ġedit":6164,"alt":6165,"Ġ(;":6166,"Ġprompt":6167,"Ġsc":6168,"Ġsure":6169,"Ġinject":6170,"Ġdeclarations":6171,"Ġip":6172,"Controller":6173,"oreground":6174,"/*!":6175,"ĠparseFloat":6176,"Ġsubstring":6177,"Ġstatements":6178,"Ġoutside":6179,"OrInfinity":6180,"Ġreadable":6181,"ĠstaticProps":6182,"warning":6183,"Allow":6184,"Decls":6185,"Ġdifferent":6186,"getPropertyValue":6187,"49":6188,"cision":6189,"Ġpe":6190,"star":6191,"ctrl":6192,"Ġsim":6193,"Ġag":6194,"Ġavoid":6195,"Ġ|=":6196,"ĠMicrosoft":6197,"ĠAb":6198,"Control":6199,"cessary":6200,"ĠWils":6201,"umeration":6202,"mitted":6203,"FFER":6204,"findIndex":6205,"ĠDougl":6206,"Ġquote":6207,"listeners":6208,"grade":6209,"ĠTHIS":6210,"ĠChristopher":6211,"ĠWilson":6212,"ĠDouglas":6213,"Join":6214,"Visit":6215,"bits":6216,"cached":6217,"na":6218,"invoke":6219,"Ġtre":6220,"Ġprimitive":6221,"Arr":6222,"Ġ!$":6223,"ĠBaz":6224,"Ġbeing":6225,"Ġ26":6226,"ĠUTF":6227,"ĠuseColors":6228,"Combo":6229,"subtags":6230,"AsyncIterator":6231,"ĠprotoProps":6232,"ASCII":6233,"Ġmaybe":6234,"emoji":6235,"vens":6236,"wards":6237,".._.._":6238,"ĠmsPerDay":6239,"Ġmanually":6240,"avigator":6241,"10000":6242,"85":6243,"Fixed":6244,"nina":6245,"};":6246,"Ġ'',<":6247,"Ġ_<":6248,"Ġsom":6249,"Ġsources":6250,"(\"\\":6251,"ĠCo":6252,"ĠCache":6253,"ErrorObject":6254,"conf":6255,"Ġlt":6256,"Ġliterals":6257,"))?":6258,"ĠcallSite":6259,"completion":6260,"Ġcompact":6261,"Ġsubscribe":6262,"EventListener":6263,"Ġplatform":6264,"Ġiteration":6265,"LikeToArray":6266,"pause":6267,"Buf":6268,"DefineOwnProperty":6269,"seconds":6270,"ĠSchedulerLike":6271,"ĠOnly":6272,">#[":6273,"Diff":6274,"JE":6275,"cjs":6276,"ever":6277,"rime":6278,"wks":6279,"Ġjoi":6280,"amily":6281,"ĠisImplemented":6282,"ĠConst":6283,"ĠCustom":6284,"otes":6285,"Dec":6286,"ĠstringWidth":6287,"Ġ/[":6288,"ĠEnc":6289,"({}":6290,"ĠToBoolean":6291,"tryWrapperForImpl":6292,"SIG":6293,"Species":6294,"Specifier":6295,"ĠESLint":6296,"Ġconsume":6297,"URIComponent":6298,"Ġmean":6299,"PublicKey":6300,"IndentTransformer":6301,"Destroyed":6302,"coerce":6303,"preventExtensions":6304,")];<":6305,"BLE":6306,"Break":6307,"Post":6308,"mn":6309,"priority":6310,"Ġrow":6311,"pemd":6312,"Ġtake":6313,"//.":6314,"ripemd":6315,"Ġ===================================":6316,"Ġdiff":6317,"Ġdynamic":6318,"ĠtoRegex":6319,"ĠtoPrimitive":6320,"Ġhand":6321,"Ġleading":6322,"lastIndexOf":6323,"Ġadded":6324,"Timers":6325,"register":6326,"sdk":6327,"byteLength":6328,"Ġdirectly":6329,",.._.._":6330,"SON":6331,"equals":6332,"Ġcopyright":6333,"Ġnpm":6334,"ĠpLoc":6335,"Ġbug":6336,"Ġmer":6337,"Ġdist":6338,"cover":6339,"007":6340,"forced":6341,"OfArrayLike":6342,"Resume":6343,"Lists":6344,"ĠConnection":6345,"assertRecord":6346,"Ġacc":6347,"TemplatePlugin":6348,"Ġlisteners":6349,"ĠforcedString":6350,"(['../":6351,"plied":6352,"ĠstripAnsi":6353,"Ġpassword":6354,"IGN":6355,"Ġ`(?:${":6356,"segs":6357,"ĠpLocate":6358,"IE":6359,"high":6360,"pull":6361,"save":6362,"isString":6363,"Ġcmp":6364,"amped":6365,"Ġbalance":6366,"Ġbraces":6367,"','":6368,"Ġstar":6369,"Ġunicode":6370,"coin":6371,"results":6372,"Should":6373,"ĠProcessor":6374,"CHE":6375,"multip":6376,"Ġconsistent":6377,"REGEXP":6378,"Ġcontaining":6379,"development":6380,"JECT":6381,"'](":6382,"789":6383,"=_":6384,"Mi":6385,"bose":6386,"cr":6387,"cup":6388,"lt":6389,"xf":6390,"arma":6391,"Ġtty":6392,"ĠSupport":6393,"height":6394,"endPrefix":6395,"ToInteger":6396,"Ġextglob":6397,"isArrayLike":6398,"Ġkind":6399,"ĠTransform":6400,"gregate":6401,"Ġ.._.._":6402,"(([":6403,"Label":6404,"MATCH":6405,"]];<":6406,"dynamic":6407,"yellow":6408,"}`<":6409,"separated":6410,"enforce":6411,"Ġrequires":6412,"Ġob":6413,"Ġmixin":6414,"Ġinstruction":6415,"getSourceCode":6416,"Objects":6417,"ĠisNaN":6418,"Ġconversion":6419,"Ġletter":6420,"Ġ30":6421,"antic":6422,"Change":6423,"Ġmatched":6424,"Ġless":6425,"formatters":6426,"globals":6427,"Ġtrailing":6428,"Ġ')'":6429,"Cursor":6430,"SafeInteger":6431,"chai":6432,"UPPORT":6433,"Ġautomatically":6434,"@@":6435,"Copyright":6436,"MB":6437,"Pubkey":6438,"flag":6439,"gi":6440,"language":6441,"ari":6442,"Ġdays":6443,"contains":6444,"Ġlte":6445,"Ġgte":6446,"Star":6447,"ĠBabel":6448,"ĠRequest":6449,"Ġfilepath":6450,"=======":6451,"readUInt":6452,"ĠcreateHash":6453,"lectron":6454,"convertInherit":6455,"etails":6456,"ĠownKeys":6457,"Ġprefixed":6458,"ĠYAML":6459,"ĠmakeWrapper":6460,"Variables":6461,"iterableToArray":6462,"Ġspooks":6463,"Parameters":6464,"ĠwrappedFn":6465,"finished":6466,"79":6467,">>":6468,"lift":6469,"tled":6470,"reason":6471,"isInside":6472,"exclusive":6473,"Ġ'^":6474,"Ġnet":6475,"turing":6476,"Includes":6477,"Ġduplex":6478,"important":6479,"Ġcompress":6480,"Ġdocumentation":6481,"Output":6482,"224":6483,"Cwd":6484,"NT":6485,"Opt":6486,"Padding":6487,"xc":6488,"isPadded":6489,"Ġcp":6490,"Ġclosing":6491,"pector":6492,"etter":6493,"abet":6494,"Replay":6495,"Ġconnect":6496,"setHeader":6497,"endIndex":6498,"uffle":6499,"\")())":6500,"ĠDESCRIPTORS":6501,"ĠWord":6502,"Description":6503,"--------------------------------------------------------------------------<":6504,"IsAccessorDescriptor":6505,"ĠmessageId":6506,"(/[":6507,"internalSetup":6508,"phabet":6509,"SourceMapGenerator":6510,"Quote":6511,"ĠintTo":6512,"nano":6513,"Ġoperate":6514,"TAG":6515,"ascalCase":6516,">>;<":6517,"Balance":6518,"EL":6519,"Graph":6520,"Named":6521,"PON":6522,"zy":6523,"ĠProperty":6524,"sen":6525,"isDirectory":6526,"Ġpriority":6527,"Ġway":6528,"Ġder":6529,"Ġconcurrent":6530,"ĠST":6531,"parts":6532,"Ġlater":6533,"Ġhelper":6534,"previous":6535,"Ġcaller":6536,"Ġextension":6537,"Ġ31":6538,"EventTarget":6539,"viders":6540,"ĠCommand":6541,"Ġzlib":6542,"Ġdefer":6543,".`);<":6544,"BOM":6545,"Brace":6546,"Details":6547,"handled":6548,"mixin":6549,"xhr":6550,"yb":6551,"ĠDependency":6552,"leg":6553,"Ġreverse":6554,"Ġ'}":6555,"Ġ'--":6556,"ank":6557,"exportTypedArrayMethod":6558,"Ġpx":6559,"Ġsnapdragon":6560,"icate":6561,"Extract":6562,"Construct":6563,"ething":6564,"Ġorig":6565,"ĠWallet":6566,"ĠEC":6567,"ĠuseEffect":6568,"Unknown":6569,"\\\\(":6570,"ĠcreateBuilder":6571,"++)<":6572,"cssnano":6573,"replaceWith":6574,"openAll":6575,"(?:[":6576,"ĠIsAccessorDescriptor":6577,"Ġcurrently":6578,"Load":6579,"Models":6580,"firstString":6581,"ĠESCA":6582,"rgbR":6583,"mutable":6584,"Ġsegs":6585,"uplicate":6586,"Lookup":6587,"ĠSHA":6588,"=\\\\":6589,"ACT":6590,"Cancel":6591,"blem":6592,"np":6593,"vm":6594,"Ġrows":6595,"Ġajv":6596,"claim":6597,"Ġunit":6598,"ĠonError":6599,"010":6600,"Ġcompilation":6601,"ĠMapping":6602,"ĠTransaction":6603,"Ġpoints":6604,"rimraf":6605,"Users":6606,"Assignment":6607,"ĠDetermine":6608,";${":6609,"Cap":6610,"Ijo":6611,"QR":6612,"VyY":6613,"Vocabulary":6614,"Watch":6615,"driver":6616,"schedule":6617,"{}":6618,"Ġiconv":6619,"inf":6620,"origin":6621,"legacy":6622,"Ġreact":6623,"attempt":6624,"quote":6625,"isImplemented":6626,"('|":6627,"itives":6628,"Ġsup":6629,"choice":6630,"imes":6631,"imraf":6632,"ĠCH":6633,"ĠClient":6634,"ArraySet":6635,"Decode":6636,"ToGenerator":6637,"Ġrimraf":6638,"Ġenforce":6639,"SymbolTree":6640,"egr":6641,"Ġshim":6642,"websocket":6643,"Ġdown":6644,"targets":6645,"paque":6646,"spy":6647,"Ġreporter":6648,"Logic":6649,"mkdirp":6650,"Ġserial":6651,"ĠbyteOffset":6652,"ĠansiStyles":6653,"ĠCurrent":6654,"shadowed":6655,"ĠidlUtils":6656,"Ġ===================================================================":6657,"ResumeNext":6658,")',":6659,"Groups":6660,"Hmac":6661,"More":6662,"ULE":6663,"cn":6664,"sw":6665,"tached":6666,"retry":6667,"exclude":6668,"Ġanother":6669,"ĠMax":6670,"coming":6671,"ĠPart":6672,"ĠNON":6673,"\\\\/":6674,"ĠglobalThis":6675,"Ids":6676,"ardown":6677,"Ġ/^[":6678,"BUFFER":6679,"Ġignored":6680,"Complete":6681,"ĠcloneNode":6682,"amelcase":6683,"ĠstdoutColor":6684,"Ġfailure":6685,"3456789":6686,"67":6687,"Are":6688,"EB":6689,"Green":6690,"HIT":6691,"Pseudo":6692,"YZ":6693,"ZGV":6694,"_)":6695,"ob":6696,"ores":6697,"uch":6698,"orpor":6699,"stUtils":6700,"Ġ{[":6701,"Ġ\":":6702,"Ġinline":6703,"ĠisString":6704,"ĠTe":6705,"ĠCorpor":6706,"jsxA":6707,"Declar":6708,"Ġ//=>":6709,"utilities":6710,"ModuleFactory":6711,"osite":6712,"ĠNon":6713,"ibility":6714,"endsWith":6715,"matched":6716,"tokenIndex":6717,"Ġexpressions":6718,"Ġ50":6719,"CSSKey":6720,"MetadataKey":6721,"ront":6722,"ĠValidate":6723,"asmine":6724,"VALUE":6725,"ĠKeywordError":6726,"Semicolon":6727,"cleanup":6728,"Rejected":6729,"ĠSafeBuffer":6730,"bounce":6731,"ĠCorporation":6732,"jsxAstUtils":6733,"'\\":6734,"*))":6735,"86":6736,"Slash":6737,"bound":6738,"ding":6739,"href":6740,"trace":6741,"Ġ'+":6742,"Ġ';":6743,"Ġpending":6744,"Ġspread":6745,"olana":6746,"ĠtoArray":6747,"Ġunescape":6748,"Ġgreen":6749,"ĠBSON":6750,"aching":6751,"ĠPackage":6752,"ĠIgnore":6753,"Ġvia":6754,"Ġexcept":6755,"ĠTyped":6756,"ĠhasSymbols":6757,"Ġmatching":6758,"Tokens":6759,"available":6760,"ĠEventTarget":6761,"prefixed":6762,"istribution":6763,"ĠSourceMapConsumer":6764,"ĠLevel":6765,"ĠEmitter":6766,"HO":6767,"OV":6768,"Yellow":6769,"YAML":6770,"aTypedArray":6771,"ere":6772,"git":6773,"mihai":6774,"stral":6775,"Ġinherit":6776,"ableObservable":6777,"ĠunsupportedIterableToArray":6778,"ĠAMD":6779,"izing":6780,"codegen":6781,"uster":6782,"Ġ48":6783,"ongo":6784,"does":6785,"Ġdirs":6786,"LCJz":6787,"asyncIterator":6788,"Ġworks":6789,"Flags":6790,"Clone":6791,"Ġencoded":6792,"Display":6793,"PRERELEASELOOSE":6794,"inished":6795,"uterSubscriber":6796,"bazon":6797,"BUILDIDENTIFIER":6798,"FullYear":6799,"PRERELEASEIDENTIFIERLOOSE":6800,"ĠSecondType":6801,"NONNUMERICIDENTIFIER":6802,"Ġ==========================================================================":6803,"LCJzb":6804,"\"],<":6805,"41":6806,">-":6807,"Hint":6808,"Stop":6809,"ah":6810,"margin":6811,"writer":6812,"reassign":6813,"standard":6814,"lev":6815,"ifError":6816,"iline":6817,"olling":6818,"Ġpredicate":6819,"Ġwhatwg":6820,"Ġminor":6821,"Ġcolon":6822,"Regexp":6823,"ĉĉĉĉĉĉ":6824,"ĠGenerated":6825,"ĠEnforce":6826,"statusCode":6827,"âĢĻ":6828,"supportsColor":6829,"%.":6830,".](":6831,"AC":6832,"Cyan":6833,"Magenta":6834,"Oz":6835,"Push":6836,"Sum":6837,"SING":6838,"WS":6839,"Walker":6840,"]));<":6841,"`](":6842,"ips":6843,"iated":6844,"isAbsolute":6845,"Ġcxt":6846,"odo":6847,"Ġmime":6848,"getLocation":6849,"Ġdate":6850,"ession":6851,"ĠMark":6852,"compute":6853,"forge":6854,"iterResult":6855,"ĠOver":6856,"Unit":6857,"accept":6858,"antom":6859,"Ġcharset":6860,"Ġdisclaim":6861,"groups":6862,"Generic":6863,"Ġroute":6864,"Extension":6865,"Runner":6866,"Protocol":6867,"Strategy":6868,"]]':":6869,"Ġcondition":6870,"ĠxyzY":6871,"ĠxyzZ":6872,"Ġpacket":6873,"////////////////":6874,"ĠRedistribut":6875,"mappings":6876,"ĠOrdinary":6877,"Ġagain":6878,"Ġdisclaimer":6879,"ĠRedistributions":6880,"Fetch":6881,"Win":6882,"ggle":6883,"hmac":6884,"iases":6885,"payload":6886,"xE":6887,"readdir":6888,">};":6889,"edStream":6890,"Ġsoftware":6891,"Ġbar":6892,"Ġproper":6893,"oss":6894,"Ġcompute":6895,"Ġparsing":6896,"shallow":6897,"compress":6898,"ĠHTTP":6899,"mozilla":6900,"Resource":6901,"See":6902,"implForWrapper":6903,"Ġexpand":6904,"closed":6905,"CharMap":6906,"OTO":6907,"localhost":6908,"Ġexecute":6909,"Ġassoc":6910,"Ġobtain":6911,"ĠintToCharMap":6912,"'[[":6913,"Cached":6914,"Fail":6915,"Two":6916,"_,":6917,"dim":6918,"ru":6919,"sTo":6920,"asst":6921,"trule":6922,"getIterator":6923,"getProp":6924,"ĠCopy":6925,"Dev":6926,"Depth":6927,"Ġstill":6928,"ressed":6929,"achable":6930,"Ġchange":6931,"createImpl":6932,"IsInteger":6933,"True":6934,"Transaction":6935,"ĠprivateMap":6936,"ĠwrapAnsi":6937,"ĠModuleDependency":6938,"ĠImport":6939,"]+/":6940,"Ġbackslash":6941,"\\.\\":6942,"Ġmade":6943,"Reporter":6944,"uccess":6945,"ĠdomSymbolTree":6946,".',<":6947,"Ast":6948,"CLU":6949,"HEAD":6950,"Ok":6951,"WORD":6952,"coffee":6953,"gif":6954,"hrough":6955,"yield":6956,"alias":6957,"Ġ({<":6958,"anded":6959,"Ġnone":6960,"Ġprim":6961,"Ġmedia":6962,"resume":6963,"resolved":6964,"ĠMy":6965,"Ġhook":6966,"ymatch":6967,"uple":6968,"ĠFirst":6969,"ĠbaseAccount":6970,"moves":6971,"based":6972,"Ġalgorithm":6973,"Ġdisplay":6974,"Ġopening":6975,"istribute":6976,"Timer":6977,"Ġcreating":6978,"âĶĢâĶĢ":6979,"IndexedObject":6980,"Ġmonths":6981,"assthrough":6982,"ACK":6983,"Closing":6984,"LF":6985,"SPE":6986,"VzI":6987,"aSourceMap":6988,"cer":6989,"ĠValueParser":6990,"ctet":6991,"that":6992,"Ġretry":6993,"Ġrealpath":6994,"delay":6995,"Ġpow":6996,"Ġop":6997,"progress":6998,"providers":6999,"opied":7000,"control":7001,"Ġstub":7002,"erson":7003,"Ġcompat":7004,"parseFloat":7005,"words":7006,"ĠToObject":7007,"Validator":7008,"ĠResult":7009,"ĠIsCallable":7010,"2021":7011,"CSSStyle":7012,"Ġ/*<":7013,"Perf":7014,"Percent":7015,"$/.":7016,"MetadataModule":7017,"Ġstops":7018,"nds":7019,"ĠDEBUG":7020,"ĠReflectMetadataModule":7021,"Bitwise":7022,"istributed":7023,"Ġcalculate":7024,"multipage":7025,"levant":7026,"VzIjpb":7027,"aint":7028,"drop":7029,"gular":7030,"}'":7031,"onF":7032,"unct":7033,"isHex":7034,"ilte":7035,"Ġdoc":7036,"Ġdirectories":7037,"ĠisEmpty":7038,"Ġlight":7039,"aches":7040,"ĠPath":7041,"Ġcomparator":7042,"predicate":7043,"ĠFrom":7044,"ĠhasNative":7045,"curve":7046,"ĠErrors":7047,"assertVersion":7048,"trimEnd":7049,"Ġrunning":7050,"actions":7051,"Ġsuch":7052,"Logger":7053,"sorted":7054,"ĠUnicode":7055,">})();<":7056,"ĠforceColor":7057,"illiseconds":7058,".)<":7059,"33":7060,"88":7061,">(<":7062,"Split":7063,"TD":7064,"auth":7065,"isFile":7066,"Ġcallee":7067,"strument":7068,"image":7069,"Ġbund":7070,"Project":7071,"getValue":7072,"setLevel":7073,"Ġhandlers":7074,"ĠAuto":7075,"Console":7076,"Ġ(!$":7077,"akas":7078,"ĠWeak":7079,"egrit":7080,"accounts":7081,"Ġ365":7082,"ESLint":7083,"character":7084,"Ġalign":7085,"FIL":7086,"asyncToGenerator":7087,"avail":7088,"Ġclasses":7089,"promises":7090,"Possible":7091,"Character":7092,"Matches":7093,"Ġworkspace":7094,"OPER":7095,"Ġ'-'":7096,"SHA":7097,"Ġnegative":7098,"Parameter":7099,"ĠjsonFile":7100,"VALID":7101,"ĠpreserveSymlinks":7102,"Ġsaturation":7103,"ĠKeywordErrorDefinition":7104,"ĠPackageJson":7105,"\"/><":7106,"<\"":7107,"Sec":7108,"jk":7109,"ĠâĶ":7110,"Ġ{@":7111,"anum":7112,"Ġschedule":7113,"Ġ\"\\\\":7114,"Ġinformation":7115,"elf":7116,"Internals":7117,"ĠUp":7118,"ĠWhether":7119,"Ġtester":7120,"posix":7121,"validator":7122,"sliced":7123,"srcpath":7124,"Ġaccess":7125,"Ġoverrides":7126,"namespaces":7127,"Ġscripts":7128,"Ignored":7129,"initializer":7130,"ĠWorker":7131,"crement":7132,"consume":7133,"Conditional":7134,"Tasks":7135,"ĠaSourceMapURL":7136,"Ġamount":7137,"ExtractFieldDescriptor":7138,"AME":7139,"Atrule":7140,"Css":7141,"Called":7142,"EY":7143,"Title":7144,"Uri":7145,"called":7146,"din":7147,"found":7148,"quot":7149,"isIdentifier":7150,"isNative":7151,"Ġnan":7152,"cest":7153,"Ġparens":7154,"uture":7155,"extension":7156,"Ġtransaction":7157,"ĠSoftware":7158,"combinator":7159,"Ġbeg":7160,"pathname":7161,"Ġ/(?:":7162,"ĠReader":7163,"iteration":7164,"codes":7165,"Ġencoder":7166,"iph":7167,"Ġdesired":7168,"fixed":7169,"Ġ42":7170,"Trim":7171,"Ġabort":7172,"PropertiesFrom":7173,"Ġminus":7174,"Ġminimum":7175,"specific":7176,"2018":7177,"Ġformatter":7178,"ansiEscapes":7179,"proposals":7180,"HTMLMethod":7181,"Ġallows":7182,"browserslist":7183,"FirstType":7184,"udit":7185,"InstanceProperty":7186,"ĠbgB":7187,"stripIndentTransformer":7188,"ĠrsCombo":7189,"ĠiterableToArray":7190,"Ġbinding":7191,"Newline":7192,"ĠtoIntegerOrInfinity":7193,"Ġwaiting":7194,"ĠlocatePath":7195,"sects":7196,"experimentalUtils":7197,"ĠSystemProgram":7198,"umerationValues":7199,"coverage":7200,"ĠforcedStringHTMLMethod":7201,"Ozs":7202,"PerfEntry":7203,"IX":7204,"Spreadable":7205,"\\`":7206,"afer":7207,"have":7208,"iant":7209,"wice":7210,"infinity":7211,"algorithm":7212,"Ġ'ðŁ":7213,"Ġbabel":7214,"Ġmill":7215,"ĠCan":7216,"Contract":7217,"Ġseed":7218,"FIG":7219,"wrapperSymbol":7220,"haust":7221,"255":7222,"Ġarrow":7223,"384":7224,"existsSync":7225,"ĠBigNumberish":7226,"$&":7227,"*?":7228,"AK":7229,"BY":7230,"Me":7231,"UP":7232,"You":7233,"cm":7234,"day":7235,"named":7236,"oot":7237,"operation":7238,"Ġ*****************************************************************************":7239,"iframe":7240,"Ġput":7241,"romatch":7242,"icromatch":7243,"verity":7244,"ĠCol":7245,"Except":7246,"Ġseen":7247,"additional":7248,"ESPACE":7249,"ĠConnect":7250,"SourceNode":7251,"minify":7252,"EventImpl":7253,"Ġplay":7254,"ĠJavaScript":7255,"Accounts":7256,"ĠNodeJS":7257,"ĠĠĠĠĠĠĠĠĠĠĠĠĠĠĠĠĠĠĠĠĠĠĠĠĠĠĠĠĠĠĠĠ":7258,"Ġactually":7259,"Ġ#[":7260,"Timestamp":7261,"Manual":7262,"('.')":7263,"Series":7264,"abcdef":7265,"Multi":7266,"HttpRequest":7267,"ĠAssert":7268,"HITESPACE":7269,"Duplex":7270,"Hidden":7271,"fc":7272,"iod":7273,"normal":7274,"rong":7275,"legate":7276,"Ġrest":7277,"decor":7278,"Ġcause":7279,"ceil":7280,"Ġmany":7281,"Ġ\"\")":7282,"extglob":7283,"coun":7284,"comma":7285,"Ġhref":7286,"Ġgid":7287,"ĠAuthor":7288,"Ġcomma":7289,"Ġsec":7290,"ĠdefaultValue":7291,"Ġthrows":7292,"111":7293,"basename":7294,"locate":7295,"Ġmatcher":7296,"eventName":7297,"Ġpermis":7298,"Ġtrack":7299,"password":7300,"Failed":7301,"Ġ'(?:'":7302,"Encoded":7303,"Ġcapture":7304,"ConcatSpreadable":7305,"ĠPartial":7306,"Ġ*****************************************************************************<":7307,")]":7308,"/);<":7309,"Self":7310,"XT":7311,"hs":7312,"sm":7313,"ycl":7314,"onError":7315,"separator":7316,"eness":7317,"unescape":7318,"Ġthing":7319,"Ġoptim":7320,"Ġsite":7321,"olas":7322,"moduleName":7323,"lengthOf":7324,"Ġunexpected":7325,"intro":7326,"Exclusive":7327,"izes":7328,"ĠNich":7329,"ĠNetwork":7330,"Ġlook":7331,"ship":7332,"Ġ{};":7333,"urlObj":7334,"fixtures":7335,"MLHttpRequest":7336,"ConfigFile":7337,"Configuration":7338,"ĠIsInteger":7339,"Ġroom":7340,"KET":7341,"\\\\.`":7342,"Covs":7343,"0000000000000000":7344,"Ġaround":7345,"(/^\\":7346,"ĠZakas":7347,"ĠmsPerSecond":7348,"captureStackTrace":7349,"ĠSEM":7350,"Semantic":7351,"Ġexplicitly":7352,"ardownLogic":7353,"ĠTeardownLogic":7354,"ĠNicholas":7355,",\"":7356,"-\\\\":7357,"98":7358,"DO":7359,"Long":7360,"kdf":7361,"Ġign":7362,"Ġreco":7363,"isF":7364,"Ġcancel":7365,"Ġtweet":7366,"Ġtwice":7367,"Ġ'').":7368,"Ġparen":7369,"Ġouter":7370,"Ġmy":7371,"tostring":7372,"ĠSTR":7373,"cli":7374,"ĠMatch":7375,"ĠMongo":7376,"Ġhidden":7377,"ĠDes":7378,"++]":7379,"acc":7380,"ARY":7381,"ĠContainer":7382,"ATIVE":7383,"Ġtargets":7384,"ĠreadFile":7385,"PRESS":7386,"LASH":7387,"ĠProject":7388,"ĠSelector":7389,"::*":7390,"\\/\\":7391,"keywords":7392,"SearchParams":7393,"Termin":7394,">]);<":7395,"?|":7396,"Dom":7397,"EVENT":7398,"HES":7399,"Kit":7400,"Ma":7401,"Skip":7402,"YX":7403,"aded":7404,"calc":7405,"jis":7406,"messages":7407,"war":7408,"yargs":7409,"threads":7410,"align":7411,"ens":7412,"Ġ'(?:\\\\.":7413,"Ġpasses":7414,"Ġtoo":7415,"Ġii":7416,"createTester":7417,"Ġconfigure":7418,"Anchor":7419,"Ġsubtag":7420,"Idx":7421,"packet":7422,"works":7423,"Ġleave":7424,"ĠparserOpts":7425,"Ġowner":7426,"Ġprefixes":7427,"latten":7428,"closeAll":7429,"ĠprevTime":7430,"UMENT":7431,"TEXT":7432,"MAScript":7433,"tected":7434,"ĠfreeGlobal":7435,"CONSTRU":7436,"groupBy":7437,"cyan":7438,"Ġpackages":7439,"Ġtranslate":7440,"ĠComponents":7441,"Ġentity":7442,"polate":7443,"ĠHoek":7444,"ĠwhatwgURL":7445,"unctu":7446,"::*;<":7447,"*\\":7448,":\\":7449,"DIS":7450,"DIR":7451,"Grid":7452,"SUPPORT":7453,"Wx":7454,"]\\":7455,"sinon":7456,"two":7457,"rename":7458,"arly":7459,"Ġremaining":7460,"ceptions":7461,"asis":7462,"ascii":7463,"losure":7464,"toPrimitive":7465,"Ġindic":7466,"ids":7467,"definitions":7468,"Deprecation":7469,"concurrency":7470,"ĠtypeOf":7471,"endor":7472,"indexed":7473,"ĠcreateError":7474,"Enum":7475,"ĠCond":7476,"ĠclassName":7477,"colorConvert":7478,"PROTO":7479,"signal":7480,"Notification":7481,"Compilation":7482,"Digest":7483,"ĠREGEX":7484,"afari":7485,"46":7486,"Duplicates":7487,"Farm":7488,"MIN":7489,"SGR":7490,"We":7491,"_[":7492,"google":7493,"hapi":7494,"iJ":7495,"memo":7496,"schemas":7497,"ĉĠĠĠĠ":7498,"restart":7499,"ste":7500,"dependency":7501,"Req":7502,"()),":7503,"ĠSync":7504,"Styler":7505,"StringPrototype":7506,"Ġ():":7507,"upper":7508,"ĠgetOpeningElement":7509,"parameters":7510,"ĠFloat":7511,"ĠElement":7512,"outro":7513,"ĠHtml":7514,"ĠcreateStyler":7515,"validation":7516,"ĠlengthOfArrayLike":7517,")((":7518,"LOCK":7519,"Ġaccessor":7520,"Ġbuffers":7521,"LCJ":7522,"Ġ['.":7523,"methodName":7524,"Thunk":7525,"2019":7526,"})|":7527,"OPT":7528,"Ġsignal":7529,"ĠcloseAll":7530,"reporter":7531,"YearFromTime":7532,"Ġtimer":7533,"Ġarity":7534,"WorkerKey":7535,"Ġkeywords":7536,"Environment":7537,"ĠConverts":7538,"ĠNOTE":7539,"([^)":7540,"ĠemojiRegex":7541,"ownerDocument":7542,"Ġimplements":7543,"ĠTruecolor":7544,"ĠstderrColor":7545,"Store":7546,"ĠNUMBER":7547,"Ġmillion":7548,"LON":7549,"Session":7550,"]()":7551,"cancel":7552,"fake":7553,"oices":7554,"enum":7555,"Ġsmall":7556,"Ġmight":7557,"toRegex":7558,"Ġhot":7559,"uffered":7560,"background":7561,"oute":7562,"month":7563,"notOk":7564,"formatArgs":7565,"ĠGenerate":7566,"Serial":7567,"PREFIX":7568,"PONENT":7569,"iltered":7570,"/;<":7571,"CB":7572,"Dot":7573,"Pkg":7574,"WLINE":7575,"dated":7576,"ghi":7577,"ĠâĢ":7578,"atrule":7579,"quare":7580,"itals":7581,"ĠtoPos":7582,"Ġ`<":7583,"Ġ[{":7584,"ĠMult":7585,"inder":7586,"errorEmitted":7587,"Ġsep":7588,"prelude":7589,"ĠsetImmediate":7590,"createElement":7591,"Ġpreferred":7592,"Unary":7593,"access":7594,"accessor":7595,"Argv":7596,"iterators":7597,"writeInt":7598,"fooBar":7599,"ious":7600,"Ġ'../../__":7601,"Assem":7602,"Ġneq":7603,"fox":7604,"tempts":7605,"parserOptionsMapper":7606,"Ġ57":7607,"2016":7608,"findLast":7609,"ĠformatArgs":7610,"extract":7611,"Ġfields":7612,"timestamp":7613,"fully":7614,"qrst":7615,"Condition":7616,"PARENTHES":7617,"Ġhandling":7618,"CLUD":7619,"Assembly":7620,"PARENTHESIS":7621,"05":7622,"=?":7623,"IF":7624,"KIND":7625,"LM":7626,"PART":7627,"UV":7628,"Water":7629,"aut":7630,"bable":7631,"button":7632,"cers":7633,"cannot":7634,"grid":7635,"system":7636,"isRegExp":7637,"Ġ'${":7638,"Ġnetwork":7639,"oll":7640,"Ġmd":7641,"Ġmask":7642,"ĠisNumber":7643,"ĠCLI":7644,"ĠMIN":7645,"ĠMerge":7646,"ĠAd":7647,"arrayify":7648,"derive":7649,"Ġee":7650,"ĠFlow":7651,"ĠonF":7652,"Ġsettings":7653,"createHash":7654,"${<":7655,"Settings":7656,"PluginOptions":7657,"trimStart":7658,"Keywords":7659,"Encrypt":7660,"ĠVar":7661,"Ġround":7662,"JSONSchema":7663,"npmjs":7664,"columns":7665,"Ġ':'":7666,"Ġmappings":7667,"(?=":7668,"COMPONENT":7669,"ĠColors":7670,"([^)]*":7671,"PARTIAL":7672,"=':<":7673,">[":7674,">\\":7675,"Background":7676,"CKET":7677,"DOT":7678,"Il":7679,"RY":7680,"scale":7681,"symlink":7682,"Ġctrl":7683,"record":7684,"atural":7685,"encoder":7686,"Ġcoverage":7687,"Ġcounter":7688,"exact":7689,"Ġ']":7690,"Ġ**/<":7691,"channel":7692,"Ġincluded":7693,"uses":7694,"ĠisFinite":7695,"Ġ`(?:\\\\.":7696,"assum":7697,"Ġforward":7698,"computed":7699,"Ġhow":7700,"Ġascii":7701,"using":7702,"Ġrcompare":7703,"Ġrnds":7704,"ĠReplace":7705,"coded":7706,"createError":7707,"pendent":7708,"ĠbaseGet":7709,"Ġconverted":7710,"Ġshow":7711,"Calls":7712,"ARK":7713,"ĠfoundPath":7714,"Ġcallbackfn":7715,"ĠtargetKey":7716,"Preset":7717,"Ġknow":7718,"CallbackFunction":7719,"Shorthand":7720,"TheCallbackFunction":7721,"browsers":7722,"span":7723,"ASH":7724,"Columns":7725,"]})`)<":7726,"]})\\\\.`":7727,"Ġassignment":7728,"points":7729,"XXXX":7730,"Ġcomparisons":7731,"Ġdestroyed":7732,"ĠValidationError":7733,"Parentheses":7734,"ynchronously":7735,"ĠinvokeTheCallbackFunction":7736,"eachOfLimit":7737,"thesis":7738,"ĠLocal":7739,"mnop":7740,"cssnanoUtil":7741,"egrity":7742,"Ġ`(?:\\\\.(${":7743,"90":7744,"<<":7745,"MOD":7746,"PY":7747,"Ph":7748,"Render":7749,"TOKEN":7750,"Wait":7751,"ajax":7752,"direction":7753,"mug":7754,"spread":7755,"til":7756,"vt":7757,"world":7758,"union":7759,"Ġfront":7760,"Ġcmd":7761,"Ġ'')<":7762,"ector":7763,"Ġ\"_":7764,"interfaces":7765,"Ġdeprecate":7766,"Keypair":7767,"readme":7768,"accumulator":7769,"ĠChunk":7770,"implicit":7771,"DEFAULT":7772,"THOD":7773,"Used":7774,"Ġrelax":7775,"Ġfixer":7776,"Ġ90":7777,"Ġconsum":7778,"ĠJsonRpc":7779,"Extend":7780,"([\"./":7781,"Term":7782,"ĠReadonlyArray":7783,"pareStackTrace":7784,"codePointAt":7785,"jkl":7786,"Op":7787,"Rgb":7788,"SIT":7789,"\\-":7790,"bubble":7791,"dwa":7792,"hd":7793,"wid":7794,"Ġ--------------------------------":7795,"Ġke":7796,"Ġimplemented":7797,"Ġ'['":7798,"iteness":7799,"Ġpna":7800,"ĠreturnValue":7801,"Ġbad":7802,"Ġbasic":7803,"Ġinc":7804,"ĠCryptoJS":7805,"ĠSte":7806,"parate":7807,"Ġhue":7808,"Steps":7809,"Ġsent":7810,"bserve":7811,"Ġsets":7812,"Unsubscribed":7813,"Computed":7814,"classApplyDescriptor":7815,"ĠChar":7816,"ĠclassApplyDescriptor":7817,"Ġtokenizer":7818,"single":7819,"statements":7820,"Ġinitialize":7821,"ĠStack":7822,"ragma":7823,"Levels":7824,"hostname":7825,"ĠsplitTo":7826,"flexSpec":7827,"####":7828,"Ġoperators":7829,"multiplier":7830,"CheckPrivateStaticAccess":7831,"ĠConstants":7832,"((?:":7833,"199":7834,"DR":7835,"Find":7836,"ln":7837,"sock":7838,"Ġregistry":7839,"('.');<":7840,"Ġside":7841,"Ġbin":7842,"Produ":7843,"(){<":7844,"Ġconf":7845,"ĠCl":7846,"otent":7847,"ErrorMessage":7848,"Decor":7849,"ĠBY":7850,"ĠLIMIT":7851,"agic":7852,"Ġ22":7853,"ToUn":7854,"ĠIScheduler":7855,"Ġyear":7856,"ampa":7857,"OTE":7858,"Ġwasm":7859,"METHOD":7860,"Ġsigned":7861,"Ġperformance":7862,"username":7863,"ĠoldValue":7864,"Ġbitmask":7865,"CONFIG":7866,"calar":7867,"ĠWhen":7868,"MBOL":7869,"ĠVariable":7870,"\"},<":7871,"'}":7872,"Blob":7873,"BIND":7874,"Can":7875,"JK":7876,"NC":7877,"WX":7878,"brow":7879,"lstat":7880,"mime":7881,"nth":7882,"zlib":7883,"}-":7884,"Ġâ":7885,"onical":7886,"stub":7887,"stdio":7888,"isE":7889,"excluded":7890,"Ġbs":7891,"Ġmiddleware":7892,"('../')<":7893,"ĠisValue":7894,"concept":7895,"Ġundef":7896,"upsert":7897,"ToResult":7898,"ITLE":7899,"Ġcalling":7900,"Ġended":7901,"Ġshared":7902,"subtag":7903,"globalName":7904,"globalConfig":7905,"Ġaltern":7906,"emitError":7907,"jestWatcher":7908,"ĠYear":7909,"Ġusm":7910,"memberof":7911,"Manifest":7912,"Ġcoerced":7913,"partial":7914,"Ġbox":7915,"ĠlabA":7916,"attrs":7917,"ĠShort":7918,"Ġwarnings":7919,"decimal":7920,"ValidationError":7921,"CRLF":7922,"ĠSupported":7923,"Capability":7924,"slicedToArray":7925,"unctuator":7926,"qrstuv":7927,"ampaign":7928,"%,":7929,"Doc":7930,"Leg":7931,"Ty":7932,"TRA":7933,"[++":7934,"bc":7935,"dictionary":7936,"gar":7937,"scheme":7938,"âķ":7939,"Ġ],":7940,"leading":7941,"urn":7942,"Ġscale":7943,"lot":7944,"tools":7945,"apache":7946,"Ġwon":7947,"Ġsteps":7948,"Ġhelp":7949,"ĠNE":7950,"ĠOther":7951,"reader":7952,"ĠHook":7953,"Ġyargs":7954,"Ġattempt":7955,"ĠInput":7956,"STUV":7957,"emplates":7958,"levels":7959,"Ġvalidation":7960,"Ġstreams":7961,"silent":7962,"ĠJPY":7963,"OLON":7964,"ISO":7965,"ĠblockSize":7966,"typedarray":7967,"Esm":7968,"Ġcolumns":7969,"mkdirSync":7970,"Modified":7971,")/;<":7972,"Ġrepresentation":7973,"retKey":7974,"DEFGH":7975,"Ġ'?'":7976,"WriteStream":7977,"Ġadjacents":7978,"Ġfeature":7979,"classPrivateField":7980,"QRSTUV":7981,"LMN":7982,"jklmnop":7983,"JKLMN":7984,"WXYZ":7985,"QRSTUVWXYZ":7986,">_":7987,"Ajv":7988,"Clear":7989,"Ii":7990,"Jest":7991,"Memo":7992,"ls":7993,"paren":7994,"score":7995,"uIjo":7996,"rest":7997,"onym":7998,"Ġ{_,":7999,"unsupportedIterableToArray":8000,"quux":8001,"ane":8002,"ifference":8003,"asure":8004,"asinh":8005,"Ġiframe":8006,"Reverse":8007,"Rejection":8008,"eyJ":8009,"problem":8010,"idObj":8011,"ĠTO":8012,"setProto":8013,"returnValue":8014,"cosh":8015,"ĠRun":8016,"__:":8017,"acters":8018,"hasInstance":8019,"Ġletters":8020,"Ġwhole":8021,"viver":8022,"onlyOnce":8023,"cluding":8024,"ĠToPrimitive":8025,"writeFile":8026,"RACKET":8027,"undant":8028,"Ġexpm":8029,"paused":8030,"Then":8031,"Generated":8032,"ĠJSONStream":8033,"Ġ63":8034,"THIS":8035,"itespaces":8036,"ReflectConstruct":8037,"playlist":8038,"cloneNode":8039,"Ġspy":8040,"Closed":8041,"ĠINCLUD":8042,"Ġwords":8043,"scripts":8044,"ĠlabB":8045,"ZXJz":8046,"Ġ/>';<":8047,"egral":8048,"counter":8049,"uIjoz":8050,"ZXJzaW":8051,"!');<":8052,"\"}":8053,"'])":8054,"+)?":8055,"-')":8056,"</":8057,"ASI":8058,"CUR":8059,"crim":8060,"mar":8061,"ointer":8062,"Ġnormal":8063,"Ġscan":8064,"getTime":8065,"Ġisn":8066,"ĠSimple":8067,"Ġuntil":8068,"Ġcompli":8069,"Exponent":8070,"ĠEs":8071,"Comparator":8072,"Ġcases":8073,"Ġalong":8074,"Ġfns":8075,"ĠpropertyKey":8076,"white":8077,"ĠbeforeEach":8078,"Click":8079,"Ġoverwrite":8080,"Ġfixtures":8081,"issue":8082,"Targets":8083,"gorithms":8084,"OutOf":8085,"digits":8086,"SlowBuffer":8087,"ĠEmptyError":8088,"Ġtemp":8089,"ĠInitialize":8090,"Ġtreat":8091,"ĠCHAR":8092,"ĠAutogenerated":8093,"ghijklmnop":8094,"04":8095,"59":8096,"76":8097,";;":8098,"IJKLMN":8099,"Ranges":8100,"nesting":8101,"td":8102,"vg":8103,"wxyz":8104,"yarn":8105,"¦Ħ":8106,"erName":8107,"stdin":8108,"decoder":8109,"irefox":8110,"(''.":8111,"Ġ'#":8112,"anObject":8113,"Ġnormalized":8114,"//------------------------------------------------------------------------------<":8115,"constant":8116,"ĠTITLE":8117,"ĠSyntax":8118,"arrayMap":8119,"osRelease":8120,"preferred":8121,"ValueType":8122,"aste":8123,"ĠWHITESPACE":8124,"Ġprerelease":8125,"Image":8126,"ĠparentNode":8127,"Ġeventify":8128,"matchNode":8129,"REAM":8130,"ilenames":8131,"KeywordCxt":8132,"}`,<":8133,"ĠAnchor":8134,"Ġreplaced":8135,"OPQRSTUVWXYZ":8136,"ĠSubArray":8137,"execute":8138,"ĠDatePart":8139,"Ġmulticast":8140,"Imports":8141,"Curly":8142,"Escaped":8143,"without":8144,"encrypt":8145,"Ġtrimmed":8146,"JSXElement":8147,"negative":8148,"ĠhslL":8149,"labels":8150,"ĠmkdirpManual":8151,"uLy":8152,"Feature":8153,"CONSTRUCTOR":8154,"cssnanoUtilGet":8155,"widget":8156,"qrstuvwxyz":8157,"DEFGHIJKLMN":8158,"DEFGHIJKLMNOPQRSTUVWXYZ":8159,"Pa":8160,"Please":8161,"Pending":8162,"RIN":8163,"Simple":8164,"Top":8165,"middleware":8166,"xios":8167,"year":8168,"Ġmost":8169,"ider":8170,"ĠScript":8171,"ĠSpec":8172,"ĠnewNode":8173,"Ġhelpers":8174,"Ġgetter":8175,"mainder":8176,"ĠresultSelector":8177,"Ġprevent":8178,"([\\":8179,"ards":8180,"Ġplain":8181,"Ġaccomp":8182,"Ġmapped":8183,"down":8184,"Ġ80":8185,"Ġrejected":8186,"udio":8187,"[\\]":8188,"Ġsorted":8189,"Signal":8190,"timer":8191,"Ġmanip":8192,"allocUnsafeSlow":8193,"programId":8194,"aaa":8195,"Ġsatisfies":8196,"ranch":8197,"universalify":8198,"Await":8199,"Babel":8200,"Braces":8201,"CUMENT":8202,"DATA":8203,"Ed":8204,"GENER":8205,"LT":8206,"Microsoft":8207,"NyY":8208,"karma":8209,"magenta":8210,"Ġetc":8211,"ench":8212,"Ġfmt":8213,"Ġpage":8214,"deflate":8215,"Ġmakes":8216,"ĠaTypedArray":8217,"ObjectType":8218,"ĠisNode":8219,">//-----------------------------------------------------------------------------<":8220,"intersection":8221,"ĠtoLength":8222,"ĠfromIndex":8223,"ĠSha":8224,"Ġtyped":8225,"Ġlazy":8226,"Ġgif":8227,"005":8228,"usic":8229,"ĠPseudo":8230,"Ġseparate":8231,"ĠWARRANTIES":8232,"Ġpreprocess":8233,"compilers":8234,"mock":8235,"119":8236,"replaceResultTransformer":8237,"ATIC":8238,"ById":8239,"Ġpositives":8240,"Ġvalidator":8241,"READ":8242,"ĠdefineProperties":8243,"stats":8244,"FFF":8245,"Ġ'\\'":8246,"Ġcluster":8247,"removeListener":8248,"Ġ'[[":8249,"TemplateLiteral":8250,"callbacks":8251,"Ġjsx":8252,"]+)":8253,"encoded":8254,"multicast":8255,"Disposable":8256,"padStart":8257,"Ġmkdirs":8258,"ograph":8259,"avigation":8260,"resourcePath":8261,"Ġlonger":8262,"Ġcandidate":8263,"CSSStyleDeclaration":8264,"VzIjpbIi":8265,"onymous":8266,"uIjozLCJzb":8267,"NyYy":8268,"83":8269,"LATE":8270,"black":8271,"balance":8272,"cc":8273,"dum":8274,"gop":8275,"identifiers":8276,"mul":8277,"vices":8278,"|[":8279,"Ġ(()":8280,"olution":8281,"Ġmet":8282,"Ġ\"\");<":8283,"trunc":8284,"Ġcontainer":8285,"setProvider":8286,"ĠBASI":8287,"inside":8288,"Ġwhite":8289,"ĠHour":8290,"ĠHAND":8291,"Ġcomplete":8292,"Attributes":8293,"writeFileSync":8294,"Ġui":8295,"ownproperty":8296,"Show":8297,")?)?":8298,"Room":8299,"ĠAdds":8300,"Ġ'.'":8301,"ArgumentOutOf":8302,"Ġterminal":8303,"-....-....":8304,"({}),":8305,"ĠhasNativeMap":8306,"ISOString":8307,"Ġcompliance":8308,"ghijklmnopqrstuvwxyz":8309,"ĠBASIS":8310,"ArgumentOutOfRangeError":8311,"TO":8312,"UI":8313,"Za":8314,"]?":8315,"bf":8316,"fragment":8317,"gOPD":8318,"|\"":8319,"}%":8320,"}');<":8321,"remaining":8322,"sevents":8323,"atal":8324,"atanh":8325,"isError":8326,"isConcatSpreadable":8327,"('_":8328,"Ġ*~":8329,"entity":8330,"Ġbold":8331,"Ġ\",":8332,"toBuffer":8333,"ĠTOKEN":8334,"ĠCallback":8335,"offrom":8336,"importDefault":8337,"setmap":8338,"Ġ`%":8339,"Ġ//--------------------------------------------------------------------------<":8340,"Ġprotected":8341,"isting":8342,"defineWellKnownSymbol":8343,"ĠLiteral":8344,"usy":8345,"ToBoolean":8346,"Ġ/[\\":8347,"ValueFrom":8348,"addr":8349,"lower":8350,"renderer":8351,"ĠarrayMethod":8352,"posal":8353,"cssRules":8354,"FromAst":8355,"environment":8356,"\"];":8357,"ĠdefineWellKnownSymbol":8358,"scroll":8359,"BaseURL":8360,"Sha":8361,"ĠVisit":8362,"ĠJSXElement":8363,"Quant":8364,"Builtin":8365,"AttributeValue":8366,"CustomPropertiesFrom":8367,"Optional":8368,"XRANGEPLAIN":8369,"Ġemojis":8370,"[^\\\\":8371,"Licensed":8372,"Ġelems":8373,"TERNAL":8374,"Initialized":8375,"models":8376,"ĠDayFromYear":8377,"EvalError":8378,"Ġmerged":8379,"attempted":8380,"Ġagainst":8381,"browse":8382,"garply":8383,"CurlyBracket":8384,"ography":8385,"*[":8386,",'":8387,"GRE":8388,"Router":8389,"eat":8390,"ier":8391,"xn":8392,"yaml":8393,"onPerfEntry":8394,"('..":8395,"Ġ'%":8396,"exportStar":8397,"Ġreturning":8398,"Ġbl":8399,"Reader":8400,"ĠisRegExp":8401,"ople":8402,"ĠCalled":8403,"ĠSnapdragon":8404,"imports":8405,"aceholder":8406,"short":8407,"ĠEth":8408,"ĠElectron":8409,"Ġprefer":8410,"compact":8411,"ĠHandler":8412,"Ġarrayify":8413,"posite":8414,"ĠparentPath":8415,"Ġchecks":8416,"000000":8417,"waiting":8418,"Ġweek":8419,"ĠCommon":8420,"IteratorPrototype":8421,"ansiRegex":8422,"Ġblocks":8423,"ĠchalkTag":8424,"Ġ'\\\\'":8425,"IfEmpty":8426,"]/;<":8427,"(/^[":8428,"ĠsupportsColor":8429,"extendable":8430,"Ġregister":8431,"qrt":8432,"SYMBOL":8433,"1111111111111111":8434,"Summary":8435,"assumption":8436,"otential":8437,"\"]<":8438,")',<":8439,">.<":8440,"DD":8441,"Ident":8442,"LITY":8443,"PH":8444,"PL":8445,"Pick":8446,"TState":8447,"bow":8448,"evaluated":8449,"fast":8450,"rt":8451,"sser":8452,"tweet":8453,"ĠDefinePropertyOrThrow":8454,"regenerator":8455,"Ġrestart":8456,"Ġrecord":8457,"Ġrestore":8458,"seq":8459,"ences":8460,"Ġfuture":8461,"Ġshebang":8462,"Ġspacing":8463,"chan":8464,"getAttributeNS":8465,"igher":8466,"Ġdirection":8467,"ĠtoJSON":8468,"Arrays":8469,"Ġhigher":8470,"ĠBackground":8471,"ĠgetProp":8472,"ĠON":8473,"ĠEITH":8474,"ĠassertRecord":8475,"FunctionName":8476,"fromDir":8477,"FileSystem":8478,"secure":8479,"IDED":8480,"matchAll":8481,"Ġspecify":8482,"GEMENT":8483,"ĠIsExtensible":8484,"trimLeft":8485,"DependencyTemplate":8486,"})();<":8487,"whitespace":8488,"mergeStream":8489,"Workbox":8490,"ABC":8491,"ExpectType":8492,"pbm":8493,"mean":8494,"ĠApp":8495,"ĠSubscriptionLog":8496,"Ġ'{\"":8497,"ĠEXPRESS":8498,"INFRIN":8499,"developer":8500,"ĠhsvV":8501,"ĠPROV":8502,"ĠselectColor":8503,"TrailingSurrogate":8504,"ĠLEFT":8505,"LeadingSurrogate":8506,"StatusCode":8507,"Ġcapturing":8508,"ERCHANTABLITY":8509,"crError":8510,"Declarator":8511,"ahoo":8512,"Ġpermissions":8513,"ĠLIMITATION":8514,"ĠINCLUDING":8515,"ĠEITHER":8516,"INFRINGEMENT":8517,"ĠPROVIDED":8518,"DI":8519,"Ms":8520,"MERCHANTABLITY":8521,"WB":8522,"WARRANTIES":8523,"Week":8524,"beg":8525,"small":8526,"vs":8527,"Ġrad":8528,"Ġrev":8529,"quences":8530,"Ġce":8531,"Ġ\"$":8532,"(\".":8533,"Ġconcurrency":8534,"Destructure":8535,"ĠMetadata":8536,"istory":8537,"Ġresource":8538,"Exact":8539,"Ġ255":8540,"Ġcomputed":8541,"ersions":8542,"Ġchanges":8543,"share":8544,"Codec":8545,"Ġ39":8546,"Ġshare":8547,"123":8548,"Ġformatting":8549,"anying":8550,"Clamped":8551,"nonIterableRest":8552,"ĠCompiler":8553,"rollup":8554,"Delim":8555,"ĠisWindows":8556,"MAINVERSIONLOOSE":8557,"ĠdistinctUntil":8558,"UnsubscribedError":8559,"Ġaccompanying":8560,"-?":8561,"44":8562,"63":8563,"92":8564,"Big":8565,"Gray":8566,"Iss":8567,"Kind":8568,"PSI":8569,"Punctuator":8570,"Try":8571,"VL":8572,"]]<":8573,"bund":8574,"fallback":8575,"lify":8576,"mote":8577,"microsoft":8578,"pages":8579,"xFE":8580,"ctr":8581,"uniq":8582,"variant":8583,"('\"":8584,"Ġtar":8585,"Ġ'|'":8586,"ulh":8587,"Ġpers":8588,"defer":8589,"elli":8590,"Ġ`[":8591,"ĠMihai":8592,"Ġresume":8593,"ĠBinary":8594,"ĠLet":8595,"arrayWithHoles":8596,"ĠRGB":8597,"__.":8598,"ĠIP":8599,"ĠGrid":8600,"ĠNAME":8601,"ocus":8602,"Ġexcluded":8603,"ĠFUN":8604,"ĠDig":8605,"012":8606,"ĠHex":8607,"fromCallback":8608,"Enabled":8609,"/#/":8610,"Ġxor":8611,"STREAM":8612,"ĠToInt":8613,"generic":8614,"Ġaliases":8615,"mines":8616,"Ordinary":8617,"Ġspecifier":8618,"statement":8619,"ĠparserOptionsMapper":8620,"Through":8621,"ScopeType":8622,"expressions":8623,"released":8624,"ĠStyle":8625,"ĠProcess":8626,"ĠYahoo":8627,"ELEMENT":8628,"Ġexpects":8629,"metadataKey":8630,"ĠtransformFile":8631,"ridden":8632,"Ġnegatives":8633,"ModulesPaths":8634,"ĠredBright":8635,"parison":8636,"ĠScopeBase":8637,"Marker":8638,"ĠKeywordCxt":8639,"Ġlibrary":8640,"ĠDetermines":8641,"Segments":8642,"metr":8643,"ĠBazon":8644,"Ġsupplied":8645,"BitwiseOp":8646,"Ġbegin":8647,"ToUnscopables":8648,"AGE":8649,"Rl":8650,"dk":8651,"hn":8652,"hour":8653,"sat":8654,"ĠERC":8655,"ĨĴ":8656,"ĶâĶĢâĶĢ":8657,"except":8658,"Ġ';<":8659,"Ġthings":8660,"straint":8661,"ifec":8662,"ptic":8663,"Ġ\"[":8664,"Redeclaration":8665,"ĠCoffee":8666,"Ġunused":8667,"ĠgetOptions":8668,"__(":8669,"ĠUN":8670,"shake":8671,"Ġwhat":8672,"ĠindexOf":8673,"ĠeventName":8674,"scribable":8675,"need":8676,"ĠĠĠĠĠĠĠĠĠĠĠĠĠĠĠĠĠĠĠĠĠĠĠĠĠ":8677,"ĠKEY":8678,"Ġcols":8679,"Callbacks":8680,"rimitives":8681,"Ġimports":8682,"PropBase":8683,"weight":8684,"Ġprovide":8685,"Ġ98":8686,"PrivateRedeclaration":8687,"ĠAddress":8688,"Abstract":8689,"Ġnegated":8690,"Ġrepresents":8691,"ĠansiRegex":8692,"Ġ\\`${":8693,"HoldersLen":8694,"ĠâĶĶâĶĢâĶĢ":8695,"warded":8696,"MODULE":8697,"ĠâĨĴ":8698,"ĠSupportedAlgorithm":8699,"DestructureSet":8700,"PSILON":8701,"ifecycle":8702,"ĠCoffeeScript":8703,"$/<":8704,")|":8705,"180":8706,"Astral":8707,"Help":8708,"OUR":8709,"Pred":8710,"blackBright":8711,"caching":8712,"ii":8713,"iation":8714,"mF":8715,"ramer":8716,"vl":8717,"yper":8718,"around":8719,"Ġforeground":8720,"uman":8721,"Ġ\")":8722,"ĠaFunction":8723,"Ġwide":8724,"(\"\");<":8725,"ĠisPlainObject":8726,"keypair":8727,"Ġ[,":8728,"forward":8729,"ĠgetMap":8730,"Ġ(!_":8731,"andal":8732,"ĠObjectType":8733,"ixins":8734,"ĠUSD":8735,"URLParse":8736,"NodeCallback":8737,"Ġpretty":8738,"sourceMappingURL":8739,"ĠparseQuery":8740,"oneLine":8741,"moz":8742,"cssText":8743,"TimeComponent":8744,"ĠToLength":8745,"constructors":8746,"collect":8747,"rawValue":8748,"Ġ(_,":8749,"finite":8750,"ĠStatic":8751,"ificate":8752,"ĠrgbR":8753,"ertificate":8754,"Ġusername":8755,"CIES":8756,"ĠapplyStyle":8757,"ĠEnsure":8758,"icrotask":8759,"Supports":8760,"Ġmeans":8761,"going":8762,"ĠIssue":8763,"ĠEXP":8764,"ĠExports":8765,"bgBlackBright":8766,"Features":8767,"ypography":8768,"|\\\\*":8769,"Ġhyphens":8770,"Mutation":8771,"Ġpeople":8772,"yclic":8773,"ĠShortcut":8774,":'":8775,"Gif":8776,"HTTP":8777,"Letter":8778,"Payload":8779,"SLASH":8780,"[]<":8781,"^$":8782,"ev":8783,"fb":8784,"hand":8785,"mixed":8786,"ope":8787,"py":8788,"sup":8789,"snapshot":8790,"throttle":8791,"Ġtrace":8792,"anity":8793,"Ġpth":8794,"Ġ\"*":8795,"Ġaes":8796,"Inline":8797,"Ġdb":8798,"ĠisHex":8799,"Delete":8800,"Ġstdio":8801,"ĠMut":8802,"ĠMain":8803,"combineLatest":8804,"Defaults":8805,"caller":8806,"ĠEd":8807,"fixer":8808,"IDL":8809,"Roles":8810,"board":8811,"domain":8812,"ĠVER":8813,"Ġdestination":8814,"ĠmergeMap":8815,"ĠPrevent":8816,"Ġactions":8817,"Ġimplementations":8818,"Rows":8819,"Ġmultiplier":8820,"basicURLParse":8821,"Ġmoved":8822,"iterableToArrayLimit":8823,"HOST":8824,"Ġbitmasks":8825,"ĠOtherwise":8826,"02":8827,"Cre":8828,"Caches":8829,"High":8830,"MT":8831,"Num":8832,"Network":8833,"Optim":8834,"Parens":8835,"Tries":8836,"Versions":8837,"Wsc":8838,"adecimal":8839,"dpub":8840,"posed":8841,"xF":8842,"Ġ{...":8843,"ald":8844,"alf":8845,"alg":8846,"Ġrecursive":8847,"router":8848,"isL":8849,"Ġnines":8850,"loop":8851,"typeAnnotation":8852,"Ġincluding":8853,"versal":8854,"getter":8855,"ĠisPropertyDescriptor":8856,"allist":8857,"ĠClose":8858,"lencoded":8859,"aseCRLF":8860,"Ġview":8861,"ĠcombineLatest":8862,"Ġloss":8863,"Ġeno":8864,"Ġchrome":8865,"ĠDot":8866,"Integral":8867,"ĠHEX":8868,"ĠparseColor":8869,"ĠbaseIs":8870,"FileName":8871,"([],":8872,"ARG":8873,"WithFirst":8874,"Ġ2013":8875,"ExpressionContainer":8876,"aving":8877,"pluginSyntax":8878,"Ġ(_)":8879,"EncaseCRLF":8880,"Charset":8881,"structuring":8882,"bgH":8883,"ĠusedModels":8884,"$/,":8885,"ĠcopyProps":8886,"ĠstopDigit":8887,"UtilErrorObject":8888,"Returns":8889,"ĠExtract":8890,"ĠopenAll":8891,"ĠchalkFactory":8892,"Logical":8893,"ĠfilterPatterns":8894,"skipSC":8895,"Ġdotted":8896,"StrictEqual":8897,"ĠcontainsNumber":8898,"[^\\":8899,"Uppercase":8900,"ĠsectionMetadata":8901,"QUOTE":8902,"ReadStream":8903,"Ġsemicolon":8904,"MediaRule":8905,"Ġproduct":8906,"pointer":8907,"roles":8908,"ReplaceAll":8909,"ĠCOMMENT":8910,"Ġcandidates":8911,"Segment":8912,"Area":8913,"GenericDescriptor":8914,"ĠtoPosInt":8915,"ĠYearFromTime":8916,"}%}<":8917,"Ġwidely":8918,"andalone":8919,"IntegralNumber":8920,"WithFirstIndex":8921,"EncaseCRLFWithFirstIndex":8922,"!(\"":8923,"My":8924,"Mul":8925,"OB":8926,"bidden":8927,"prompt":8928,"xd":8929,"ĠERROR":8930,"through":8931,"alert":8932,"Ġcr":8933,"Ġta":8934,"term":8935,"lored":8936,"Ġmater":8937,"Ġtrunc":8938,">//!":8939,"Ġcontrol":8940,"settled":8941,"Decipher":8942,"Ġ101":8943,"comparator":8944,"nodeInterop":8945,"lip":8946,"ĠFilter":8947,"ĠonEnd":8948,"ĠHarmony":8949,"newline":8950,"Ġpositive":8951,"Ġnecessary":8952,"FFSET":8953,"Ġleast":8954,"Ġruns":8955,"CHAR":8956,"NotThrow":8957,"Ġclosed":8958,"Ġintersects":8959,"Ġverbose":8960,"Transparent":8961,"NotFoundError":8962,"Ġsimply":8963,"Ġrecogn":8964,"begin":8965,".\\":8966,"/${":8967,"Ag":8968,"Am":8969,"Border":8970,"DESCRIPTORS":8971,"Hand":8972,"Mask":8973,"MARK":8974,"OS":8975,"Page":8976,"VIS":8977,"Vitals":8978,"YY":8979,"prim":8980,"onts":8981,"Ġrebase":8982,"Ġretain":8983,"seed":8984,"Ġfulfilled":8985,"isCore":8986,"ulp":8987,"Ġpick":8988,"Ġsample":8989,"toFixed":8990,"verify":8991,"Reactions":8992,"plode":8993,"IntoArray":8994,"Ġgame":8995,"ĠLine":8996,"ToPrimitive":8997,"ToPropertyDescriptor":8998,"Toggle":8999,"Ġevaluate":9000,"prepareStackTrace":9001,"/*.":9002,"CodePath":9003,"CodeKeywordDefinition":9004,"({});<":9005,"ĠuseContext":9006,"ĠarrayLikeToArray":9007,"ĠCopyrights":9008,"overflow":9009,"redis":9010,"ARN":9011,"notify":9012,"ĠclassConstructor":9013,"ĠToPropertyDescriptor":9014,"disabled":9015,"ĠtryCatch":9016,"trimRight":9017,"Ġmodular":9018,"lastIndex":9019,"})`;<":9020,"Ġexported":9021,"ĠschemaType":9022,"Ġbrowserslist":9023,"WebVitals":9024,"ĠqueueHead":9025,"Compat":9026,"prefixes":9027,"Ġpermitted":9028,"chunks":9029,"AndApply":9030,"Chunks":9031,"network":9032,"ĠXHR":9033,"ĠSelect":9034,"Curve":9035,"pairs":9036,"CustomMessage":9037,"ĠcssText":9038,"ĠZero":9039,"ĠIDENT":9040,"ĠSchemaObject":9041,"Ġshortcut":9042,"ĠflexSpec":9043,"ĠWebpackError":9044,"Ġcombination":9045,"framesRule":9046,"cleanupSemantic":9047,"ĠWeakSet":9048,"ĠEscape":9049,"ĠSyntaxError":9050,"usyTries":9051,"Quantifier":9052,"VLQ":9053,"0123456789":9054,"vlq":9055,"AndApplyPropertyDescriptor":9056,"Driver":9057,"False":9058,"Menu":9059,"NG":9060,"Normalize":9061,"`${":9062,"biz":9063,"clock":9064,"priv":9065,"xor":9066,"oriz":9067,"alyz":9068,"Ġrename":9069,"Ġfiltered":9070,"isPrimitive":9071,"Ġcyan":9072,"Ġcamelcase":9073,"Ġcopied":9074,"Ġnaf":9075,">}(?:\\\\.":9076,"Ġagent":9077,"InYear":9078,"ĠSplit":9079,"Ġhope":9080,"ĠPrint":9081,"Ġ21":9082,"Ġ25":9083,"ToHex":9084,"Ġearly":9085,"ĠNO":9086,"KeyChanged":9087,"Ġalphabet":9088,"ĠversionA":9089,"TokenList":9090,"streams":9091,"Ġabv":9092,"Thenable":9093,"Ġ/^(":9094,"Ġ/^(?:":9095,"allowed":9096,"Ġaffect":9097,"userAgent":9098,"]})*))":9099,"Ġimplied":9100,"ByteArray":9101,"ĠplaceHoldersLen":9102,"guards":9103,"Ġ','":9104,"(\"../../../../":9105,"Ġassociated":9106,"HEADER":9107,">}(?:\\\\.${":9108,"]})*))`)<":9109,"03":9110,"CLO":9111,"CODE":9112,"CITY":9113,"DA":9114,"Fake":9115,"Language":9116,"NO":9117,"Spaces":9118,"^${":9119,"cG":9120,"eject":9121,"watcher":9122,"yJ":9123,"Ð¾":9124,"Ġ..":9125,"ĠArguments":9126,"recursive":9127,"infer":9128,"Ġ{\"":9129,"Ġrelevant":9130,"seal":9131,"isInteractive":9132,"('--":9133,"Ġtail":9134,"esm":9135,"strm":9136,"Ġpump":9137,"Ġsci":9138,"toRed":9139,"interval":9140,"setImmediate":9141,"Ġunits":9142,"RequireObjectCoercible":9143,"Ġpathname":9144,"ĠPop":9145,"ĠPlease":9146,"Tool":9147,"ĠITER":9148,"calls":9149,"ĠonStart":9150,"Ġcallable":9151,"ĠcodePoint":9152,"ĠmoduleContext":9153,"ĠEnd":9154,"Owner":9155,"ĠcreateIterator":9156,"fromArray":9157,"ĠargumentsList":9158,"FilePath":9159,"uthy":9160,"Play":9161,"ĠresolveSeq":9162,"ĠparentSchema":9163,"ĠlistCache":9164,"Ġlogging":9165,"fns":9166,"ĠmapFn":9167,"pluginTransform":9168,"loaders":9169,"removeAll":9170,"Matchers":9171,"icky":9172,"which":9173,"Ġimported":9174,"Ġwindows":9175,"stripAnsi":9176,"ĠmsPerMinute":9177,"ĠBigInts":9178,"session":9179,"rainbow":9180,"\")),":9181,"SYNC":9182,"ĠordinaryHas":9183,"ValidateFunction":9184,"ĠNullDependency":9185,"doParallelLimit":9186,"decorators":9187,"ĠConditional":9188,"ctrine":9189,"ĠsciPos":9190,"-]*":9191,".';<":9192,"Cell":9193,"Circular":9194,"Der":9195,"Direct":9196,"FOUND":9197,"]`":9198,"cion":9199,"cross":9200,"hen":9201,"human":9202,"iator":9203,"ranges":9204,"vb":9205,"{\"":9206,"Ġ;":9207,"Ġripemd":9208,"ontal":9209,"ertain":9210,"Ġretri":9211,"unn":9212,"isUndefined":9213,"Ġcircular":9214,"Ġ}}":9215,"Ġty":9216,"Ġoptimize":9217,"Ġobserver":9218,"romium":9219,"moduleId":9220,"ĠgetValue":9221,"errno":9222,"show":9223,"Ġprecision":9224,"Ġ38":9225,"fromCodePoint":9226,"ĠInter":9227,"ĠprivateKey":9228,"Ġmodified":9229,"Shift":9230,"Ġroutes":9231,"ĠExtra":9232,"Compare":9233,"JsonSync":9234,"pcProvider":9235,"ĠisObjectLike":9236,"ĠDecode":9237,"Ġcoercion":9238,"times":9239,"Ġmechan":9240,"ĠrandomBytes":9241,"Ġdetected":9242,"ĠWrite":9243,"4740":9244,"roomId":9245,"Ġsomething":9246,"Ġderive":9247,"doesNotThrow":9248,"ĠUpdate":9249,"Ġignores":9250,"OPTIONS":9251,"orizontal":9252,"alyze":9253,")();<":9254,"+)\\":9255,"101":9256,"BRACKET":9257,"Font":9258,"Flatten":9259,"Pure":9260,"Sw":9261,"blink":9262,"bson":9263,"duplex":9264,"micromatch":9265,"rw":9266,"yl":9267,"ĠregExp":9268,"debounce":9269,"units":9270,"ismatch":9271,"Ġtab":9272,"Ġ'`":9273,"Ġsw":9274,"Ġsalt":9275,"perf":9276,"ĠfunctionName":9277,"Ġ\"+":9278,"ĠTS":9279,"ĠCAN":9280,"ĠSec":9281,"fff":9282,"Ġancest":9283,"ĠnewValue":9284,"irm":9285,"Ġstake":9286,"Ġhooks":9287,"ĠgOPD":9288,"ĠAR":9289,"Deflate":9290,"Conf":9291,"ĠpathFilter":9292,"ĠgetS":9293,"ToCheck":9294,"ethrough":9295,"OfWorkers":9296,"SEPARATOR":9297,"ĠUI":9298,"Expr":9299,"NodeList":9300,"ively":9301,"jsonFile":9302,"startOffset":9303,"minimatch":9304,"Ġtokenize":9305,"ĠtokenIndex":9306,"ularies":9307,"Precision":9308,"protoProps":9309,"Ġwere":9310,"ĠJust":9311,"ĠNodePath":9312,"cacheController":9313,"Ġgoverning":9314,"Thing":9315,"Positive":9316,"specifier":9317,"8080":9318,"ĠrunTests":9319,"ikethrough":9320,"Ġ'/'":9321,"dence":9322,"Ġfixture":9323,"Ġsubject":9324,"ADED":9325,"Ġ'\"'":9326,"254740":9327,"ĠAsyncScheduler":9328,"ĠXhr":9329,"ĠIterators":9330,"Ġaria":9331,"staticProps":9332,"initialParams":9333,"ĠmsPerHour":9334,"iconfig":9335,"IGH":9336,"Ġsections":9337,"([^\\":9338,"resourceQuery":9339,"ocabularies":9340,"Ġbigint":9341,"ĠUtf":9342,"msPerDay":9343,"realpathSync":9344,"Ġscreen":9345,"007199":9346,"ĠCurrently":9347,"Hints":9348,"Ġnanomatch":9349,"ĠâĢ¦":9350,"elliptic":9351,"25474099":9352,"00719925474099":9353,"27":9354,"?.":9355,"Ajax":9356,"EM":9357,"Gre":9358,"Mint":9359,"Rx":9360,"Success":9361,"Us":9362,"aar":9363,"ba":9364,"blog":9365,"cending":9366,"press":9367,"rn":9368,"Ġcookie":9369,"Ġol":9370,"Ġaren":9371,"elist":9372,"Inst":9373,"Insert":9374,"Ġdistributed":9375,"ĠSingle":9376,"Ġforms":9377,"ĠBe":9378,"usage":9379,"ĠIT":9380,"Ġequals":9381,"codec":9382,"ssions":9383,"ĠuseWallet":9384,"Ġ366":9385,"Ġattach":9386,"RECT":9387,"Ġuuid":9388,"Leap":9389,"128":9390,"signature":9391,"ĠpublicKey":9392,"modifier":9393,"ASK":9394,"Modal":9395,"ĠOperatorSubscriber":9396,"ĠisArrayLike":9397,"Ġlimitations":9398,"marks":9399,"Ġassum":9400,"region":9401,"bineAll":9402,"ĠUtils":9403,"subscribedFrame":9404,"Ġmeaning":9405,"ĠESCAPES":9406,"Ġplaylist":9407,"ĠtranslateLevel":9408,"ĠMulti":9409,"+)":9410,"+\\":9411,"-%":9412,"931":9413,"Av":9414,"BAR":9415,"CLA":9416,"Every":9417,"Hot":9418,"Lazy":9419,"PM":9420,"Qual":9421,"Suite":9422,"Vsd":9423,"WyJ":9424,"ZIP":9425,"]',":9426,"]),":9427,"aes":9428,"spe":9429,"}]":9430,"instruction":9431,"alic":9432,"unch":9433,"Ġfolder":9434,"Ġfraction":9435,"iso":9436,"isPropertyDescriptor":9437,"('`":9438,"ulfill":9439,"Ġpause":9440,"Ġprior":9441,"Ġok":9442,"Ġsymlink":9443,"Ġsuffix":9444,"lorem":9445,"Ġ\"<":9446,"toa":9447,"Realpath":9448,"Inf":9449,"ĠisPrototype":9450,"ĠisConstructor":9451,"ĠvaluePromise":9452,"Ġdeclar":9453,"Ġlar":9454,"rowl":9455,"ĠAt":9456,"ĠAUT":9457,"ĠAgent":9458,"izations":9459,"Contain":9460,"ĠgetNative":9461,"Ġbelow":9462,"Ġbehavior":9463,"Ġeffect":9464,"qualified":9465,"Ġnotation":9466,"Ġnotify":9467,"preset":9468,"ĠWARRAN":9469,"ĠEDIT":9470,"ĠEPSILON":9471,"forms":9472,"Ġwhiteness":9473,"ĠHSL":9474,"ORE":9475,"Ġyet":9476,"Ġyarn":9477,"ĠChange":9478,"ĠInst":9479,"ĠInstance":9480,"SyncIterator":9481,"csswg":9482,"chars":9483,"AnimationFrame":9484,"baseRest":9485,"startToken":9486,"startDigit":9487,"FromSyncIterator":9488,")(\\":9489,"FILE":9490,"Ġchecking":9491,"ForOwn":9492,"workspace":9493,"Substitution":9494,"Based":9495,"BaseType":9496,"ĠexportTypedArrayMethod":9497,"erous":9498,"timeEnd":9499,"ĠreplaceWith":9500,"OPN":9501,"aysInYear":9502,"ĠwritableDestroyed":9503,"mathias":9504,"ĠESC":9505,"compatible":9506,"scopeManager":9507,"Ġ')';<":9508,"ImportDependency":9509,"Digits":9510,"Fields":9511,"distinctUntil":9512,"Ġpostfix":9513,"aredArrayBuffer":9514,"Signature":9515,"timers":9516,"Ġfallbackhue":9517,"Services":9518,"Ġroles":9519,"ĠdefinePropertyModule":9520,"Attrs":9521,"UPPER":9522,"spawned":9523,"Screen":9524,"ArrowFunctionExpression":9525,"Ġproperly":9526,"emitErrorNT":9527,"GENERATE":9528,"aldron":9529,"ontsize":9530,"rwaldron":9531,"007199254740991":9532,"ĠWARRANTY":9533,"!!":9534,"'|'":9535,".\",<":9536,"72":9537,"CF":9538,"OLA":9539,"Switch":9540,"Schedule":9541,"aunch":9542,"eof":9543,"gray":9544,"Ġ{(":9545,"quiv":9546,"Ġcare":9547,"Ġcross":9548,"Ġcertain":9549,"./.":9550,"cedence":9551,"Ġpseudo":9552,"Ġsurrogate":9553,"Ġmat":9554,"Ġmac":9555,"Ġmemory":9556,"utimes":9557,"valueType":9558,"')]":9559,"Ġcontract":9560,"ĠCA":9561,"keyof":9562,"defaultValue":9563,"otiator":9564,"Ġstandard":9565,"Ġ$$":9566,"ĠnodeType":9567,"ĠOk":9568,"ĠOption":9569,"hasBasic":9570,"Ġ{})<":9571,"Ġprepend":9572,"ĠHead":9573,"INITY":9574,"Ġcomplet":9575,"most":9576,"Ġyellow":9577,"display":9578,"Ġconfigs":9579,"Ġ400":9580,"EventPattern":9581,"(?:\\.\\":9582,"Ascii":9583,"1024":9584,"Tagged":9585,"ĠCompute":9586,"Ġexpose":9587,"AsyncGenerator":9588,"ceptor":9589,"Shadow":9590,"Ġformatted":9591,"destination":9592,"bitwise":9593,"ILITY":9594,"warned":9595,"there":9596,"Ġmodes":9597,"Ġtslib":9598,"Signer":9599,"Ġdomain":9600,"WithoutProperties":9601,"ĠTextDecoder":9602,"materialize":9603,"Ġvisited":9604,"pxPos":9605,"Ġdstpath":9606,"delta":9607,"ĠWordlist":9608,"sender":9609,"ossy":9610,"}-[":9611,"OLANA":9612,"+(?:\\":9613,"51":9614,"62":9615,"69":9616,";',<":9617,">****************************************************************************":9618,"Gap":9619,"MASK":9620,"SOL":9621,"Warn":9622,"\\))?":9623,"center":9624,"dp":9625,"eper":9626,"flight":9627,"hub":9628,"help":9629,"optim":9630,"Ġrace":9631,"reachable":9632,"inator":9633,"arrow":9634,"lead":9635,"alty":9636,"sequence":9637,"road":9638,"Ġfig":9639,"isValue":9640,"isTTY":9641,"Ġcw":9642,"Ġcipher":9643,"('[":9644,"itor":9645,"strike":9646,"Ġsiblings":9647,"lorer":9648,"ilar":9649,"ateway":9650,"toNumber":9651,"toInteger":9652,"')}":9653,"Remove":9654,"Ġwarr":9655,"jsperf":9656,"Ġlang":9657,"respon":9658,"ĠMATCH":9659,"ĠMERCHANTAB":9660,"\")()":9661,"Concurrent":9662,"ĠsourceKeys":9663,"ĠgetKeys":9664,"Ġ214":9665,"ERO":9666,"Ġlock":9667,"OfSourceMap":9668,"ĠFree":9669,"ĠFlex":9670,"ayson":9671,"testing":9672,"ĠHas":9673,"Ġbasename":9674,"angerous":9675,"anty":9676,"FileComment":9677,"ĠInner":9678,"ATEST":9679,"IsConstructor":9680,"Ġsubnet":9681,"(?:(?:":9682,"ĠJo":9683,"eventNames":9684,"ĠĠĠĠĠĠĠĠĠĠĠĠĠĠĠĠĠĠĠĠĠĠ":9685,"Ġ52":9686,"bgRed":9687,"bgYellow":9688,"ĠYOU":9689,"ĠExt":9690,"Ġ'\\\\$&":9691,"Ġtags":9692,"Ġglobals":9693,"HasOwnProperty":9694,"ĠBaseNode":9695,"Ġ^=":9696,"ĠConfigure":9697,"Reduc":9698,"Ġredistribute":9699,"ĠisValidUTF":9700,"descr":9701,"DependenciesBlock":9702,"depth":9703,"AbsolutePath":9704,"Ġrenderer":9705,"Ġspecificity":9706,"Ġframeworks":9707,"ĠValidationStrategy":9708,"Ġcleanup":9709,"Ġdecrypt":9710,"POSIT":9711,"ĠBrowserslist":9712,"GHT":9713,"}|.":9714,"RelativePath":9715,"LOWER":9716,"ĠStartOfSourceMap":9717,"ENERATED":9718,"ĠLoad":9719,"Ġsuccessfully":9720,"Ġsomet":9721,"SpeciesCreate":9722,"CSSKeyframesRule":9723,"foundPath":9724,"BYTE":9725,"Terminal":9726,"([^)]*\\))?":9727,"Ġmanipulate":9728,"ĠITERATOR":9729,"+(?:\\([^)]*\\))?":9730,">*****************************************************************************":9731,"roadcast":9732,"Ġwarranty":9733,"ĠMERCHANTABILITY":9734,"*)":9735,":';<":9736,"JavaScript":9737,"MAN":9738,"OuterSubscriber":9739,"Pack":9740,"ROW":9741,"SemVer":9742,"cf":9743,"eed":9744,"vas":9745,"vendor":9746,"xs":9747,"ĠProperties":9748,"Ġheight":9749,"eries":9750,"ctal":9751,"Ġredefine":9752,"roken":9753,"Ġfire":9754,"Ġsys":9755,"ically":9756,"icons":9757,"Ġinclusive":9758,"('./')<":9759,"Ġtrust":9760,"Ġduplicate":9761,"ĠtoStr":9762,"ĠSafari":9763,"setter":9764,"area":9765,"thisArg":9766,"Ġ//<":9767,"ĠLazy":9768,"arrayLikeToArray":9769,"Constraint":9770,"lobber":9771,"ĠpathKey":9772,"ĠNumeric":9773,"ĠNATIVE":9774,"ĠFULL":9775,"sourcemap":9776,"INED":9777,"Engine":9778,"ĠInterface":9779,"Ġlists":9780,"108":9781,"Ġgeneric":9782,"Ġworking":9783,"ragments":9784,"Initialize":9785,"Ġoptionally":9786,"Classes":9787,"OUP":9788,"Ġreported":9789,"JsonRpc":9790,"ĠvalidateOptions":9791,"Extglob":9792,"ĠSourceMapGenerator":9793,"poral":9794,"ĠincludePrerelease":9795,"INFO":9796,"ALLY":9797,"ĠFormatter":9798,"ĠConnectableObservable":9799,"ĠSTRING":9800,"=\",":9801,"Bug":9802,"BLOCK":9803,"COD":9804,"HB":9805,"IObject":9806,"KIP":9807,"Ptr":9808,"Rle":9809,"Rate":9810,"Scheme":9811,"Writer":9812,"]],":9813,"_:":9814,"da":9815,"ds":9816,"dLCJ":9817,"eval":9818,"kZX":9819,"kZW":9820,"mYX":9821,"nake":9822,"qcy":9823,"yy":9824,"à¥":9825,"Ġra":9826,"ĠDefineOwnProperty":9827,"inverse":9828,"thers":9829,"algo":9830,"Ġreviver":9831,"dependent":9832,"eno":9833,"enqueue":9834,"Ġflow":9835,"Ġfragment":9836,"isDate":9837,"Ġcor":9838,"urlencoded":9839,"('=":9840,"Ġ']';<":9841,"anMi":9842,"Ġpointer":9843,"Ġsquare":9844,"Ġmint":9845,"Ġmagenta":9846,"utive":9847,"modulePath":9848,"extname":9849,"ĠisDigit":9850,"()`,":9851,"ĠtoMetadataKey":9852,"ĠSocket":9853,"jsdom":9854,"setTimeout":9855,"Ġ`\"":9856,"cov":9857,"Ġhide":9858,"Ġhoist":9859,"Ġgr":9860,"StringTransformer":9861,"ĠBit":9862,"ĠgetSymbols":9863,"ĠRow":9864,"pathExists":9865,"ĠGENERATED":9866,"callSite":9867,"ĠFA":9868,"ĠOFFSET":9869,"activ":9870,"ĠDon":9871,"ĠcodeFrame":9872,"ĠUINT":9873,"ĠUSING":9874,"ĠWAS":9875,"ebab":9876,"outside":9877,"ĠHSV":9878,"ĠHWB":9879,"umerator":9880,"ĠbaseRest":9881,"ĠarrayWithHoles":9882,"angle":9883,"Ġattached":9884,"Ġshadow":9885,"secutive":9886,"Ġxhr":9887,"DataView":9888,"ĠConcat":9889,"ĠresolveFrom":9890,"ĠclassExtractFieldDescriptor":9891,"disableGlob":9892,"tokenEnd":9893,"babelPlugin":9894,"Ġstarting":9895,"OMATIC":9896,"necessary":9897,"Ġexpanded":9898,"Ġdisk":9899,"Ġ${_":9900,"PRIMIT":9901,"ScopeBase":9902,"deepStrictEqual":9903,"bgWhite":9904,"bgGreen":9905,"bgCyan":9906,"bgMagenta":9907,"\":\"":9908,"ĠnonIterableRest":9909,"publicPath":9910,"ĠcopyBuffer":9911,"offsetAnd":9912,"EntryDependency":9913,"OUBLE":9914,"browserify":9915,"xAA":9916,"Struct":9917,"Ġ9007199254740991":9918,"Ġ')'<":9919,"Ġwalker":9920,"multiline":9921,"KEYWORD":9922,"ĠlocalName":9923,"ArgumentError":9924,"Ġspan":9925,"ĠREGENERATE":9926,"ĠxyzX":9927,"rafts":9928,"annick":9929,"identifierNode":9930,"grees":9931,"ĠScopeType":9932,"ĠextractValueFrom":9933,"guanMi":9934,"ERCASE":9935,"ĠupperScope":9936,"MetaSchema":9937,"ĠhsvS":9938,"Delay":9939,"bgBlue":9940,"Spy":9941,"CheckPrivateStaticFieldDescriptor":9942,"HaveNames":9943,"underline":9944,"gregateError":9945,"legal":9946,"ZGVmYX":9947,"SPEC":9948,"Ġlightness":9949,"ĠFromPropertyDescriptor":9950,"Reversed":9951,"GeneratedColumn":9952,"pbmRle":9953,"Msg":9954,"Issue":9955,"ĠDigital":9956,"metric":9957,"ĠVERSION":9958,"Ġlossy":9959,"humanize":9960,"ĠAUTOMATIC":9961,"kZXguanMi":9962,"offsetAndType":9963,"ZGVmYXVsd":9964,"pbmRleC":9965,"ĠAUTOMATICALLY":9966,"'ll":9967,")*":9968,"-'":9969,"/>.<":9970,"IST":9971,"MS":9972,"Normal":9973,"SCHE":9974,"^|":9975,"`:":9976,"direct":9977,"eam":9978,"fp":9979,"uz":9980,"arily":9981,"aly":9982,"alpha":9983,"Ġfamily":9984,"Ġ}))":9985,"Ġ',<":9986,"Ġthird":9987,"Ġsinon":9988,"Ġ\"\"":9989,"Ġ\"#":9990,"toEqual":9991,"Ġinverse":9992,"Ġdistribution":9993,"(\"/":9994,"ĠisEnumerable":9995,"ĠtoBuffer":9996,"Ġdestructure":9997,"Ġdetermin":9998,"ĠLO":9999,"Ġgets":10000,"ĠRoot":10001,"Ġ23":10002,"SED":10003,"ĠEnum":10004,"ĠhasFlag":10005,"ĠHmac":10006,"ĠstateOverride":10007,"Ġunderline":10008,"stricted":10009,"screen":10010,"Ġexpress":10011,"2028":10012,"Ġids":10013,"ĠEventInit":10014,"binedStream":10015,"dend":10016,"gnu":10017,"mergeMap":10018,"Ġfixed":10019,"Ġskipped":10020,"ĠswitchMap":10021,"ĠAsyncAction":10022,"PLACE":10023,"Ġtasks":10024,"Words":10025,"Maximum":10026,"brackets":10027,"Ġsystems":10028,"WebpackPlugin":10029,"Ġattrs":10030,"Ġ'*'":10031,"ĠEncode":10032,"ĠCommandOperation":10033,"ĠCollection":10034,"BuiltinModule":10035,"ClampedArray":10036,"(.*":10037,"AG":10038,"APP":10039,"BFS":10040,"Dynamic":10041,"Draft":10042,"Fallback":10043,"MM":10044,"SLint":10045,"XSw":10046,"Yaml":10047,"\\\"":10048,"]':":10049,"audit":10050,"bottom":10051,"cake":10052,"evaluate":10053,"fround":10054,"got":10055,"iet":10056,"ially":10057,"lite":10058,"rinter":10059,"simple":10060,"shebang":10061,"tb":10062,"xFB":10063,"{[":10064,"ĠArgumentOutOfRangeError":10065,"ctype":10066,"Ġreaddir":10067,"Ġfsevents":10068,"isType":10069,"isTag":10070,"('',":10071,"Ġtx":10072,"Ġ'|":10073,"loud":10074,"perations":10075,"serial":10076,"adjacent":10077,"getBinding":10078,"Included":10079,"Ġduring":10080,"ĠtoModel":10081,"ĠSer":10082,"Ġ18":10083,"ĠnewConfig":10084,"Ġstorage":10085,"coercible":10086,"Ġhmac":10087,"ĠĠĠĠĠĠĠĠĠĠĠĠĠĠĠĠĠĠĠĠĠĠĠĠĠĠĠ":10088,"ĠAg":10089,"ĠAtt":10090,"ModuleName":10091,"ĠsourceLen":10092,"ToUint":10093,"prefer":10094,"codeFrame":10095,"ĠWriter":10096,"ĠmoduleName":10097,"Expressions":10098,"ipass":10099,"Ġ{}));<":10100,"composite":10101,"ĠuseNative":10102,"Ġcomposite":10103,"validators":10104,"ĠBufferLayout":10105,"IsTTY":10106,"ByName":10107,"Verify":10108,"LEAST":10109,"Events":10110,"Trbl":10111,"AllKeys":10112,"ĠurlObj":10113,"ĠJosh":10114,"TestCase":10115,"Ġminimatch":10116,"CSSMediaRule":10117,"cessed":10118,"ĠSettings":10119,"svgo":10120,"Ġintegrity":10121,"ĠFunctionPrototype":10122,"TEAM":10123,"prevTime":10124,"ĠbuildGraph":10125,"ĠuserAgent":10126,"ferencer":10127,"(())<":10128,"\\.?|":10129,"Align":10130,"AttributeMock":10131,"LIST":10132,"anguages":10133,"NonNull":10134,"ĠconcatMap":10135,"Ġinspector":10136,"WorkerPool":10137,"produce":10138,"FlowFile":10139,"ĠhslS":10140,"frameRule":10141,"586":10142,"ĠpadTimeComponent":10143,"wrappedFn":10144,"IPv":10145,"bgBlack":10146,"ariaQuery":10147,"MiO":10148,"haveStream":10149,"Ġconfigured":10150,"channels":10151,"Ġalternative":10152,"GREATEST":10153,"OURCE":10154,"yperlink":10155,"SupportsRule":10156,"ĠderiveBFS":10157,"IGHT":10158,"XSwib":10159,"TEAMCITY":10160,"1000":10161,"364":10162,"400":10163,"CL":10164,"CLI":10165,"LIN":10166,"Round":10167,"Suffix":10168,"TEST":10169,"Tuple":10170,"WD":10171,"cookie":10172,"filing":10173,"gzip":10174,"jquery":10175,"pp":10176,"tab":10177,"zen":10178,"{\\":10179,"|[\\":10180,"ĠURI":10181,"leave":10182,"Ġrece":10183,"route":10184,"unesc":10185,"Ġ(--":10186,"('')<":10187,"ĠnBits":10188,"Ġsa":10189,"defs":10190,"Progress":10191,"getToken":10192,"()));<":10193,"ĠTim":10194,"ĠtoIndexedObject":10195,"email":10196,"Ġ`-":10197,"Ġunsupported":10198,"ĠMer":10199,"Ġhack":10200,"Contains":10201,"Converter":10202,"Ġbecom":10203,"Ġec":10204,"Ġrx":10205,"Ġexception":10206,"Ġses":10207,"ITIAL":10208,"Ġsetting":10209,"ĠArrayLike":10210,"110":10211,"Placeholder":10212,"writeHead":10213,"scan":10214,"trailing":10215,"Lock":10216,"ownSync":10217,"ĠNumbers":10218,"'](<":10219,"Ġcontents":10220,"modified":10221,"Ġstyled":10222,"Ġperiod":10223,"Ġtracker":10224,"MAP":10225,"ĠCSSStyleSheet":10226,"tasks":10227,"captures":10228,"COLORTERM":10229,"ðŁ¦Ħ":10230,"Ġmultiply":10231,"tls":10232,"(',');<":10233,"ĠAbstract":10234,"ĠCohen":10235,"Measure":10236,"ABCDEFGHIJKLMNOPQRSTUVWXYZ":10237,"'});<":10238,"748":10239,";)":10240,"Crypto":10241,"Direction":10242,"JdLCJ":10243,"KIT":10244,"Nv":10245,"Odd":10246,"Omit":10247,"WF":10248,"Windows":10249,"ai":10250,"bid":10251,"draft":10252,"gte":10253,"ius":10254,"ians":10255,"lte":10256,"nens":10257,"pick":10258,"passthrough":10259,"ris":10260,"sk":10261,"subject":10262,"wss":10263,"rec":10264,"registry":10265,"Ġreproduce":10266,"quick":10267,"isUn":10268,"isCustom":10269,"Ġcof":10270,"Ġpages":10271,">}];<":10272,"Ġ_:":10273,"Ġsibling":10274,"img":10275,"imals":10276,"perItem":10277,"toObject":10278,"trzy":10279,"Ġvarious":10280,"ĠisGlobal":10281,"ĠTree":10282,"ĠtoNumber":10283,"emplace":10284,"Deps":10285,"Ġ`^${":10286,"Ġ[_":10287,"Ġlf":10288,"endLine":10289,"Ġhaving":10290,"istic":10291,"('../../').":10292,"arrayIncludes":10293,"aggregate":10294,"ĠRpcProvider":10295,"ĠIan":10296,"ĠNavigator":10297,"ĠRepresent":10298,"errs":10299,"ĠFoo":10300,"ĠDirectory":10301,"ĠobjectToString":10302,"ĠGetV":10303,"ĠGetMethod":10304,"dentials":10305,"Combinator":10306,"ĠarrayMap":10307,"moving":10308,"Attempt":10309,"overwrite":10310,"StateModule":10311,"DataProperty":10312,"baseGet":10313,"FromPropertyDescriptor":10314,"Ġsubstitution":10315,"Ġ2017":10316,"ĠstartOffset":10317,"ĠaddToUnscopables":10318,"ĠcharAt":10319,"AsEsm":10320,"privateKey":10321,"ĠResponse":10322,"tensible":10323,"GetPrototypeOf":10324,"bynens":10325,"TestFound":10326,"Ġjasmine":10327,"Ġ512":10328,"](...":10329,"Ġmodification":10330,"Ġ10586":10331,"PerHour":10332,"findUp":10333,"Ġkeccak":10334,"argumentsList":10335,"domexception":10336,"ĠelementType":10337,"precision":10338,"Ġworkbox":10339,"destStat":10340,"bitLength":10341,"OPS":10342,"numOfWorkers":10343,"Extended":10344,"ĠdestStat":10345,"ĠbuildQueue":10346,"CreateElement":10347,"Ġpercent":10348,"ĠNewPlugin":10349,"Ġdecoded":10350,"\\\\.'":10351,"Ġ')\\\\.'":10352,"Ġwalking":10353,"factor":10354,"HasInstance":10355,"ĠAsyncFromSyncIterator":10356,"ĠXMLHttpRequest":10357,"Ġservice":10358,"RIGHT":10359,"ĠinnerResult":10360,"ĠfreeExports":10361,"NoTestFound":10362,"Ġmembership":10363,"Overrides":10364,"luZGV":10365,"avigate":10366,"Ġ'{{":10367,"ĠRedBN":10368,"ĠRedistribution":10369,"IVES":10370,"Ġspecialized":10371,"utesPerHour":10372,"}\\``":10373,"Ġshorthands":10374,"Shortener":10375,"}.${":10376,"Ġ14931":10377,"GROUP":10378,"remote":10379,"ĠValueType":10380,"lapse":10381,"ĠInternalStateModule":10382,"sPerMinute":10383,"ĠBazaar":10384,"Ġbalanced":10385,"LoadAsEsm":10386,"computeWorkerKey":10387,"Failure":10388,"getIteratorMethod":10389,"DevTool":10390,"onErrorResumeNext":10391,"Ġ'(?:\\\\.('":10392,"bserveOn":10393,"CURRY":10394,"ĠEthan":10395,"isLossy":10396,"Ġmaterials":10397,"ĠcssTexts":10398,"Usage":10399,"mathiasbynens":10400,")('":10401,"/,":10402,":':":10403,"Coder":10404,"GT":10405,"Icon":10406,"Low":10407,"Mon":10408,"PC":10409,"]][":10410,"braces":10411,"lazy":10412,"ny":10413,"uFF":10414,"}).":10415,"Ġ/<":10416,"Ġ].":10417,"ctive":10418,"urpose":10419,"('^":10420,"('\\\\":10421,"Ġthunk":10422,"ĠpLimit":10423,">}());<":10424,"rix":10425,"Ġauth":10426,"Ġinf":10427,"plus":10428,"getState":10429,"getPolyfill":10430,"Ġdrop":10431,"ĠisInside":10432,"ĠisExtend":10433,"ĠCoder":10434,"ĠMat":10435,"Standard":10436,"Exit":10437,"Stringify":10438,"forwarded":10439,"Conversion":10440,"ĠpathExt":10441,"ĠPost":10442,"ĠPerson":10443,"ĠgetCurrent":10444,"ĠRFC":10445,"ToObject":10446,"Ġeas":10447,"ĠNeg":10448,"ethere":10449,"Ġsequences":10450,"ĠOpaque":10451,"ixel":10452,"Ġthrown":10453,"addEventListener":10454,"ipient":10455,"Composite":10456,"ĠThese":10457,"acity":10458,"facebook":10459,"antiate":10460,"Ġattempts":10461,"override":10462,"baseAccount":10463,"coders":10464,"levelMapping":10465,"LED":10466,"Ġ2016":10467,"Accept":10468,"ilent":10469,"Ġupath":10470,"tinu":10471,"ĠStat":10472,"LOOSEPLAIN":10473,"ĠAnd":10474,"Ġrequests":10475,"'];":10476,"reporters":10477,"rgba":10478,"stylesheet":10479,"Ġinitialization":10480,"ĠGenerator":10481,"Ġdelimiter":10482,"Sorted":10483,"WithoutHoles":10484,"ĠTextEncoder":10485,"consumer":10486,"ĠIterableIterator":10487,"Ġ(/^[":10488,"ApiUrl":10489,"([].":10490,"FULLPLAIN":10491,"ĠpxData":10492,"ĠESCAPE":10493,"ĠTypedEvent":10494,"Ġprimary":10495,"Serializer":10496,"Exponential":10497,"redisClient":10498,"LeapYear":10499,"ĠFAIL":10500,"SCHEMA":10501,"Ġsession":10502,"ĠisExtendable":10503,"ethereum":10504,"'>":10505,"(+":10506,"(({":10507,"74":10508,">><":10509,"Fill":10510,"Nines":10511,"OOT":10512,"Shebang":10513,"Uid":10514,"Zhd":10515,"_(":10516,"aArray":10517,"duration":10518,"difference":10519,"game":10520,"iO":10521,"josh":10522,"ov":10523,"rink":10524,"sIm":10525,"ufe":10526,"wjs":10527,"oring":10528,"stian":10529,"ley":10530,"deg":10531,"deprecate":10532,"roiss":10533,"quent":10534,"isN":10535,"isNode":10536,"isStream":10537,"Ġturn":10538,"Ġthree":10539,"itelist":10540,"Ġnine":10541,"termine":10542,"toKey":10543,"ĠaAllow":10544,"athan":10545,"Ġweak":10546,"ĠisSymbol":10547,"ĠisBackground":10548,"opies":10549,"ĠtoQuantifier":10550,"ĠCroiss":10551,"Ġ180":10552,"iration":10553,"Ġdecomp":10554,"Ġunsafe":10555,"Ġhpack":10556,"ĠLinter":10557,"ĠLang":10558,"arraybuffer":10559,"ĠsourceSpace":10560,"ĠgetToken":10561,"__*/<":10562,"ĠObjectUnsubscribedError":10563,"Ġexponent":10564,"ĠnumberOffset":10565,"ĠFull":10566,"ĠFunc":10567,"ĠUUID":10568,"ordinary":10569,"sourceSpace":10570,"ĠoptsArg":10571,"ĠHelper":10572,"ICOLON":10573,"ĠarraySlice":10574,"fromSourceMap":10575,"Mappings":10576,"Ġatrule":10577,"Ġstatuses":10578,"]))<":10579,"tokenCount":10580,"ĠtargetSpace":10581,"PED":10582,"ĠvalidLen":10583,"OrCreate":10584,"LOT":10585,"105":10586,"Ġendian":10587,"Ġaccumulator":10588,"Locations":10589,"Subscribe":10590,"202":10591,"CSSSupportsRule":10592,"ĠsrcStat":10593,"postcssNormalize":10594,"specifiers":10595,"ĠruleTester":10596,"ĠYannick":10597,"ĠSubtag":10598,"Cloned":10599,"Ġoverridden":10600,"Ġ'/';<":10601,"TYPED":10602,"reduceRight":10603,"ĠcountZeros":10604,"SpaceAfter":10605,"ĠRequireObjectCoercible":10606,"warnings":10607,"ADD":10608,"9999":10609,"Disabled":10610,"manifest":10611,"ĠinnerFrom":10612,"ĠfreeModule":10613,"Ġspdy":10614,"]};${":10615,"ĠtrimResultTransformer":10616,"PTION":10617,"ĠPreserve":10618,"ĠJonathan":10619,"negated":10620,"Aliases":10621,"Https":10622,"watchman":10623,"Ġzipped":10624,"ĠbigA":10625,"ĠbigZ":10626,"ĠDisallow":10627,"SingleNodeList":10628,"ĠTemplateTag":10629,"ĠlittleA":10630,"ĠlittleZ":10631,"ĠlittleOffset":10632,"ĠChristian":10633,"ĠPlugin":10634,"InnerSubscriber":10635,"ĠBasicSourceMapConsumer":10636,"linux":10637,"ĠTimeout":10638,"Ġresolution":10639,"sPerDay":10640,"Decrypt":10641,"CSSKeyframeRule":10642,"Ġinherited":10643,"abcdefghijklmnopqrstuvwxyz":10644,"ĠSEMICOLON":10645,"ĠDescriptor":10646,"Phantom":10647,"ĠsplitToPatterns":10648,"sockjs":10649,"isElem":10650,"criminator":10651,"ĠhigherOrder":10652,"kZWZhd":10653,"Ġcorrespon":10654,"ĠaAllowDuplicates":10655,"ĠCroissant":10656,"kZWZhdWx":10657,"$%":10658,"(\\\\":10659,")({<":10660,",\\":10661,"-]+":10662,"06":10663,"2000":10664,"Did":10665,"Face":10666,"Flex":10667,"Many":10668,"Pause":10669,"RES":10670,"Route":10671,"Some":10672,"Spacing":10673,"_/":10674,"dns":10675,"greg":10676,"hide":10677,"iem":10678,"></":10679,"Ġrewrite":10680,"rozen":10681,"isSafeInteger":10682,"exhaust":10683,"odd":10684,"odies":10685,"Ġpassthrough":10686,"entic":10687,"edValue":10688,"Ġsm":10689,"omething":10690,"riend":10691,"Reg":10692,"Indic":10693,"ĠSOL":10694,"iring":10695,"Ġdev":10696,"ĠMonth":10697,"ĠAS":10698,"upgrade":10699,"\",\"":10700,"Ġ{}),":10701,"Ġwho":10702,"ialog":10703,"[]>;<":10704,"webSocket":10705,"ĠĠĠĠĠĠĠĠĠĠĠĠĠĠĠĠĠĠĠĠĠ":10706,"2029":10707,"Ġcollect":10708,"2013":10709,"spired":10710,"Special":10711,"IterableSpread":10712,"341":10713,"ĠdecodeURIComponent":10714,"ironments":10715,"ĠINF":10716,"walletconnect":10717,"('.').":10718,"cyc":10719,"Ġavail":10720,"ReadOnly":10721,"xyzX":10722,"DEFINED":10723,"POST":10724,"PassThrough":10725,"hotmail":10726,"ĠonErrorResumeNext":10727,"('|');<":10728,"cntr":10729,"stevens":10730,"ĠStevens":10731,"satisfies":10732,"Warnings":10733,"ĠRepresents":10734,"joshstevens":10735,"riendly":10736,")'<":10737,")(_":10738,"CURL":10739,"Half":10740,"IM":10741,"Lodash":10742,"MIX":10743,"Print":10744,"Rad":10745,"Send":10746,"Splice":10747,"Siblings":10748,"TTER":10749,"Tweet":10750,"WBuf":10751,"dar":10752,"drafts":10753,"fontsize":10754,"hack":10755,"hpack":10756,"jour":10757,"keccak":10758,"navigation":10759,"rng":10760,"sFor":10761,"tate":10762,"});":10763,"ĠKeys":10764,"inel":10765,"enumerationValues":10766,"isSymbol":10767,"isColor":10768,"ĠcamelCase":10769,"Ġtls":10770,"Ġ'..":10771,"Ġoctet":10772,"ectors":10773,"rice":10774,"moduleVisitor":10775,"('../').":10776,"getUTC":10777,"Insensitive":10778,"igr":10779,"ĠisL":10780,"ĠisBuffer":10781,"ĠisPadded":10782,"Ġtool":10783,"ĠtoMeta":10784,"ota":10785,"otify":10786,"Ġ!(_":10787,"Ġnewlines":10788,"Ġundocument":10789,"Ġasap":10790,"nodeify":10791,"Ġitalic":10792,"ModuleMetadata":10793,"ĠgetF":10794,"ĠgetNode":10795,"ĠRuntime":10796,"ĠRIGHT":10797,"?:<":10798,"preact":10799,"ĠFF":10800,"ĠForeground":10801,"ĠonRejected":10802,"ĠenumerationValues":10803,"ĠDave":10804,"ĠWatch":10805,"tester":10806,"createHTML":10807,"Ġresulting":10808,"CodeFactory":10809,"loglevel":10810,"ĠHandle":10811,"ĠparseString":10812,"ĠtestHelpers":10813,"ElementType":10814,"ĠbaseProperty":10815,"fromEntries":10816,"beep":10817,"IDUS":10818,"mitment":10819,"ĠmatchNode":10820,"Ġaddition":10821,"assignIn":10822,"Asset":10823,"Prevent":10824,"REQU":10825,"Iterators":10826,"ignored":10827,"Ġmaps":10828,"temp":10829,"double":10830,"Ġlesser":10831,"maxLength":10832,"Ġutility":10833,"Threads":10834,"2014":10835,"currentRequest":10836,"ĠVocabulary":10837,"cording":10838,"instanceof":10839,"INGS":10840,"ĠmakeDir":10841,"semicolon":10842,"Ġpartial":10843,"ĠTYPES":10844,"mergeAll":10845,"Ġcolored":10846,"copyWithin":10847,"ĠbgRed":10848,"ĠbgWhite":10849,"ĠbgGreen":10850,"ĠbgYellow":10851,"ĠbgCyan":10852,"ĠbgMagenta":10853,"ĠBased":10854,"ĠLongley":10855,"Ġconditional":10856,"Ġshape":10857,"JSXOpeningElement":10858,"UpdateChunk":10859,"TIME":10860,"ĠworkerFarm":10861,"PackageJson":10862,"Ġ\"\\\"":10863,"ĠShould":10864,"italics":10865,"OwnMetadataKeys":10866,"ĠordinaryGet":10867,"fontcolor":10868,"ĠReportBase":10869,"ĠLETTER":10870,"Stored":10871,"RandomValues":10872,"(?!\\":10873,"ĠDataView":10874,"MATCHER":10875,"Ġconcurrently":10876,"ĠECMAScript":10877,"ĠbgBlue":10878,"Legacy":10879,"cssnanoUtilGetArguments":10880,"('..');<":10881,"ĠShortcuts":10882,"ĠDotenv":10883,"OBJECT":10884,"quiva":10885,"Reducer":10886,"PRIMITIVES":10887,"Measurement":10888,"CURLY":10889,"Spliced":10890,"ĠtoMetaKey":10891,"Ġundocumented":10892,"ĠForegroundColor":10893,"/\\\\":10894,"91":10895,"AA":10896,"Bottom":10897,"Done":10898,"Hello":10899,"MVER":10900,"Music":10901,"PUB":10902,"SW":10903,"Synchronously":10904,"dan":10905,"ho":10906,"pid":10907,"prime":10908,"rm":10909,"reserved":10910,"onjour":10911,"ĠreIs":10912,"atio":10913,"isEnumerable":10914,"Ġ}];<":10915,"Ġ}]);<":10916,"pear":10917,"los":10918,"Remaining":10919,"getownproperty":10920,"Into":10921,"ĠisInteger":10922,"ĠTE":10923,"ĠTry":10924,"ĠCar":10925,"ĠSlow":10926,"Ġ`'":10927,"Ġdecoder":10928,"TypeName":10929,"intl":10930,"Exclude":10931,"StringRegexp":10932,"ĠBox":10933,"ĠgetIterator":10934,"mapVisit":10935,"SEMVER":10936,"indexes":10937,"sourceCode":10938,"INVALID":10939,"INARY":10940,"INITIAL":10941,"++,":10942,"ORRECT":10943,"ĠChrome":10944,"Ġ49":10945,"REAK":10946,"ĠĠĠĠĠĠĠĠĠĠĠĠĠĠĠĠĠĠĠĠĠĠĠĠ":10947,"trail":10948,"track":10949,"Boundary":10950,"eee":10951,"Matching":10952,"Ġ'@@":10953,"ĠoriginalLine":10954,"ĠoriginalColumn":10955,"ĠWebIDL":10956,"Iframe":10957,"dotted":10958,"]/.":10959,"innerFrom":10960,"Ġquotes":10961,"widthCodePoint":10962,"ĠDOMTokenList":10963,"TraceLimit":10964,"ĠgeneratedLine":10965,"ĠgeneratedColumn":10966,"FullwidthCodePoint":10967,"selected":10968,"ĠzipAll":10969,"ĠReadableStream":10970,"ConnectableObservable":10971,"ĠUtil":10972,"ReadableStream":10973,"Ġauthority":10974,"Ġfaster":10975,"ĠRawSourceMap":10976,"Ġ'^'":10977,"memoize":10978,"Ġkept":10979,"Ġradix":10980,"Ð¾Ð":10981,"WithoutPropertiesLoose":10982,"ABCDEFGHIJKLMNOPQRSTUVWXYZabcdefghijklmnopqrstuvwxyz":10983,"\"].":10984,"81":10985,"DB":10986,"FRA":10987,"FUN":10988,"Hub":10989,"HOL":10990,"Harmony":10991,"Sparse":10992,"Sources":10993,"YW":10994,"aac":10995,"candid":10996,"ges":10997,"iadd":10998,"spl":10999,"tics":11000,"redefine":11001,"restore":11002,"Ġrefactor":11003,"unsigned":11004,"uninstall":11005,"Ġfloat":11006,"Ġcycle":11007,"explicit":11008,"Ġspreadable":11009,"abe":11010,"toBase":11011,"riate":11012,"ableResponse":11013,"ObjectCaches":11014,"ĠdP":11015,"()',":11016,"ĠtoUtf":11017,"keyframes":11018,"ĠSc":11019,"ĠSUB":11020,"Ġdetermine":11021,"ĠMixin":11022,"Stdio":11023,"ĠnodeName":11024,"ĠPAT":11025,"ĠPrimitive":11026,"ĠRend":11027,"ĠGraph":11028,"Ġexhaust":11029,"Ġ/(\\":11030,"aking":11031,"ITOR":11032,"ĠOpen":11033,"ĠOuterSubscriber":11034,"Ġchanged":11035,"ĠDuplex":11036,"versionB":11037,"createSingleNodeList":11038,"fileName":11039,"Ġcompleted":11040,"FunctionDeclaration":11041,"Resize":11042,"written":11043,"submit":11044,"SetState":11045,"IsExtensible":11046,"ĠclassCheckPrivateStaticAccess":11047,"AnEvent":11048,"ĠJSDoc":11049,"srcStat":11050,"Streaming":11051,"jestMessage":11052,"TestName":11053,"Ġ};}<":11054,"ellman":11055,"Ġ\"@@":11056,"Characters":11057,"Refresh":11058,"propName":11059,"propriate":11060,"pendor":11061,"OffsetBuffer":11062,"Requests":11063,"Ġ655":11064,"DEV":11065,"PropValue":11066,"EntryPlugin":11067,"stackFrame":11068,"CHILD":11069,"ĠExclusive":11070,"namespaceURI":11071,"SpaceBefore":11072,"Ġ91":11073,"CISION":11074,"Ġinitialized":11075,"Minimum":11076,"OperatorSubscriber":11077,"failed":11078,"padEnd":11079,"deleteRule":11080,"Strip":11081,"ĠIteratorPrototype":11082,"2002":11083,"partials":11084,"Ġ\"'\");<":11085,"ĠpublishBehavior":11086,"ĠThree":11087,"INDOW":11088,"PRECISION":11089,"ĠTSESLint":11090,"Marks":11091,"Parenthesis":11092,"merged":11093,"msPerSecond":11094,"Ġaccepted":11095,"Ġmocha":11096,"ĠhwbB":11097,"ĠhwbW":11098,"relax":11099,"ĠBabelRegExp":11100,"iphers":11101,"Illegal":11102,"ĠNEWLINE":11103,"ĠScriptCov":11104,"FakeTimers":11105,"Ġmechanics":11106,"Ġancestors":11107,"Ġ214748":11108,"ĠBrowserslistError":11109,"alytics":11110,"isCustomProp":11111,"FaceRule":11112,"getUTCFullYear":11113,"jestMessageUtil":11114,")`":11115,"-+":11116,"100000000":11117,"<>":11118,"Batch":11119,"BREAK":11120,"Polling":11121,"Qg":11122,"closure":11123,"family":11124,"hook":11125,"kle":11126,"rfc":11127,"sb":11128,"vote":11129,"ĮĪ":11130,"onic":11131,"Ġfinish":11132,"isobject":11133,"isPlainObject":11134,"Ġpure":11135,"Ġpool":11136,"Ġsolana":11137,"Ġsvg":11138,"Ġbn":11139,"Ġbroken":11140,"ĠmLen":11141,"Ġmixed":11142,"apable":11143,"plate":11144,"Include":11145,"Ġdue":11146,"Ġdns":11147,"ĠisFile":11148,"ĠSender":11149,"stringLiteral":11150,"Ġhub":11151,"Ġgateway":11152,"Stuff":11153,"Defer":11154,"objectMode":11155,"Ġvisible":11156,"Ġloaded":11157,"cessarily":11158,"rigger":11159,"ĠdefaultOptions":11160,"ĠOng":11161,"ĠTypes":11162,"Ġ{}.":11163,"curr":11164,"Unsupported":11165,"ĠHtt":11166,"ĠHASH":11167,"Ġesc":11168,"dataPath":11169,"ĠarrayBuffer":11170,"quee":11171,"Ġsubtra":11172,"Ġalloc":11173,"ĠinterfaceName":11174,"Ġstarts":11175,"ForOf":11176,"ongs":11177,"Ġexpr":11178,"Ġbreaks":11179,"Upload":11180,"ownKeys":11181,"ilerplate":11182,"BlockStatement":11183,"ĠExample":11184,"ĠImage":11185,"Ġperform":11186,"rxSubscriber":11187,"Ġlocalstorage":11188,"ĠnormalizeOptions":11189,"Ġnegate":11190,"ĠtrimStart":11191,"ĠtrimEnd":11192,"pbkdf":11193,"insertBefore":11194,"ĠCompile":11195,"devnet":11196,")$/;<":11197,"crease":11198,"ffffffffffffffff":11199,"777":11200,"Ġterminator":11201,"Password":11202,"lapsed":11203,"Ġcombined":11204,"xxxxxx":11205,"Ġresolves":11206,"vanced":11207,"TimestampProvider":11208,"BigNumber":11209,"Ġenough":11210,"unnel":11211,"thereum":11212,"Ġsometimes":11213,"ĠEnumValue":11214,"$`)<":11215,".')<":11216,".'<":11217,"3000":11218,">]<":11219,"Back":11220,"Down":11221,"Ep":11222,"Gen":11223,"Hellman":11224,"Lmp":11225,"RGB":11226,"Team":11227,"UST":11228,"Using":11229,"_),":11230,"`{":11231,"camelcase":11232,"clobber":11233,"cipient":11234,"iw":11235,"ident":11236,"just":11237,"pascalCase":11238,"ring":11239,"so":11240,"vgo":11241,"xmodules":11242,"yd":11243,"ymodules":11244,"rew":11245,"insensitive":11246,"orange":11247,"sticky":11248,"details":11249,"uny":11250,"unlink":11251,"Ġfake":11252,"isClass":11253,"isImpl":11254,"ĠrequireObjectCoercible":11255,"itory":11256,"ingTeam":11257,"odin":11258,"Ġpragma":11259,"Ġopaque":11260,"asap":11261,">}${":11262,"chmod":11263,"olodin":11264,"ckton":11265,"getTypes":11266,"getProto":11267,"Ġwrong":11268,"Ġduration":11269,"ĠisScheduler":11270,"()];<":11271,"Arity":11272,"ĠSp":11273,"clamped":11274,"ĠstringReplaceAll":11275,"ĠstringEncaseCRLFWithFirstIndex":11276,"Ġltr":11277,"ĠMod":11278,"Ġhandled":11279,"Ġgu":11280,"Ġgit":11281,"uffman":11282,"defineGetter":11283,"ĠBU":11284,"ĠLINE":11285,"ĠLayout":11286,"ĠnodeModulesPaths":11287,"upath":11288,"ĠPO":11289,"ĠPubkey":11290,"ĠgetNext":11291,"ĠIly":11292,"Ġvnode":11293,"lyOne":11294,"ĠRemoves":11295,"prepublish":11296,"ĠFirefox":11297,"ĠOP":11298,"ĠOrig":11299,"ĠDaysInYear":11300,"Ġsetter":11301,"reading":11302,"ĠhasUnicode":11303,"CodeFrame":11304,"Ġcompressed":11305,"ĠbaseIteratee":11306,"parseOptions":11307,"pository":11308,"ĠmethodName":11309,"Sep":11310,"baseIteratee":11311,"styleName":11312,"listen":11313,"ĠcolorLevel":11314,"ĠChalkClass":11315,"ĠChalkFunction":11316,"Ġdeclared":11317,"ExpressionStatement":11318,"(/\\\\":11319,"rangeLimit":11320,"ignoreCase":11321,"ĠIsConstructor":11322,"trimmed":11323,"bool":11324,"Ġmodifier":11325,"ThisInitialized":11326,"ĠpropName":11327,"postcssSelector":11328,"ALI":11329,"bgColor":11330,"bgKeyword":11331,"bgHex":11332,"bgAnsi":11333,"ĠVolodin":11334,"ĠexpectedCalls":11335,"ĠAnymatch":11336,"Ġnonce":11337,"DEADED":11338,"WebAssembly":11339,"ĠallowArrayLike":11340,"ĠImmer":11341,"ĠreportWebVitals":11342,"]+$/":11343,"Ġfixes":11344,"Ġ97":11345,"Additional":11346,"ĠURLSearchParams":11347,"isObjectLike":11348,"ĠtransformFromAst":11349,"ĠdeleteAll":11350,"ĠBaseAccount":11351,"Track":11352,"dotdot":11353,"windows":11354,"ĠrsAstral":11355,"encingTeam":11356,"randomBytes":11357,"ieHellman":11358,"ĠINTERNAL":11359,"ĠclearTimeout":11360,"insertRule":11361,"variables":11362,"ensureObject":11363,"ĠemojiList":11364,"ĠemojiCache":11365,"ĠemojiEncoding":11366,"attrModified":11367,"Original":11368,"ĠAlgorithm":11369,"ĠmkdirpNative":11370,"nanomatch":11371,"Connected":11372,"ĠKeypair":11373,"Lookups":11374,"ĠlocateOptions":11375,"ypot":11376,"Loops":11377,"Ġdecorate":11378,"WithinYear":11379,"prettyFormat":11380,"MainTemplatePlugin":11381,"BoxRole":11382,"MonthFromTime":11383,"Ġblackness":11384,"ĠsubstringLength":11385,"Ġsimilar":11386,"Ġcompactable":11387,"DiffieHellman":11388,"ĠtoRegexRange":11389,"originModule":11390,"comingMessage":11391,"ĠMarker":11392,"Ġcompatible":11393,"Made":11394,"DISABLE":11395,"ĠbaseGetTag":11396,"ĠmkdirpManualSync":11397,"ĠclusterApiUrl":11398,"Ġblake":11399,"ĠBackgroundColor":11400,"ExactlyOne":11401,"ĠHexadecimal":11402,"Ġrecognizer":11403,"ĠPrints":11404,"removeAllListeners":11405,"ĠordinaryHasOwnMetadata":11406,"Derived":11407,"Grey":11408,"gotCR":11409,"ĠlfIndex":11410,"ĠFAILS":11411,"ĠSOLIDUS":11412,"quivalent":11413,"CURLYBRACKET":11414,"ĠRendition":11415,"ĠGraphic":11416,"MarksRange":11417,"LmpzI":11418,"ĠIlya":11419,"postcssSelectorParser":11420,"/',":11421,"07":11422,"08":11423,"300":11424,"El":11425,"Hooks":11426,"Mo":11427,"Mismatch":11428,"WARN":11429,"]\\\\":11430,"bH":11431,"bos":11432,"sass":11433,"||":11434,"Ñĭ":11435,"Ġ./":11436,"Ġet":11437,"restricted":11438,"routes":11439,"unref":11440,"isor":11441,"isub":11442,"isEqual":11443,"Ġ'=":11444,"Ġ'//":11445,"Ġ')<":11446,"ceed":11447,"Ġsig":11448,"Ġsilent":11449,"chuk":11450,"olume":11451,"Reason":11452,"Ġdash":11453,"ĠisIdentifier":11454,"ĠisNegative":11455,"ĠTJ":11456,"ĠCount":11457,"ĠStr":11458,"ĠStri":11459,"clamp":11460,"Ġdeprecation":11461,"intain":11462,"ĠLEN":11463,"ToE":11464,"ĠItem":11465,"Ġever":11466,"imeType":11467,"bserved":11468,"URLSearchParams":11469,"sham":11470,"aychuk":11471,"lowaychuk":11472,"Codes":11473,"Unable":11474,"logy":11475,"ĠparseUrl":11476,"Ġtested":11477,"classStatic":11478,"ĠInv":11479,"wordlist":11480,"ĠPromises":11481,"coll":11482,"LETE":11483,"EventHandler":11484,"Ġmatchers":11485,"\"])(":11486,"refer":11487,"ĠpropertyName":11488,"Ġerrno":11489,"Ġdescriptors":11490,"Ġdispose":11491,"Ġknown":11492,"ĠMapped":11493,"OPEN":11494,"Ġallowing":11495,"Ġ'/'<":11496,"NUMBER":11497,"Ġusers":11498,"ĠUniversal":11499,"ĠconcatAll":11500,"ĠINVALID":11501,"fullwidth":11502,"negate":11503,"zipAll":11504,"commands":11505,"ĠCompare":11506,"COMMENT":11507,"PREC":11508,"cursively":11509,"CodePoints":11510,"ĠNotification":11511,"mkdirsSync":11512,"ĠHolowaychuk":11513,"Decimal":11514,"Ġbackslashes":11515,"Dots":11516,"WaterMark":11517,"enchmark":11518,"Ġweekdays":11519,"ĠTimeoutError":11520,"igrations":11521,"54":11522,":/":11523,";[":11524,">*":11525,">/":11526,"?${<":11527,"Auth":11528,"Bad":11529,"CamelCase":11530,"DER":11531,"Em":11532,"EOL":11533,"Hoist":11534,"It":11535,"MR":11536,"Ren":11537,"TEvent":11538,"Ug":11539,"WITH":11540,"XHR":11541,"bnum":11542,"lsi":11543,"mix":11544,"octet":11545,"sig":11546,"site":11547,"spreadable":11548,"siblings":11549,"tx":11550,"|${":11551,"Â§":11552,"ĠQ":11553,"reserve":11554,"erase":11555,"ensible":11556,"isMixin":11557,"pet":11558,"strNode":11559,"Ġpayer":11560,"==':<":11561,">}();<":11562,">}|${":11563,"Ġbnum":11564,"icss":11565,"Ġaudit":11566,"Remote":11567,"extensible":11568,"Ġdraft":11569,"ĠisFor":11570,"ĠisNative":11571,"ĠisDirectory":11572,"ĠTable":11573,"ĠtoHex":11574,"ĠtoComparator":11575,"ĠSome":11576,"Declarations":11577,"Ġannotation":11578,"Ġ`)?)?":11579,"Ġunnecessary":11580,"ĠMOD":11581,"Ġgtr":11582,"ĠAuth":11583,"ĠAwait":11584,"StringIndex":11585,"ĠgetSymbol":11586,"ToLength":11587,"ĠNesting":11588,"Ġrsort":11589,"maps":11590,"Ġcomm":11591,"ĠObserver":11592,"hasAttributeNS":11593,"ĠWith":11594,"ĠWindow":11595,"curly":11596,"Uniq":11597,"ElementById":11598,"Resolution":11599,"anted":11600,"Ġshuffle":11601,"FileDeprecation":11602,"ĠmethodNames":11603,"1155":11604,"question":11605,"STATE":11606,"Sets":11607,"ATIN":11608,"IsNaN":11609,"ĠresolveUrl":11610,"notes":11611,"Ġsubscription":11612,"Ġalt":11613,"[\"@@":11614,"ĠPromiseLike":11615,"opening":11616,"tokenTypes":11617,"SSIGN":11618,"Ġlisted":11619,"ĠvalidRange":11620,"jestSnapshot":11621,"contexts":11622,"LOAD":11623,"Prelude":11624,"workers":11625,"Ġapplic":11626,"ĠCombinator":11627,"GetMethod":11628,"ĠĠĠĠĠĠĠĠĠĠĠĠĠĠĠĠĠĠĠĠĠĠĠĠĠĠ":11629,"Ġminver":11630,"Ġlinebreak":11631,"ĠcompareLoose":11632,"MessageListeners":11633,"PROPER":11634,"EndIndex":11635,"Assertions":11636,"ĠEventInterface":11637,"ĠbrowserSync":11638,"Ġtypescript":11639,"Colon":11640,"cases":11641,"ĠRangeCov":11642,"Ġemitted":11643,"Ġdescs":11644,"ĠWebAssembly":11645,"]*(${":11646,"ĠpkgDir":11647,"ĠcustomMessageListeners":11648,"ExportMap":11649,"ocker":11650,"Ġ'\"');<":11651,"Constant":11652,"ĠAsyncGenerator":11653,"]})?${<":11654,"Ġ'.';<":11655,"NonInteractive":11656,"]}|":11657,"]}$`)<":11658,"Redu":11659,"Ġinterval":11660,"âĢĿ":11661,"COMPARATOR":11662,"luZ":11663,"Ġ'{'":11664,"FoundError":11665,"xDC":11666,"Browserslist":11667,"Ġimage":11668,"LocalName":11669,"Ġyields":11670,"lookupGetter":11671,"Ġdifference":11672,"switchMap":11673,"terminate":11674,"xef":11675,"Replacements":11676,"ECMAScript":11677,"labL":11678,"([]);<":11679,"ĠlchC":11680,"ĠlchH":11681,"ĠRawSource":11682,"Ġexactly":11683,"Ġspawned":11684,"]}?`":11685,"]}?`)<":11686,"]}?${<":11687,"vanceStringIndex":11688,"ybi":11689,"ĠMyers":11690,"iphy":11691,"ĠSEMVER":11692,"Wei":11693,"toRegexRange":11694,"ĠrcompareIdentifiers":11695,"mocks":11696,"|\\\\*`)<":11697,"FontFaceRule":11698,"relaxZeros":11699,"Ġ214748364":11700,"ĠtoComparators":11701,"Ġ`)?)?`)<":11702,"$)/":11703,")]);<":11704,"<|":11705,"Calc":11706,"EE":11707,"Fs":11708,"IME":11709,"Must":11710,"Sent":11711,"SER":11712,"]]);<":11713,"giphy":11714,"handlers":11715,"iol":11716,"nod":11717,"sa":11718,"templates":11719,"xffff":11720,"yes":11721,"refs":11722,"onChange":11723,"sessions":11724,"unset":11725,"isScheduler":11726,"Ġcamel":11727,"Ġ(-":11728,"(':":11729,"ports":11730,"ulk":11731,"aming":11732,"Ġblob":11733,"Ġbump":11734,"Ġmock":11735,"Ġmilliseconds":11736,"omep":11737,"functionName":11738,"added":11739,"getFirst":11740,"proved":11741,"ĠisType":11742,"(){":11743,"Ġtools":11744,"Ġstrictly":11745,"ĠSwitch":11746,"otal":11747,"Deprecated":11748,"concurrent":11749,"Ġ[])":11750,"Ġgive":11751,"Continue":11752,"ĠgetPackage":11753,"Ġ/\\\\(":11754,"ĠRegular":11755,"pred":11756,"anceled":11757,"ĠWrapper":11758,"shuffle":11759,"\\\\\\\\/":11760,"jobs":11761,"ĠbaseUrl":11762,"vide":11763,"classExtractFieldDescriptor":11764,"Ġatob":11765,"ĠChain":11766,"ĠInvoke":11767,"Iteration":11768,"bufferSize":11769,"])*":11770,"PEMD":11771,"Ġreader":11772,"refresh":11773,"Ġappear":11774,"Ġacross":11775,"123456789":11776,"SharedArrayBuffer":11777,"ĠEventSource":11778,"ĠignoreCase":11779,"ĠHTMLCollection":11780,"TextDecoder":11781,"xAB":11782,"ĠWebKit":11783,"multiple":11784,"CustomError":11785,"Ġcommands":11786,"partition":11787,"ĠcharCodeAt":11788,"ĠSETT":11789,"iteratee":11790,"consistent":11791,"uDFFF":11792,"ĠsystemProgram":11793,"754":11794,"952":11795,"classPrivateMethod":11796,"Ġinjecting":11797,"ĠMatches":11798,"ĠcreateErrorClass":11799,"IFY":11800,"cycle":11801,"ĠTEMP":11802,"classStaticPrivate":11803,"omepage":11804,"\"'":11805,")');<":11806,">]":11807,"Alice":11808,"ABaseURL":11809,"Bl":11810,"Branch":11811,"COU":11812,"Drain":11813,"Kill":11814,"Pat":11815,"Patch":11816,"Pnp":11817,"Src":11818,"Wrong":11819,"XMLHttpRequest":11820,"Yallist":11821,"free":11822,"gines":11823,"hind":11824,"iobject":11825,"jasmine":11826,"menu":11827,"tZX":11828,"udd":11829,"xFFFF":11830,"into":11831,"incorrect":11832,"orns":11833,"deeper":11834,"ional":11835,"seen":11836,"enumer":11837,"isNull":11838,"isTrailingSurrogate":11839,"isLeadingSurrogate":11840,"urr":11841,"Ġ}());<":11842,"Ġ'='":11843,"Ġ*=":11844,"cell":11845,"asn":11846,"amma":11847,"enticate":11848,"etime":11849,"tery":11850,"imul":11851,"percent":11852,"Ġmxn":11853,"icorns":11854,"getLast":11855,"getDecls":11856,"Ġdim":11857,"Ġduplicates":11858,"ĠisDescriptor":11859,"ĠisPromise":11860,"ĠisStrict":11861,"ĠisAccessor":11862,"ĠtoIObject":11863,"jsDefault":11864,"assoc":11865,"Ġdebounce":11866,"ĠstringToArray":11867,"ĠMethod":11868,"defineproperty":11869,"ĠobjToString":11870,"ĠButton":11871,"ĠLA":11872,"ĠLink":11873,"ĠLann":11874,"ĠLATIN":11875,"ModuleDependency":11876,"ĠgetData":11877,"ToPattern":11878,"__';<":11879,"mapper":11880,"Ġsen":11881,"preprocessor":11882,"ĠOut":11883,"ĠDraft":11884,"ĠWalker":11885,"shams":11886,"addHelper":11887,"createList":11888,"Ġprepare":11889,"IndexMap":11890,"bugs":11891,"ĠglobalNames":11892,"dispose":11893,"ĠIns":11894,"ityState":11895,"Parsing":11896,"ATER":11897,"assertLiteral":11898,"Ġ2010":11899,"TokenAccount":11900,"Ġlogs":11901,"Ġvalidating":11902,"ValidSchema":11903,"Ġreading":11904,"Ascending":11905,"ĠmaxLength":11906,"Ġerrs":11907,"ĠJest":11908,"Ġmapper":11909,"ĠIsGenericDescriptor":11910,"concatAll":11911,"cacheKeys":11912,"ĠlastNode":11913,"what":11914,"BeABaseURL":11915,"RequestOptions":11916,"ĠYarn":11917,"Ġrouter":11918,"bitOffset":11919,"ĠcopyURL":11920,"generateUid":11921,"lds":11922,"Points":11923,"ideo":11924,"AccountNumber":11925,"AndColumns":11926,"warnFileDeprecation":11927,"transformation":11928,"'.`);<":11929,"ĠSourceNode":11930,"Prefixed":11931,"Ġexeca":11932,"Alloc":11933,"ĠXRANGE":11934,"ĠSection":11935,"Ġassigned":11936,"DocumentRule":11937,"ĠbitLength":11938,"Ġ128":11939,"Ġqmark":11940,"InternalState":11941,"ĠlabL":11942,"ĠListCache":11943,"guess":11944,"ĠAlign":11945,"spdyState":11946,"Hours":11947,"ĠDiscrError":11948,"lookupSetter":11949,"OptionsMapperFactory":11950,"ĠflattenIntoArray":11951,"ĠKeyPair":11952,"]|[":11953,"Ġ(/^(":11954,"ĠPRERELEASE":11955,"Ġproducers":11956,"Brackets":11957,"zzzz":11958,"NEWLINE":11959,"Ġpopulate":11960,"ButtonRole":11961,"Double":11962,"visited":11963,"elems":11964,"ĠconsumeRaw":11965,"highlight":11966,"legated":11967,"ĠEmittery":11968,"compressor":11969,"'])('":11970,"Ġpreprocessors":11971,"truncate":11972,"Ġceil":11973,"Available":11974,"ĠmanipulateOptions":11975,"Ġhoisted":11976,"ĠConcatSource":11977,"Ġtooling":11978,"ALIAS":11979,"ĠAwaitValue":11980,"ĠLannister":11981,"(++":11982,"*(\\":11983,"53":11984,"71":11985,">)<":11986,"BLA":11987,"Cb":11988,"Candid":11989,"EA":11990,"GU":11991,"Scalar":11992,"TRI":11993,"Typography":11994,"USE":11995,"UUID":11996,"br":11997,"ef":11998,"gulp":11999,"navigator":12000,"rr":12001,"xb":12002,"yte":12003,"}));<":12004,"}|\\":12005,"ĠUR":12006,"ĠIndexed":12007,"inject":12008,"arity":12009,"attach":12010,"isServer":12011,"ifer":12012,"ceeded":12013,"entr":12014,"Ġsing":12015,"imits":12016,"Ġborder":12017,"Ġstrong":12018,"umod":12019,"toISOString":12020,"Ġajax":12021,"Ġincorrect":12022,"Ġincrease":12023,"ĠisASCII":12024,"Ġ|<":12025,"ĠSY":12026,"iry":12027,"ĠtypeAnnotation":12028,"Ġhr":12029,"))(":12030,"alsy":12031,"ĠAL":12032,"ĠsourceRoot":12033,"Ġev":12034,"ĠNext":12035,"akra":12036,"Ġengine":12037,"Ġchoices":12038,"ĠsetTo":12039,"testPath":12040,"ĠhasUn":12041,"Unsigned":12042,"Unhandled":12043,"ibyte":12044,"Ġcompiled":12045,"moval":12046,"Attrib":12047,"[]}<":12048,"ĠerrorObject":12049,"questions":12050,"Annot":12051,"Ġadding":12052,"Ordered":12053,"(/%":12054,"GetOwnProperty":12055,"conditional":12056,"MessageDeflate":12057,"Ġwhenever":12058,"commonjs":12059,"expanded":12060,"ĠSubscribable":12061,"stops":12062,"999":12063,"ĠmergeAll":12064,"Dispatch":12065,"Filters":12066,"dotenv":12067,"iece":12068,"Ġpassing":12069,"Parsed":12070,"product":12071,"Overflow":12072,"Globals":12073,"sections":12074,"Ġeverything":12075,"Ġstylesheet":12076,"Ġentities":12077,"capturing":12078,"Ġcaptures":12079,"Scroll":12080,"inflate":12081,"ĠClientSession":12082,"Ġ'ðŁĮĪ":12083,"ĠCharacter":12084,"issuecomment":12085,"Ġpersist":12086,"ĠEndError":12087,"ĠInnerSubscriber":12088,"('=');<":12089,"ĠStats":12090,")';<":12091,")')<":12092,"96":12093,"=%":12094,"CLE":12095,"Cause":12096,"DF":12097,"Fresh":12098,"HJ":12099,"Ip":12100,"Microtask":12101,"PU":12102,"Qk":12103,"ZmF":12104,"aug":12105,"aled":12106,"bign":12107,"between":12108,"dark":12109,"gOPN":12110,"hypot":12111,"myst":12112,"nyc":12113,"normalized":12114,"observer":12115,"pense":12116,"safer":12117,"uish":12118,"xType":12119,"xtensible":12120,"Ð¸":12121,"Ñĥ":12122,"Ġquestion":12123,"alph":12124,"Ġreinitialize":12125,"delegate":12126,"sel":12127,"unexpected":12128,"Ġfall":12129,"Ġfround":12130,"Ġfinished":12131,"Ġcyclic":12132,"Ġ'â":12133,"loss":12134,"abv":12135,"Regular":12136,"Instrument":12137,"ĠisData":12138,"ĠisStream":12139,"ĠisPrimitive":12140,"interactive":12141,"ĠCast":12142,"Ġconstant":12143,"Ġ`/":12144,"parsing":12145,"ĠstringLength":12146,"Ġlifecycle":12147,"Ġuniq":12148,"Ġunevaluated":12149,"ĠMill":12150,"ĠMember":12151,"ĠMigrations":12152,"comparison":12153,"endant":12154,"Ġhorizontal":12155,"Mapped":12156,"uspense":12157,"ĠPattern":12158,"ĠPrompt":12159,"ĠRoute":12160,"ToBytes":12161,"Ġeos":12162,"errorMessage":12163,"isextensible":12164,"ocused":12165,"lying":12166,"Ġexceptions":12167,"callExpression":12168,"prep":12169,"prepend":12170,"ĠdefaultIs":12171,"ĠOld":12172,"SEVENT":12173,"URLPrefix":12174,"ĠWarning":12175,"ĠESD":12176,"[],<":12177,"Ġshallow":12178,"Ġxml":12179,"globalNames":12180,"baseState":12181,"Ġsubtags":12182,"minipass":12183,"Ġ47":12184,"locations":12185,"CaseFirst":12186,"FILEN":12187,"Ġ\"./_":12188,"foobar":12189,"streamify":12190,"Ġready":12191,"Configurable":12192,"PrecacheController":12193,"ĠendLine":12194,"ĠendOffset":12195,"PromiseThen":12196,"Ġacorn":12197,"ContextDependency":12198,"Ġlens":12199,"Ġupgrade":12200,"ĠminLen":12201,"CSSFontFaceRule":12202,"ĠKarma":12203,"Than":12204,"Dirs":12205,"Scopes":12206,"expr":12207,"sentinel":12208,"Ġretv":12209,"ParserHelpers":12210,"ĠfindMade":12211,"DEX":12212,"signals":12213,"LiteralPropValue":12214,"stackTraceLimit":12215,"ĠescapePos":12216,"firstArg":12217,"Ġ!!(":12218,"Ġreporters":12219,"Encodings":12220,"Strong":12221,"ĠdefFunc":12222,"\\.|\\":12223,"ĠNewThing":12224,"PrefixOf":12225,"Ġ')*))":12226,"ĠnativeKeys":12227,"within":12228,"ĠIteratorNext":12229,"ĠIteratorComplete":12230,")/);<":12231,"DocumentType":12232,"ĠDoctrine":12233,"Ġraws":12234,"Ġstripped":12235,"PARE":12236,"Ġredundant":12237,"sameObjectCaches":12238,"ĠflatMap":12239,"294":12240,"ĠCallExpression":12241,"ĠrelativePath":12242,"tapAsync":12243,"Entities":12244,"serializeContext":12245,"hsla":12246,"ĠJsonp":12247,"grey":12248,"PackageData":12249,"ĠScopeManager":12250,"Ġslashes":12251,"ferredName":12252,"LUSH":12253,"Connector":12254,"ffffffffffff":12255,"WebpackError":12256,"Apple":12257,"ĠcompletionThunk":12258,"ĠAnySchemaObject":12259,"Ġexecutable":12260,"CommaLists":12261,"ĠFindPosition":12262,"ĠWorkboxError":12263,"ĠWorkboxPlugin":12264,"ĠLoader":12265,"ĠInitial":12266,"completionThunk":12267,"NamedDeclaration":12268,"icatea":12269,"infra":12270,"('|')":12271,"ĠValidateAndApplyPropertyDescriptor":12272,"CachedLookups":12273,"Ġbundle":12274,"FILTER":12275,"DOCUMENT":12276,"Ġ'(?:\\\\.'":12277,"findLastIndex":12278,"cannotBeABaseURL":12279,"asteMap":12280,"bundle":12281,"lifyJS":12282,"RlZmF":12283,"Ġaffecting":12284,"Ġassuming":12285,"EveryProp":12286,"ĠsymlinkType":12287,"SubstitutionTransformer":12288,"BasedTransport":12289,"ietf":12290,"FlowFileAnnotation":12291,"unycode":12292,"mysticatea":12293,"ĠreinitializeURL":12294,"ĠESDoc":12295,"Ġ')*))'<":12296,"\"><":12297,"'.<":12298,"(.":12299,"/^":12300,"234":12301,"52":12302,"84":12303,"964":12304,"Active":12305,"Bo":12306,"Bom":12307,"Dif":12308,"Docker":12309,"Pipe":12310,"QW":12311,"SUB":12312,"]();<":12313,"]>;<":12314,"filer":12315,"fraction":12316,"gwin":12317,"rames":12318,"sys":12319,"uck":12320,"real":12321,"ern":12322,"ordered":12323,"Ġrecursively":12324,"sequent":12325,"Ġfp":12326,"isIterable":12327,"Ġcover":12328,"Ġ(/*":12329,"Ġ})(":12330,"Ġ').":12331,"Ġ''),":12332,"Ġthrottle":12333,"Ġsdk":12334,"permessage":12335,"abi":12336,"uted":12337,"tool":12338,"toThrow":12339,"')),":12340,"transaction":12341,"appen":12342,"getRandomValues":12343,"Ġworld":12344,"Ġdangerous":12345,"ops":12346,"ĠTra":12347,"ĠSch":12348,"ĠSim":12349,"ĠSem":12350,"Ġ`[${":12351,"Ġlodash":12352,"ĠMenu":12353,"Ġhappen":12354,"009":12355,"ĠLodash":12356,"ĠgetPath":12357,"Ġkeylen":12358,"ĠFast":12359,"ĠOne":12360,"ĠDER":12361,"Explorer":12362,"Unique":12363,"ĠHow":12364,"ĠarrayIncludes":12365,"fromPromise":12366,"Resolved":12367,"1100":12368,"heading":12369,"tokenize":12370,"tection":12371,"ĠreadPkg":12372,"Ġapplied":12373,"Ġdebugger":12374,"AsyncScheduler":12375,"Baseline":12376,"Ġ/^[\\":12377,"}`,":12378,"Ġworkaround":12379,"ĠwebSocket":12380,"Ġimportant":12381,"Ġrgba":12382,"presentation":12383,"Ġ'\\\\\\\\":12384,"getOwnPropertyDescriptors":12385,"ChildProcess":12386,"Ġdefs":12387,"GlobalScope":12388,"ĠAsyncSubject":12389,"ĠXML":12390,"cloneDeep":12391,"ĠDecor":12392,"000000000000":12393,"ĠPrevious":12394,"ĠbindCallback":12395,"ESCA":12396,"Ġbool":12397,"ĠpublishLast":12398,"cygwin":12399,"ĠAccept":12400,"ĠproxyReq":12401,"ĠJsonObject":12402,"WordArray":12403,"WebSocketSubject":12404,"Ġhostname":12405,"ĠHasher":12406,"ĠSignature":12407,"appendChild":12408,"toml":12409,"}:${":12410,"polling":12411,"ĠProgramResult":12412,"lined":12413,"delimiter":12414,"]+/,":12415,"gifs":12416,"Ġcancelable":12417,"ĠmkdirsSync":12418,"dumb":12419,"ĠrevLookup":12420,"ĠFUNCTION":12421,"Quality":12422,"Ġmatrix":12423,"skips":12424,"}\\``);<":12425,"uFFFD":12426,"PUBKEY":12427,"ĠHttp":12428,"ĠLENGTH":12429,"nodoc":12430,"COUNT":12431,"(/*":12432,"*)?":12433,"*+?":12434,"10101":12435,";':":12436,">():":12437,"AW":12438,"EI":12439,"Fore":12440,"Framer":12441,"FLUSH":12442,"GIN":12443,"Sample":12444,"Tri":12445,"Vz":12446,"WINDOW":12447,"XJ":12448,"]'":12449,"_));<":12450,"aj":12451,"dates":12452,"gist":12453,"iag":12454,"mur":12455,"mount":12456,"mish":12457,"nip":12458,"pnp":12459,"sap":12460,"vnode":12461,"vector":12462,"Ø±":12463,"áģ":12464,"ĠQU":12465,"ĠErr":12466,"removes":12467,"relevant":12468,"algorithms":12469,"Ġreload":12470,"existent":12471,"Ġ}]<":12472,"anit":12473,"Ġnil":12474,"assets":12475,"../../":12476,"ĠbusyTries":12477,"Ġmim":12478,"Ġinexact":12479,"Removed":12480,"getTag":12481,"getElementById":12482,"ObjectCreate":12483,"ĠisLast":12484,"ĠisEscaped":12485,"ĠtoPropertyKey":12486,"ĠtoExec":12487,"ĠtoCopy":12488,"Device":12489,"PropertyName":12490,"Ġlint":12491,"resses":12492,"defineSetter":12493,"ĠgetTime":12494,"Ġbeaut":12495,"osm":12496,"ĠRom":12497,"ENOT":12498,"ĠNative":12499,"KeyType":12500,"ĠnumberOf":12501,"Ġnotification":12502,"ĠDom":12503,"ĠDistributed":12504,"ĠUser":12505,"ĠmoduleDirectory":12506,"readPkg":12507,"dirs":12508,"ĠhasToStringTag":12509,"ternally":12510,"Unicorn":12511,"Commitment":12512,"ĠThere":12513,"ĠarraySpeciesCreate":12514,"Ġ360":12515,"IndexString":12516,"parseColor":12517,"classCheckPrivateStaticAccess":12518,"helperCreate":12519,"ListMap":12520,"Severity":12521,"ĠxType":12522,"ĠsuperPropBase":12523,"Equality":12524,"IsStrict":12525,"ledge":12526,"Ġconstructors":12527,"minimum":12528,"EventPayload":12529,"ĠstartTime":12530,"messageParent":12531,"ĠlogFn":12532,"ĠcheckPrivateRedeclaration":12533,"jestRegex":12534,"ĠreadWasm":12535,"ConfigPath":12536,"Present":12537,"Preserve":12538,"Previous":12539,"Ġappropriate":12540,"ĠmapCache":12541,"childNodes":12542,"ĠprivateSet":12543,"maximum":12544,"Ġminify":12545,"CSSStyleSheet":12546,"CSSDocumentRule":12547,"ccurrence":12548,"ĠpromiseCapability":12549,"escapeInvalid":12550,"ĠEventImpl":12551,"DELETE":12552,"SDIR":12553,"Variation":12554,"ĠcopyObject":12555,"generatedCode":12556,"GeneratorFn":12557,"veryParam":12558,"ĠparsedURL":12559,"ReturnType":12560,"schemaCode":12561,"spans":12562,"modify":12563,"Iterables":12564,"Ġregexps":12565,"ĠoriginalSource":12566,"ABEL":12567,"TypedArrayConstructor":12568,"ĠinvalidNode":12569,"Ġglobby":12570,"Alpha":12571,"ĠsingleQuote":12572,"Ġreferenced":12573,"searchString":12574,"stripComments":12575,"ĠIteratorValue":12576,"ĠIteratorStep":12577,"ĠrsOpt":12578,"Ġcreation":12579,"áĢº":12580,"ĠsearchElement":12581,"Expectation":12582,"Ġsorting":12583,"walker":12584,"walkDecls":12585,"ParseInt":12586,"Implementation":12587,"DecoderBuffer":12588,"tapable":12589,"deploy":12590,"treeAdapter":12591,"reshold":12592,"publishLast":12593,"publishBehavior":12594,"alwaysValidSchema":12595,"italic":12596,"absoluteStart":12597,"Ġ'../../../__":12598,"Fixture":12599,"segment":12600,"NOTE":12601,"ĠPlus":12602,"realpathErr":12603,"ĠdoubleQuote":12604,"ĠCOMPARE":12605,"Ġdecorated":12606,"Ġobservables":12607,"ĠisWsl":12608,"WasmUrl":12609,"NumericIndexString":12610,"ĠDOCUMENT":12611,"maybeResize":12612,"JsData":12613,"SVAR":12614,"ĠAjaxBasedTransport":12615,"Ġinstructions":12616,"AssignmentExpression":12617,"ĠcomputeWorkerKey":12618,"ĠFirstType":12619,"PercentEncode":12620,"onFulfilled":12621,"ĠiterableToArrayLimit":12622,"additionalKeys":12623,"HiddenLevel":12624,"EncodedLen":12625,"Ġparentheses":12626,"tostringtag":12627,"EnumValue":12628,"ĠFlowTypeAnnotation":12629,"onicalNumericIndexString":12630,";;\\":12631,"ĠarrayMethodIsStrict":12632,"XRANGEPLAINLOOSE":12633,"ĠLEFTPARENTHESIS":12634,"DIFF":12635,"ĠIPv":12636,"ĠKEYS":12637,"ĠgetMapData":12638,"FeaturesPlugin":12639,"Ġtape":12640,"MARKER":12641,"ĠcreateIteratorProxy":12642,"Ġlarge":12643,"flightCommitment":12644,"ConstraintValidation":12645,"nakeCase":12646,"ebabCase":12647,"LINK":12648,"GTLT":12649,"$%&":12650,"ĠMonthFromTime":12651,"candidate":12652,"UglifyJS":12653,"ĠInspector":12654,"generateUidIdentifier":12655,"QkFB":12656,"bignumber":12657,"ĠMemberExpression":12658,"EISDIR":12659,"mishoo":12660,"nippet":12661,"jestRegexUtil":12662,".$":12663,"212":12664,"93":12665,"?!":12666,"Aware":12667,"CES":12668,"Esc":12669,"Folder":12670,"Lat":12671,"Other":12672,"SP":12673,"Scan":12674,"Total":12675,"Wp":12676,"[(":12677,"\\`,":12678,"copyright":12679,"dz":12680,"lc":12681,"qmark":12682,"rate":12683,"}><":12684,"ÑĪ":12685,"Ġed":12686,"Ġ{'":12687,"unstable":12688,"Ġfew":12689,"isarray":12690,"Ġpast":12691,"Ġpixel":12692,"asons":12693,"amps":12694,"amports":12695,"chakra":12696,"Ġbottom":12697,"Ġbetter":12698,"Ġmargin":12699,"utny":12700,"Ġ\"!":12701,"Ġ\">":12702,"Ġincrement":12703,"verbose":12704,"IncomingMessage":12705,"idiem":12706,"ĠisError":12707,"ĠisBlock":12708,"ĠSince":12709,"ĠSIGN":12710,"ĠSomething":12711,"estamps":12712,"oted":12713,"setState":12714,"Ġunshift":12715,"Ġunpipe":12716,"ĠME":12717,"ĠMar":12718,"commit":12719,"endian":12720,"Ġhour":12721,"Ġhold":12722,"Ġgray":12723,")),<":12724,"Ġrespect":12725,"indutny":12726,"ĠgetString":12727,"ĠNULL":12728,"Ġvectors":12729,"mapTo":12730,"...<":12731,"ĠdefaultEncoding":12732,"ancell":12733,"ĠfileName":12734,"\\\\+":12735,"fromRed":12736,"bindCallback":12737,"redS":12738,"throwArgumentError":12739,"ĠChild":12740,"IsFinite":12741,"Ġ443":12742,"Ġunderlying":12743,"Ġnecessarily":12744,"temporal":12745,"Ġabsent":12746,"ĠNodeList":12747,"AsyncAction":12748,"203":12749,"SchemaUtilErrorObject":12750,"MessageType":12751,"Thread":12752,"2011":12753,"Shim":12754,"There":12755,"Ġ65":12756,"Ġreplacements":12757,"otherDir":12758,"ĠpublicPath":12759,"Ġjshint":12760,"validateOptions":12761,"encodeURIComponent":12762,"Ġ'\"')<":12763,"Ġloading":12764,"250":12765,"searchElement":12766,"Ġinvoc":12767,"Timestamps":12768,"ĠbyteLength":12769,"Ġquick":12770,"SubscriptionLog":12771,"framer":12772,"Ġfully":12773,"porary":12774,"Ġoperating":12775,"********************************************************************":12776,"Ġissues":12777,"absolutePath":12778,"Ġselected":12779,"ConnectionProvider":12780,"translate":12781,"(?:\\{":12782,"blake":12783,"finalized":12784,"SameLine":12785,"Ġmutable":12786,"Ġexecutor":12787,"ĠsourcesContent":12788,"JECTED":12789,"Ġserialized":12790,"ĠOverrides":12791,"Ġoptimizations":12792,"ĠDescription":12793,"Domain":12794,"(?=\\":12795,"tdz":12796,"ĠdistinctUntilChanged":12797,"ulfillment":12798,"ĠExtend":12799,"CODES":12800,"Ġgranted":12801,"ĠScroll":12802,"StuffOff":12803,"Ġhrtime":12804,"WpOpt":12805,"\"==":12806,"&#":12807,"470":12808,"4294":12809,"94":12810,">`;<":12811,"Directories":12812,"EMPTY":12813,"JB":12814,"Javascript":12815,"MATION":12816,"Pop":12817,"Passes":12818,"Prime":12819,"RU":12820,"Sl":12821,"Song":12822,"Svgo":12823,"TODO":12824,"Templates":12825,"Vocabularies":12826,"WEB":12827,"aque":12828,"ball":12829,"dXJ":12830,"kill":12831,"kJoin":12832,"ology":12833,"parens":12834,"rbu":12835,"rzy":12836,"sConfig":12837,"sinh":12838,"spacing":12839,"uer":12840,"uFE":12841,"vable":12842,"wm":12843,"}}`,<":12844,"ÑĢ":12845,"regExp":12846,"orsh":12847,"Ġrejection":12848,"deem":12849,"seud":12850,"isExport":12851,"isRejected":12852,"('!');<":12853,"anks":12854,"strikethrough":12855,"ifies":12856,"Ġpriv":12857,"Ġpoll":12858,"Ġscheme":12859,"chdir":12860,"chrome":12861,"choices":12862,"ably":12863,"Ġ\");<":12864,"Ġ\"..":12865,"icle":12866,"toReversed":12867,"Regenerator":12868,"getAttributeValue":12869,"Ġwatcher":12870,"ĠisDate":12871,"ĠisCore":12872,"opaque":12873,"ĠtoISOString":12874,"ĠCatch":12875,"ĠSPE":12876,"setAttributeNS":12877,"Ġ[];":12878,"parallel":12879,"Ġstuff":12880,"Ġlame":12881,"resol":12882,"Ġhit":12883,"Extra":12884,"ĠBB":12885,"upload":12886,"ĠgetFile":12887,"ĠgetWord":12888,"ĠnullStream":12889,"ĠROT":12890,"Ġeval":12891,"Ġrng":12892,"ĠRecursive":12893,"Ġsel":12894,"Ġordered":12895,"ĠFS":12896,"ĠFarm":12897,"ĠOffset":12898,"iesConstructor":12899,"ĠsetProto":12900,"ĠUsing":12901,"cade":12902,"shell":12903,"nextSibling":12904,"ĠEV":12905,"createServer":12906,"ĠhasProp":12907,"ĠhasEveryProp":12908,"Ġexts":12909,"ĠHack":12910,"ĠtestCode":12911,"ĠcreateWritable":12912,"acorn":12913,"declared":12914,"Improved":12915,"NumberValue":12916,"AtLevel":12917,"Ġshell":12918,"ĠerrorEx":12919,"redit":12920,"ĠglobalConfig":12921,"locks":12922,"discriminator":12923,"ĠInfo":12924,"DataSize":12925,"onlyFirst":12926,"ArgArray":12927,"IsIn":12928,"basedir":12929,"baseUrl":12930,"Ġalpha":12931,"Ġ45":12932,"ĠstartLine":12933,"applyOptions":12934,"Ġpositions":12935,"ĠurlUtils":12936,"assignment":12937,"Forage":12938,"ĠJayson":12939,"Subtag":12940,"ĠĠĠĠĠĠĠĠĠĠĠĠĠĠĠĠĠĠĠĠ":12941,"Ġ53":12942,"CSSValue":12943,"ĠKat":12944,"Upgrade":12945,"tagged":12946,"127":12947,"1234":12948,"ScopeManager":12949,">/*#__":12950,"ĠenumerableOnly":12951,"ĠwrapWidth":12952,"ĠState":12953,"Scripts":12954,"ĠfindIndex":12955,"ĠSets":12956,"ANGE":12957,"SelectorList":12958,"Whitelist":12959,"ULES":12960,"ĠFunctionCov":12961,"ĠmetaSchema":12962,"stackoverflow":12963,"Specs":12964,"ĠIframe":12965,"Intersection":12966,"ILL":12967,"ĠcountNines":12968,"AndMap":12969,"Ġ'\\\\')":12970,"Modes":12971,"ĠglobTasks":12972,"GlobalConfig":12973,"Imported":12974,"Ġ'\"'.":12975,"ĠReactDOM":12976,"Ġ'</":12977,"latest":12978,"populate":12979,"ĠUnary":12980,"Ġassignments":12981,"ĠrawMode":12982,"Ġcreator":12983,"Ġspies":12984,"Ġencrypt":12985,"ParseError":12986,"Signals":12987,"IGIT":12988,"DOMString":12989,"Ġsegments":12990,"ĠhslH":12991,"wsapi":12992,"Ġwidths":12993,"PlainFunction":12994,"ucs":12995,"haviorSubject":12996,"subscribeOn":12997,"ĠSchedulerAction":12998,"decrypt":12999,"ĠClassName":13000,"INFINITY":13001,"Ġcallsites":13002,"ĠMinutesPerHour":13003,"Multiple":13004,"toBeThe":13005,"WebpackOptions":13006,"misc":13007,"LatestFrom":13008,"HandleType":13009,"Ġdecimal":13010,"AnyProp":13011,"Ġindentation":13012,"Ġ\"/\".":13013,"ĠSecondsPerMinute":13014,"ĠReporter":13015,"Ġseparators":13016,"Ġhighlight":13017,"ĠdeltaBytes":13018,"cdn":13019,"Ġmemoize":13020,"ĠActionStore":13021,"ĠoriginModule":13022,"Ġ]))<":13023,"istanbuljs":13024,"Ġcompressor":13025,"ĠpxPos":13026,"ĠTransactionRequest":13027,"ĠValidateFunction":13028,"gitignore":13029,"CharacterClass":13030,"Ġ\"\\\\\".":13031,"isNativeReflectConstruct":13032,"('.')[":13033,"GridGap":13034,"Weight":13035,"ĠElementNode":13036,"Ġ---------------------------------<":13037,"ĠStackFrame":13038,"Product":13039,"ĠJSXElementMock":13040,"ĠdistinctUntilKeyChanged":13041,"Ġtarball":13042,"ĠspecifierValue":13043,"Handshake":13044,"Ġ\"+\".":13045,"ĠBehaviorSubject":13046,"Containing":13047,"POSITION":13048,"activate":13049,"ĠinspectorLog":13050,"DevToolModule":13051,"ĠSlowBuffer":13052,"StdioStream":13053,"guessHandleType":13054,"anitize":13055,"Ġbeautifier":13056,"osmiconfig":13057,"ENOTDIR":13058,"*********************************************************************<":13059,"rbuckton":13060,"uFEFF":13061,"seudos":13062,"ĠcreateWritableStdioStream":13063,"-][":13064,">`":13065,"?=?":13066,"AF":13067,"Fork":13068,"Handled":13069,"IRE":13070,"LY":13071,"Note":13072,"Normalized":13073,"]():":13074,"]|\\":13075,"bsemver":13076,"cise":13077,"fun":13078,"gm":13079,"history":13080,"mg":13081,"mtime":13082,"pi":13083,"ĠDefine":13084,"invert":13085,"rock":13086,"isH":13087,"isPromise":13088,"isBlock":13089,"isWin":13090,"external":13091,"('{":13092,"peated":13093,"Ġtakes":13094,"Ġtuple":13095,"Ġ'));<":13096,"Ġ']',<":13097,"Ġ'((?:":13098,"Ġna":13099,"Ġpotential":13100,"Ġbtoa":13101,"Ġbodies":13102,"omic":13103,"Refs":13104,"Rewrite":13105,"serv":13106,"plural":13107,"getText":13108,"Ġwave":13109,"InBuffer":13110,"profile":13111,"ĠfromEntries":13112,"ĠSto":13113,"Ġ10000":13114,"Ġgas":13115,"prototypeof":13116,"ĠAxios":13117,"ĠBOM":13118,"ĠLook":13119,"derscore":13120,"ĠPack":13121,"ĠgetProgram":13122,"ĠRouter":13123,"maWx":13124,"Ġvirtual":13125,"Ġvote":13126,"ĠUSE":13127,"feb":13128,"ĠWEB":13129,"ĠobjectTypes":13130,"Ġpresets":13131,"ĠHe":13132,"ĠHyphen":13133,"\\\\])/":13134,"MappingList":13135,"lineNumber":13136,"overlay":13137,"116":13138,"ĠInvalid":13139,"ĠxRange":13140,"Ġalgorithms":13141,"165":13142,"packages":13143,"Ġtokenizing":13144,"Ġ43":13145,"Streams":13146,"OrPromise":13147,"=\"./":13148,"both":13149,"Ġdisposable":13150,"tagName":13151,"cesses":13152,"Ġemits":13153,"ĠProto":13154,">)?=?":13155,"apture":13156,"Quotes":13157,"ULFIL":13158,"Ġ'/')":13159,"]+?":13160,"Compress":13161,")?(\\":13162,"ĠNewline":13163,"Ġhandles":13164,"ĠAdding":13165,"memberExpression":13166,"Ġinterfaces":13167,"ĠWorkspace":13168,"ReportError":13169,"ĠCallOverrides":13170,"installed":13171,"ĠExpressions":13172,".*\"":13173,"Seconds":13174,"imalistic":13175,"ĠgetOwnPropertyNames":13176,"uDC":13177,"mission":13178,"Ġtraversed":13179,"coerced":13180,"eql":13181,"Ġexecuting":13182,")(?:[":13183,"Ġidentifer":13184,"ĠMappingList":13185,"DisplayName":13186,"UPD":13187,"PROTOTYPE":13188,"ĠfmtShort":13189,"ĠfmtLong":13190,"Ġcrash":13191,"ĠASCII":13192,"Ġsubtraction":13193,"<|>)?=?":13194,"ĠTEMPLATE":13195,"Candidates":13196,"Ġ'((?:<|>)?=?":13197,"ULFILLED":13198,"!@":13199,"\"|\"":13200,")(\"":13201,"-####":13202,"78":13203,"97":13204,"=<":13205,"Cast":13206,"Card":13207,"CALL":13208,"Counter":13209,"Dim":13210,"Div":13211,"Duplicate":13212,"ET":13213,"Li":13214,"MOV":13215,"Mixins":13216,"Ret":13217,"Todo":13218,"UJB":13219,"Zlib":13220,"Zyb":13221,"[/\\\\":13222,"ael":13223,"avid":13224,"bird":13225,"biJ":13226,"buffered":13227,"eping":13228,"fA":13229,"fan":13230,"fall":13231,"focused":13232,"gpo":13233,"hance":13234,"iann":13235,"iTerm":13236,"lcy":13237,"little":13238,"mjs":13239,"mascript":13240,"nBits":13241,"tIC":13242,"tick":13243,"todo":13244,"wes":13245,"xterm":13246,"Õ§":13247,"ĠAr":13248,"Ġqual":13249,"Ġ....":13250,"rev":13251,"reco":13252,"rebase":13253,"replacer":13254,"ongest":13255,"inc":13256,"iness":13257,"instrument":13258,"orig":13259,"aries":13260,"Ġreachable":13261,"unary":13262,"isPrototype":13263,"isArguments":13264,"analyze":13265,"Ġns":13266,"Ġnth":13267,"Ġplease":13268,"Ġoctal":13269,"Ġsuggest":13270,"Ġsnapshot":13271,"Ġsynchronous":13272,"imist":13273,"Ġbaz":13274,"ĠbLines":13275,"Ġmon":13276,"Ġmicromatch":13277,"abyl":13278,"Ġ\"\",<":13279,"Ġ\"(\".":13280,"Ġaxios":13281,"Ġwriter":13282,"Inverter":13283,"Ġday":13284,"interpolate":13285,"Ġtowards":13286,"ĠtoCharacterClass":13287,"/***********************************************************************<":13288,"ĠCancel":13289,"ĠSort":13290,"Ġdepend":13291,"TypeScope":13292,"Ġunless":13293,"Ġuninstalled":13294,"ĠMost":13295,"istered":13296,"leton":13297,"ĠfalseFunc":13298,"ymmetric":13299,"ĠLAST":13300,"ModuleNotFoundError":13301,"arrayBuffer":13302,"Consecutive":13303,"ĠPrivate":13304,"ĠPEND":13305,"ĠPascalCase":13306,"ĠgetTag":13307,"ĠgetTypes":13308,"ĠgetHolder":13309,"ToPromise":13310,"ToExponential":13311,"ToBottom":13312,"KeyPair":13313,"ĠdataView":13314,"Ġrsv":13315,"Ġvector":13316,"Ġnote":13317,"ĠnotPred":13318,"Ġseparated":13319,"ĠonCustomMessage":13320,"ecmascript":13321,"ĠsetState":13322,"ĠsetParser":13323,"Ġsettle":13324,"ONE":13325,"ĠnameOr":13326,"ipv":13327,"ClassList":13328,"ClassDeclaration":13329,"ifiable":13330,"complet":13331,"ĠuseMemo":13332,"ĠcreateProperty":13333,"ĠcreateAgent":13334,"ICT":13335,"fromDirectory":13336,"mover":13337,"Ġfuncs":13338,"Ġsham":13339,"ObservableInput":13340,"positives":13341,"ListCache":13342,"Ġfactories":13343,"secp":13344,"Ġxs":13345,"ĠConverter":13346,"....<":13347,"baseProperty":13348,"baseForOwn":13349,"FromConstructor":13350,"Ġsubpatterns":13351,"minimalistic":13352,"1680":13353,"ĠPromiseValue":13354,"Ġ40":13355,"ĠnextTick":13356,"SSA":13357,"RAD":13358,"datepart":13359,"Ġchecksum":13360,"OrArgArray":13361,"Asap":13362,"1032":13363,"ruleName":13364,"PromiseCapability":13365,"ĠJTD":13366,"tcbiJ":13367,"dog":13368,"GetIntrinsic":13369,"ĠshouldThrow":13370,"concatMap":13371,"BaseWorkerPool":13372,"maxLen":13373,"ĠrangeToPattern":13374,"Ġupload":13375,"Ġupvote":13376,"Ġcomparefn":13377,">/*:":13378,"yntact":13379,"ĠonlyNegative":13380,"duplic":13381,"MathOperation":13382,"escapes":13383,"OnSameLine":13384,"ĠVAL":13385,"ĠVisitor":13386,"ĠoutputBits":13387,"apted":13388,"Fns":13389,"ĠFunctions":13390,"Lowercase":13391,"ĠstaticFrom":13392,"Ġoverflow":13393,"ĠescapeStringRegexp":13394,"ĠUsedNames":13395,"feross":13396,"firstLoc":13397,"ĠcloseParentheses":13398,"ĠopenParentheses":13399,"BigInts":13400,"ChunkGroup":13401,"Ġfilters":13402,"stopped":13403,"\\.(":13404,"Ġdecls":13405,"copyProps":13406,"Ġ'\"')":13407,"QueryList":13408,"Ġhereby":13409,"println":13410,"ĠValidates":13411,"}}'":13412,"UNZIP":13413,"Ġintersection":13414,"WorkerThreads":13415,"muted":13416,"Ġ\"'\".":13417,"........<":13418,"fields":13419,"insertCloned":13420,"DOMException":13421,"negatives":13422,"TISSA":13423,"Ġpacked":13424,"QUF":13425,"Readonly":13426,"ĠpadZeros":13427,"breakLoc":13428,"Ġimmutable":13429,"HostRule":13430,"JztcbiJ":13431,"HtmlChar":13432,"FooBar":13433,"Snapshots":13434,"ShortString":13435,"dfQ":13436,"toBeAtLevel":13437,"Ġprotocols":13438,"Ġcalculator":13439,"Accessible":13440,"terminal":13441,"FilenameHelpers":13442,"Ġ\"-\".":13443,"ĠWhitespaces":13444,"NECT":13445,"ĠCOMMA":13446,"ĠwhitespacePos":13447,"rsvp":13448,"sected":13449,"Ġ\".\".":13450,"ĠQueueScheduler":13451,"ĠcastSlice":13452,"Ġdivisor":13453,")(?:\\":13454,"ĠContractFactory":13455,"rooms":13456,"Ġtemporary":13457,"ĠWebSocketSubject":13458,"metic":13459,"imationFrameScheduler":13460,"ĠAbort":13461,"VariablesFrom":13462,"Ġ\":\".":13463,"Ġconditionally":13464,"ĠcomputeHmac":13465,"ĠmonthsShort":13466,"Ġcompatibility":13467,"Ġbundled":13468,"Ġ/(?:^|":13469,"commaLists":13470,"LCJmaWx":13471,"EnvironmentVariablesFrom":13472,"DOTS":13473,"ĠsplitToRanges":13474,"excludedItems":13475,"withoutIndex":13476,"AwaitValue":13477,"gopd":13478,"ĠHoursPerDay":13479,"bfj":13480,"Ġ\",\".":13481,"ĠLiteralUnion":13482,"ĠshareReplay":13483,"Ġ\")\".":13484,"Ġ\"*\".":13485,"VISITOR":13486,"CodePathSegment":13487,"ĠExtractor":13488,"MANTISSA":13489,"babelPluginPolyfill":13490,"ĠAggregateError":13491,"NvdXJ":13492,"baseGetTag":13493,"hacks":13494,"hoek":13495,"abeled":13496,"ĠgetNextToken":13497,"ĠSETTINGS":13498,"ccurrenceOrder":13499,"ĠMETA":13500,"IsInNvdXJ":13501,"ĠKatz":13502,"UJBQW":13503,"ianness":13504,"lcyI":13505,"wesome":13506,"Ġ........":13507,"abylon":13508,"ĠsetParserName":13509,"ĠnameOrNode":13510,"JztcbiJdfQ":13511,"LCJmaWxl":13512,"IsInNvdXJj":13513,"#<":13514,"#[":13515,"$)":13516,"(~":13517,")[^\\\\":13518,"721":13519,"BO":13520,"CRE":13521,"Mill":13522,"Operations":13523,"Prefer":13524,"Roun":13525,"Will":13526,"ade":13527,"dash":13528,"eh":13529,"follow":13530,"gol":13531,"had":13532,"irock":13533,"success":13534,"uke":13535,"zlo":13536,"Ð¹":13537,"Ġest":13538,"removed":13539,"stand":13540,"thet":13541,"ality":13542,"aliases":13543,"Ġreli":13544,"Ġremainder":13545,"roid":13546,"unded":13547,"isSupported":13548,"isOdd":13549,"Ġclock":13550,"Ġcenter":13551,"peed":13552,"//<":13553,"Ġschemas":13554,"Ġmiddle":13555,"Ġinfer":13556,"idar":13557,"ĠisFullwidthCodePoint":13558,"gether":13559,"ĠCB":13560,"ĠSing":13561,"Ġansw":13562,"ĠMA":13563,"ĠMIME":13564,")))<":13565,"Example":13566,"ĠAssign":13567,"arrayWithoutHoles":13568,"ĠPh":13569,"ĠIERC":13570,"ĠNina":13571,"ĠFULFILLED":13572,"ĠDOUBLE":13573,"ĠEE":13574,"INDEX":13575,"[].":13576,"[]>":13577,"overrides":13578,"Chalk":13579,"subscription":13580,"secretKey":13581,"Ġsubtype":13582,"propertyName":13583,"ĠeventNames":13584,"ĠcolorConvert":13585,"okidar":13586,"OrValue":13587,"Ġwriting":13588,"Ġwritten":13589,"AsyncIterable":13590,"ĠminVersion":13591,"Throttle":13592,"Ġkill":13593,"Generate":13594,"wrapNative":13595,"Ġemail":13596,"0009":13597,"superPropBase":13598,"Ġrouted":13599,"ANY":13600,"SDK":13601,"ifications":13602,"execa":13603,"TextContent":13604,"TextEncoder":13605,"ĠastUtil":13606,"ipemd":13607,"gistration":13608,"ynthet":13609,"ĠafterGlob":13610,"TimeoutError":13611,"Ġ'-')":13612,")?'":13613,"]*?":13614,"Ġ(''":13615,"checkPrivateRedeclaration":13616,"Minimatch":13617,"Disposed":13618,"ĠnativeMin":13619,")/.":13620,"ĠDec":13621,"Ġqueries":13622,"ĠREJECTED":13623,"Outgoing":13624,"ĠINTER":13625,"rejected":13626,"Ġclients":13627,"Ġimmediate":13628,"subscribeToResult":13629,"Ġentire":13630,"Ġpreviously":13631,"transparent":13632,"Cipheriv":13633,"Ġdecorator":13634,"Ġwatching":13635,"underscore":13636,"Ġidentical":13637,"ĠverifyENOENT":13638,"ĠPerMessageDeflate":13639,"ĠsubscribeToResult":13640,"ĠWordArray":13641,"Ġdeferred":13642,"readdirSync":13643,"TrueColor":13644,"isNativeFunction":13645,"symlinkType":13646,"symlinkPaths":13647,"ĠClone":13648,"leadingComments":13649,"ĠFUNC":13650,"Decipheriv":13651,"Directive":13652,"Ġretrie":13653,"ĠWriteStream":13654,"Ġdetermined":13655,"tinuation":13656,"ancellation":13657,"ĠHeader":13658,"Rounded":13659,"zloirock":13660,"wrapNativeSuper":13661,"\"\"":13662,"\"'<":13663,"'[":13664,")(<":13665,"*\\/":13666,"-@@":13667,":*<":13668,"<{<":13669,"?(":13670,"Aux":13671,"AMES":13672,"BABEL":13673,"CO":13674,"Cmd":13675,"Cors":13676,"CWD":13677,"Detect":13678,"Disting":13679,"Evaluate":13680,"Fit":13681,"Href":13682,"HasteMap":13683,"IFT":13684,"Memory":13685,"Outer":13686,"PLU":13687,"Side":13688,"SOURCE":13689,"Ux":13690,"VNode":13691,"_);<":13692,"acosh":13693,"cuL":13694,"hc":13695,"iPos":13696,"lstatSync":13697,"mcm":13698,"magic":13699,"pri":13700,"potential":13701,"sri":13702,"wast":13703,"Âł":13704,"Ġhe":13705,"ľâĶĢâĶĢ":13706,"recommended":13707,"ined":13708,"atRule":13709,"ength":13710,"undef":13711,"unpipe":13712,"unevaluated":13713,"Ġfont":13714,"Ġfiring":13715,"isDigit":13716,"exponent":13717,"ingPoint":13718,"Ġ_`{":13719,"Ġsch":13720,"Ġsong":13721,"Ġsqrt":13722,"immediate":13723,"lotable":13724,"ĠfunctionNames":13725,"Ġmuch":13726,"uting":13727,"Ġ\"}":13728,"Ġ\"\",":13729,"Ġ\"\"<":13730,"Ġ\"{{":13731,"omit":13732,"')()<":13733,"Reset":13734,"Proposal":13735,"trc":13736,
[...]
